<unk>	0
<s>	0
</s>	0
▁the	-2.91874
.	-3.17694
,	-3.27541
▁of	-3.64553
▁and	-3.77884
▁to	-3.93707
▁in	-3.93752
▁a	-4.24882
▁is	-4.60134
s	-4.60266
▁for	-4.81447
▁on	-4.97863
▁that	-5.01724
-	-5.18562
▁has	-5.25603
▁was	-5.29389
▁be	-5.298
▁with	-5.31326
▁it	-5.38212
▁he	-5.39647
▁this	-5.40774
▁by	-5.41432
▁will	-5.42288
▁have	-5.48422
▁are	-5.48476
▁(	-5.48757
▁as	-5.50941
▁said	-5.54446
▁from	-5.56956
▁at	-5.577
'	-5.67646
)	-5.69797
▁india	-5.71501
▁not	-5.71816
▁also	-5.82146
▁his	-5.83397
:	-5.86228
▁been	-5.87906
▁you	-5.89925
▁we	-5.95182
▁i	-5.95877
▁an	-5.96769
▁minister	-5.98974
▁were	-6.04705
▁they	-6.05498
▁all	-6.13255
▁their	-6.17198
▁had	-6.17955
▁police	-6.21705
▁or	-6.28286
▁but	-6.28809
▁which	-6.28871
ing	-6.29134
▁who	-6.30343
▁government	-6.31534
▁there	-6.43132
▁people	-6.43844
▁state	-6.45224
?	-6.47415
▁one	-6.47433
▁them	-6.50973
▁new	-6.54091
▁its	-6.54325
▁after	-6.57259
▁can	-6.59063
."	-6.59104
ed	-6.5978
▁rs	-6.59975
▁so	-6.61135
▁singh	-6.61239
▁indian	-6.62546
▁no	-6.63019
▁two	-6.63454
▁-	-6.63909
▁	-6.70183
▁other	-6.71175
▁against	-6.71297
▁"	-6.72447
▁up	-6.73634
▁about	-6.75498
▁our	-6.75803
▁over	-6.75855
▁delhi	-6.76334
▁chief	-6.76914
▁him	-6.79631
▁what	-6.80117
▁would	-6.8126
▁bjp	-6.81704
▁out	-6.83134
▁first	-6.83205
▁under	-6.83763
▁"""	-6.85502
▁do	-6.85677
▁case	-6.86156
▁her	-6.8626
▁time	-6.88524
▁when	-6.88748
▁us	-6.90461
▁modi	-6.9105
▁'	-6.91131
▁""	-6.91409
▁if	-6.91854
▁your	-6.91968
▁these	-6.93527
▁per	-6.93587
▁president	-6.95197
▁congress	-6.97257
▁court	-6.98965
▁more	-6.99573
i	-7.0234
▁any	-7.02761
a	-7.0322
▁being	-7.04678
▁prime	-7.05025
▁day	-7.05061
▁she	-7.05507
▁country	-7.06008
▁during	-7.07351
▁should	-7.07372
t	-7.10277
▁film	-7.11959
▁my	-7.12287
▁such	-7.13543
▁world	-7.13926
▁into	-7.14554
▁while	-7.15904
▁some	-7.16532
▁made	-7.1661
d	-7.17005
▁then	-7.18287
▁only	-7.19211
▁national	-7.21329
▁those	-7.2248
),	-7.2254
▁three	-7.23136
e	-7.25316
▁party	-7.25681
▁like	-7.26469
▁shri	-7.26592
▁between	-7.30828
▁however	-7.31862
▁than	-7.3242
▁many	-7.33735
▁may	-7.36503
▁crore	-7.37039
▁pakistan	-7.3837
▁last	-7.38815
th	-7.38918
▁today	-7.38929
▁how	-7.39637
▁here	-7.40248
▁me	-7.40714
▁year	-7.41008
▁through	-7.42161
▁very	-7.42592
▁ministry	-7.42718
▁take	-7.43402
▁development	-7.43857
▁both	-7.44752
▁work	-7.45328
▁pradesh	-7.45377
▁god	-7.46128
▁district	-7.46288
▁well	-7.46865
/	-7.50255
in	-7.51175
▁khan	-7.52965
▁cent	-7.5363
▁accused	-7.53635
▁before	-7.53895
▁high	-7.53995
▁life	-7.55461
▁narendra	-7.55616
▁where	-7.5597
the	-7.56059
▁make	-7.56801
▁former	-7.57047
▁union	-7.57256
▁taken	-7.57306
▁years	-7.57313
▁did	-7.58073
▁family	-7.59617
▁kumar	-7.60061
▁states	-7.60268
▁meeting	-7.61092
▁number	-7.61266
▁good	-7.61437
▁allah	-7.61745
▁most	-7.621
ly	-7.63548
▁gandhi	-7.64004
▁&	-7.64058
▁shall	-7.64355
▁home	-7.65303
▁get	-7.65542
▁present	-7.65732
▁could	-7.66
▁10	-7.66212
!	-7.66391
▁bank	-7.66771
▁women	-7.67297
,""	-7.67424
."""	-7.67782
▁incident	-7.68511
▁come	-7.69158
▁now	-7.69857
▁health	-7.70338
▁water	-7.70882
▁even	-7.71682
▁including	-7.72152
▁team	-7.72165
▁among	-7.72919
▁part	-7.73252
▁pm	-7.73302
▁act	-7.73314
▁students	-7.74133
▁given	-7.74385
▁2	-7.76054
▁public	-7.76362
▁s	-7.76681
▁cases	-7.77554
▁1	-7.7784
▁hospital	-7.78427
▁am	-7.78484
▁lakh	-7.78506
▁need	-7.78538
▁four	-7.8155
▁know	-7.81587
▁each	-7.8178
▁say	-7.81851
▁registered	-7.82871
▁place	-7.83592
▁social	-7.84148
▁way	-7.84168
▁power	-7.84731
▁media	-7.85642
▁information	-7.86197
▁due	-7.863
▁leader	-7.86324
▁just	-7.86375
▁set	-7.86546
▁central	-7.86655
▁go	-7.87701
""	-7.87754
▁mumbai	-7.87881
▁secretary	-7.88128
▁children	-7.8816
▁help	-7.88907
▁second	-7.88963
▁general	-7.8915
▁held	-7.89694
▁because	-7.89793
▁security	-7.89892
▁sabha	-7.90009
m	-7.90146
▁man	-7.90248
▁3	-7.91337
▁down	-7.91355
▁every	-7.91839
▁international	-7.9197
▁sharma	-7.91985
▁5	-7.92215
▁back	-7.92279
▁lord	-7.92688
▁injured	-7.93035
▁kashmir	-7.93058
▁ram	-7.93224
▁same	-7.93682
▁various	-7.9442
▁arrested	-7.94438
▁further	-7.94707
▁see	-7.94978
▁punjab	-7.95097
▁members	-7.95701
▁several	-7.96209
y	-7.96522
▁matter	-7.96574
▁according	-7.97213
▁order	-7.9791
▁days	-7.98283
▁next	-7.98624
▁kapoor	-7.99317
▁law	-7.99434
▁five	-7.99868
▁another	-7.99967
▁took	-8.00034
▁education	-8.00117
▁around	-8.00387
▁later	-8.00782
▁says	-8.01324
▁house	-8.01897
▁spot	-8.02042
▁death	-8.02137
▁right	-8.02488
▁4	-8.02515
▁used	-8.0278
n	-8.03021
▁shah	-8.03583
▁support	-8.03645
▁others	-8.03744
▁why	-8.04274
▁official	-8.04518
▁special	-8.04698
▁test	-8.04831
▁told	-8.04972
▁occasion	-8.05126
▁department	-8.05136
▁action	-8.05724
▁farmers	-8.05735
▁dr	-8.05945
▁must	-8.06618
▁senior	-8.06763
▁system	-8.07177
▁city	-8.07466
▁long	-8.07538
▁going	-8.07931
).	-8.07988
▁too	-8.08062
▁sector	-8.0811
▁12	-8.08208
▁along	-8.08354
▁issue	-8.08366
▁yet	-8.08527
▁assembly	-8.08814
▁total	-8.09298
▁far	-8.09397
▁company	-8.09623
▁rahul	-8.09626
▁sent	-8.10009
▁body	-8.10209
▁countries	-8.10628
▁does	-8.11026
▁added	-8.11162
▁services	-8.11485
▁area	-8.11648
▁use	-8.11725
▁report	-8.11765
▁different	-8.11871
▁air	-8.1249
▁board	-8.12493
▁since	-8.12558
▁killed	-8.12862
▁called	-8.13866
▁best	-8.13887
▁justice	-8.14093
▁started	-8.14264
▁committee	-8.14694
▁cricket	-8.1489
▁post	-8.15029
▁group	-8.15188
er	-8.15412
▁leaders	-8.15707
▁great	-8.15745
▁seen	-8.1623
▁important	-8.16297
▁much	-8.16346
▁price	-8.16367
▁give	-8.16493
▁across	-8.16631
▁son	-8.17008
▁want	-8.17012
▁won	-8.17228
▁maharashtra	-8.17264
▁south	-8.17281
▁director	-8.17449
▁asked	-8.1811
o	-8.18225
▁decision	-8.18337
r	-8.19416
▁available	-8.1986
▁following	-8.20273
▁persons	-8.20413
c	-8.20469
▁off	-8.20553
▁situation	-8.20641
▁west	-8.2067
▁earlier	-8.20719
▁officials	-8.2102
▁found	-8.21076
▁covid	-8.21751
▁came	-8.21979
▁elections	-8.22007
▁role	-8.22702
▁done	-8.23255
▁centre	-8.23923
▁lok	-8.23942
▁name	-8.24163
al	-8.24672
▁areas	-8.25294
▁political	-8.25758
▁8	-8.2576
g	-8.25988
▁school	-8.26178
▁jammu	-8.26394
▁fire	-8.26523
▁investigation	-8.26591
▁soon	-8.27232
▁haryana	-8.27734
▁service	-8.28224
▁video	-8.28274
▁away	-8.28608
▁period	-8.28678
▁never	-8.28764
▁[	-8.28843
▁6	-8.28979
▁things	-8.29297
▁election	-8.29682
▁person	-8.29763
▁become	-8.29947
▁gujarat	-8.304
▁section	-8.305
▁technology	-8.30571
▁already	-8.30646
▁scheme	-8.31077
▁commission	-8.31168
▁actor	-8.31182
▁15	-8.31366
▁20	-8.31683
▁road	-8.31755
▁food	-8.32241
▁upon	-8.32628
▁candidates	-8.32815
▁reported	-8.33001
▁got	-8.33106
▁e	-8.33329
▁month	-8.33386
▁medical	-8.33543
▁own	-8.33637
▁china	-8.33648
▁army	-8.33837
▁office	-8.33927
▁supreme	-8.33939
-19	-8.34056
b	-8.34185
▁village	-8.34289
▁series	-8.34558
▁affairs	-8.34593
▁based	-8.34764
▁land	-8.34918
k	-8.35127
▁project	-8.35196
▁university	-8.35547
▁attack	-8.35686
▁without	-8.35763
▁visit	-8.36017
▁seats	-8.36587
▁woman	-8.36689
▁statement	-8.36735
▁top	-8.36978
▁bihar	-8.36997
▁few	-8.37043
▁major	-8.37065
▁business	-8.37115
we	-8.37372
▁show	-8.37425
▁defence	-8.37731
▁men	-8.38011
▁currently	-8.38564
▁father	-8.38916
▁industry	-8.3912
▁working	-8.39229
▁provide	-8.39472
▁wife	-8.39739
▁economic	-8.39747
▁finance	-8.39748
▁announced	-8.39913
▁level	-8.39916
▁let	-8.40195
▁end	-8.40231
▁north	-8.4029
▁launched	-8.40491
▁together	-8.41127
]	-8.41148
▁local	-8.41317
▁making	-8.41569
▁news	-8.4199
▁research	-8.42178
▁jehovah	-8.42384
▁money	-8.42595
▁reached	-8.42655
▁love	-8.42685
gb	-8.42715
▁died	-8.42975
▁control	-8.43025
▁t	-8.43066
es	-8.43225
▁foreign	-8.43574
▁times	-8.43913
re	-8.43921
▁policy	-8.44097
▁still	-8.44348
▁think	-8.4477
▁growth	-8.44833
▁put	-8.44842
▁global	-8.45034
▁process	-8.45093
▁b	-8.45584
▁till	-8.45868
▁market	-8.46161
▁data	-8.4641
▁officer	-8.46436
▁phone	-8.46471
▁change	-8.46588
▁rajasthan	-8.46616
▁large	-8.46789
▁received	-8.47243
▁third	-8.47284
▁regard	-8.47432
▁known	-8.47639
▁earth	-8.47641
▁better	-8.47701
▁open	-8.47836
▁play	-8.47971
▁cannot	-8.47996
▁include	-8.48201
▁issued	-8.48216
▁again	-8.48328
▁taking	-8.48419
▁financial	-8.48639
%	-8.48694
▁human	-8.48698
▁7	-8.48777
▁p	-8.48849
▁issues	-8.49183
▁match	-8.49582
▁saying	-8.49826
▁uttar	-8.50145
▁tax	-8.50391
▁programme	-8.50504
▁k	-8.5076
▁event	-8.5094
▁informed	-8.51344
▁six	-8.51603
▁look	-8.51645
▁vice	-8.51676
▁towards	-8.51915
▁force	-8.52217
▁movie	-8.52293
st	-8.52356
an	-8.52416
▁left	-8.52421
▁dont	-8.52518
▁form	-8.5301
▁region	-8.53265
▁nation	-8.53469
▁/	-8.53607
▁bengal	-8.53794
▁lead	-8.53825
▁energy	-8.54161
▁always	-8.54355
▁management	-8.54356
▁runs	-8.5445
▁filed	-8.54558
▁increase	-8.54698
▁yadav	-8.54855
▁mp	-8.55052
▁full	-8.5507
▁indias	-8.55377
▁mr	-8.55607
▁11	-8.55688
u	-8.56007
▁comes	-8.56327
▁released	-8.56426
▁un	-8.56527
▁within	-8.56746
▁account	-8.56773
▁rate	-8.56777
▁read	-8.56799
▁bollywood	-8.56931
▁24	-8.56967
▁officers	-8.57107
it	-8.57114
▁lot	-8.57962
▁believe	-8.57986
▁free	-8.58436
▁recently	-8.58678
▁list	-8.59262
▁million	-8.59305
▁date	-8.59411
▁council	-8.59786
▁result	-8.59912
▁book	-8.60037
▁win	-8.60057
▁keep	-8.60191
▁18	-8.60606
▁re	-8.609
▁shared	-8.61195
▁c	-8.61256
▁camera	-8.6134
▁kohli	-8.61376
▁jesus	-8.61692
▁mother	-8.61754
▁private	-8.61785
▁provided	-8.61786
▁capital	-8.61819
▁future	-8.61828
▁interest	-8.62216
▁parliament	-8.62491
▁big	-8.6262
▁gold	-8.62644
▁ministers	-8.63072
▁child	-8.63195
▁cost	-8.6372
▁australia	-8.63809
▁oil	-8.63983
▁bring	-8.63988
▁small	-8.63999
▁went	-8.64225
▁week	-8.64273
▁united	-8.64673
▁bill	-8.64899
▁amit	-8.65009
▁results	-8.65035
on	-8.65145
▁workers	-8.65179
to	-8.65195
▁cbi	-8.65329
▁complaint	-8.65512
▁having	-8.65625
▁treatment	-8.65662
▁efforts	-8.6567
▁station	-8.65812
▁member	-8.65868
▁plan	-8.6593
▁storage	-8.66062
▁directed	-8.66129
▁continue	-8.66356
▁live	-8.66566
▁16	-8.66593
▁14	-8.66601
▁karnataka	-8.66689
▁non	-8.66775
▁ensure	-8.6689
▁start	-8.67047
▁final	-8.67091
▁brought	-8.67241
▁cabinet	-8.67391
▁decided	-8.67449
▁projects	-8.6753
▁hand	-8.67612
▁9	-8.67635
▁led	-8.67929
▁society	-8.67948
▁march	-8.68176
▁13	-8.68182
▁youth	-8.68405
▁trade	-8.68509
▁prices	-8.68863
▁car	-8.68889
▁temple	-8.68954
▁meet	-8.68981
▁100	-8.69203
p	-8.6923
▁chairman	-8.69388
▁30	-8.69614
l	-8.69684
▁production	-8.69695
▁25	-8.69722
▁trump	-8.6994
▁doing	-8.70087
▁higher	-8.70151
▁played	-8.70384
▁meanwhile	-8.70446
▁forces	-8.70756
▁parties	-8.70876
▁months	-8.70883
▁ali	-8.70966
▁view	-8.70979
▁april	-8.71178
▁railway	-8.71266
▁cm	-8.71367
▁head	-8.7149
▁50	-8.71497
(	-8.71625
▁m	-8.71709
▁find	-8.718
""."	-8.71893
▁war	-8.72238
▁etc	-8.72283
▁income	-8.73156
▁daughter	-8.73275
...	-8.73317
▁tamil	-8.73794
▁front	-8.73795
▁co	-8.73828
▁alleged	-8.73876
▁expected	-8.73983
▁dead	-8.7405
▁side	-8.74282
▁conference	-8.74523
▁kerala	-8.74747
▁entire	-8.75013
▁face	-8.75097
▁peace	-8.75207
▁companies	-8.75266
▁training	-8.75479
▁past	-8.75542
▁question	-8.75557
▁r	-8.75801
▁clear	-8.75995
▁captain	-8.76506
▁besides	-8.76586
▁release	-8.76636
▁though	-8.76681
▁class	-8.76998
▁accident	-8.77301
▁community	-8.77624
▁near	-8.77724
▁able	-8.77801
▁means	-8.77828
▁indeed	-8.78621
he	-8.78656
▁written	-8.78659
x	-8.78743
▁civil	-8.79067
▁likely	-8.79209
▁possible	-8.79281
h	-8.79308
▁once	-8.79682
▁amount	-8.79697
f	-8.79839
20	-8.79956
▁call	-8.80108
▁gave	-8.80591
▁governments	-8.80979
▁building	-8.81189
▁basis	-8.81225
▁close	-8.8148
▁truth	-8.81498
▁award	-8.81769
▁cause	-8.81787
▁additional	-8.81921
▁lost	-8.82138
▁madhya	-8.82685
▁seven	-8.83102
▁term	-8.83154
▁science	-8.83263
▁institute	-8.83934
▁young	-8.84301
▁might	-8.84351
▁sub	-8.84413
▁2020	-8.84519
▁rural	-8.84654
▁getting	-8.8484
▁share	-8.84924
▁current	-8.85002
▁agriculture	-8.85094
▁history	-8.85137
▁address	-8.85194
▁sports	-8.85732
▁cup	-8.85779
▁pay	-8.85837
▁parts	-8.8604
▁sources	-8.86045
▁strong	-8.86082
▁nothing	-8.8621
▁card	-8.86218
and	-8.86337
▁whom	-8.86413
▁districts	-8.86448
▁details	-8.86483
▁run	-8.86729
▁nor	-8.86736
▁old	-8.8685
▁happy	-8.87066
▁cooperation	-8.87109
▁needs	-8.87323
▁deputy	-8.87335
▁condition	-8.87467
▁n	-8.87479
▁increased	-8.8753
▁o	-8.87612
▁constitution	-8.87619
▁declared	-8.87753
▁using	-8.878
▁became	-8.88106
▁opposition	-8.88107
▁lives	-8.8811
▁virat	-8.88156
▁features	-8.88323
▁june	-8.88349
▁whether	-8.8843
▁claimed	-8.88605
▁check	-8.88843
▁v	-8.88948
mp	-8.88956
▁related	-8.89007
as	-8.89097
▁therefore	-8.89119
▁heart	-8.89128
▁field	-8.89148
▁december	-8.89263
▁girl	-8.89274
▁main	-8.89283
▁true	-8.89548
▁activities	-8.89718
▁single	-8.89769
▁infrastructure	-8.89904
▁knowledge	-8.89941
▁investment	-8.90081
▁capacity	-8.90138
▁remain	-8.90272
▁online	-8.90386
▁d	-8.90441
2	-8.90442
▁salman	-8.90468
▁coronavirus	-8.90839
▁joint	-8.91035
▁himself	-8.91077
▁september	-8.91178
▁coming	-8.91183
▁personnel	-8.91262
▁website	-8.91264
▁article	-8.91312
▁andhra	-8.91543
▁reports	-8.91567
▁common	-8.91689
▁parents	-8.91772
▁east	-8.91864
▁heavy	-8.91877
▁application	-8.9198
▁problems	-8.91984
▁conducted	-8.92039
▁met	-8.92103
▁governor	-8.92109
▁2019	-8.92112
▁stated	-8.92116
▁above	-8.92162
▁ever	-8.92258
▁gods	-8.92307
▁england	-8.92353
▁age	-8.9257
▁banks	-8.92649
man	-8.92685
▁key	-8.92831
▁created	-8.9299
▁hours	-8.92997
▁de	-8.93069
▁least	-8.93072
▁something	-8.93215
▁connection	-8.93381
▁example	-8.93477
▁fight	-8.93505
▁mission	-8.93508
▁respect	-8.93578
▁college	-8.93721
▁quality	-8.93795
▁november	-8.93994
▁bible	-8.94021
▁point	-8.94229
ve	-8.94241
▁rights	-8.9439
▁stars	-8.94396
▁examination	-8.94408
▁night	-8.94717
▁sri	-8.94723
▁problem	-8.94798
▁economy	-8.95155
▁return	-8.95167
▁hindi	-8.95219
▁really	-8.95248
▁points	-8.95566
▁forward	-8.95796
▁places	-8.9592
▁faith	-8.95983
▁january	-8.96046
▁october	-8.96247
▁july	-8.96499
▁study	-8.965
▁move	-8.96601
▁railways	-8.96768
▁charge	-8.97136
▁bharat	-8.9717
▁environment	-8.97206
▁course	-8.97298
▁administration	-8.97303
▁behind	-8.97496
▁line	-8.97607
▁films	-8.98032
▁actress	-8.98225
▁expressed	-8.98238
▁step	-8.9842
▁17	-8.98573
up	-8.98733
▁budget	-8.98854
▁authority	-8.98901
▁attended	-8.98925
▁husband	-8.99082
▁violence	-8.99108
▁twitter	-8.9931
▁don	-8.99516
▁fact	-8.99919
▁benefit	-8.99945
▁value	-8.99948
▁launch	-8.99986
▁sena	-9.00012
▁thus	-9.00207
▁speaking	-9.00307
▁citizens	-9.00474
▁welfare	-9.00644
▁space	-9.00651
▁language	-9.00798
▁poor	-9.0081
day	-9.00856
▁game	-9.0086
▁largest	-9.00897
▁schools	-9.01124
▁session	-9.01216
▁unto	-9.01245
▁word	-9.01272
▁ye	-9.01313
▁happened	-9.01351
▁hit	-9.01455
▁friends	-9.01601
▁deal	-9.01657
▁mobile	-9.01898
▁light	-9.01912
▁position	-9.01979
▁raj	-9.02022
▁brother	-9.02107
▁commissioner	-9.02109
year	-9.02296
▁institutions	-9.02298
▁border	-9.02337
▁percent	-9.02425
▁care	-9.02438
or	-9.02444
▁august	-9.0248
▁reason	-9.02501
▁products	-9.02527
▁self	-9.02674
▁required	-9.02916
▁transport	-9.03008
▁mla	-9.03018
▁g	-9.03019
▁nadu	-9.03056
1	-9.03174
▁passed	-9.03288
▁identified	-9.03804
▁early	-9.03857
▁apart	-9.03961
▁21	-9.04027
▁candidate	-9.04203
▁words	-9.0439
▁bench	-9.04608
▁record	-9.04648
▁murder	-9.04704
▁previous	-9.0478
▁bangladesh	-9.04796
▁serious	-9.04928
▁seat	-9.04956
▁fund	-9.05097
▁19	-9.05243
▁often	-9.05288
▁february	-9.05313
▁construction	-9.05365
▁mind	-9.05375
ic	-9.05397
▁less	-9.05539
▁works	-9.05746
▁thing	-9.05933
▁culture	-9.06015
▁raised	-9.06059
▁teams	-9.06126
▁admitted	-9.06182
▁driver	-9.06189
▁recovered	-9.06197
▁terms	-9.06331
▁campaign	-9.06422
▁employees	-9.06525
▁hindu	-9.0656
▁limited	-9.06618
▁active	-9.06703
▁wrote	-9.06782
▁themselves	-9.06783
▁rohit	-9.0682
▁players	-9.06952
▁immediately	-9.07082
▁anti	-9.07134
▁pro	-9.07175
▁ipl	-9.07342
▁demand	-9.07354
▁fear	-9.07364
▁note	-9.07458
▁association	-9.07502
▁conduct	-9.07665
▁gas	-9.07832
▁hope	-9.07836
▁corporation	-9.07905
▁anything	-9.07947
▁allowed	-9.08208
▁hard	-9.08339
▁highest	-9.08366
▁agency	-9.08562
▁families	-9.08616
▁message	-9.0875
▁positive	-9.08794
▁j	-9.08866
▁nations	-9.08878
▁urban	-9.08958
▁africa	-9.08992
▁train	-9.09025
▁sanjay	-9.09237
▁king	-9.09553
▁everyone	-9.0959
▁cities	-9.0986
▁included	-9.09885
▁hyderabad	-9.09916
▁job	-9.10045
▁real	-9.10055
ta	-9.10265
▁understand	-9.1033
▁create	-9.10622
▁followed	-9.10718
▁probe	-9.10812
▁military	-9.11003
▁patel	-9.1106
▁polls	-9.11105
▁town	-9.11121
▁letter	-9.11168
ers	-9.1118
▁river	-9.11184
▁feel	-9.11239
▁ahead	-9.1136
▁personal	-9.11581
▁40	-9.11624
▁staff	-9.11681
▁hearing	-9.11805
▁patients	-9.1189
▁credit	-9.1191
▁response	-9.12156
▁shiv	-9.1216
▁leave	-9.12178
▁natural	-9.12224
▁story	-9.12562
4	-9.12617
▁progress	-9.12794
▁whole	-9.12855
ra	-9.12861
▁bodies	-9.12913
▁population	-9.12984
▁priyanka	-9.13093
▁vehicles	-9.13119
▁judge	-9.13338
▁success	-9.1345
▁rajya	-9.13747
▁living	-9.13857
▁kind	-9.13999
is	-9.14014
▁season	-9.14099
▁rules	-9.14231
▁recent	-9.1434
▁saw	-9.14468
▁loss	-9.14484
▁f	-9.14553
▁affected	-9.14571
▁muslim	-9.14595
▁little	-9.14626
▁sp	-9.14688
▁developed	-9.14945
▁stand	-9.15077
▁relationship	-9.15494
▁u	-9.15554
▁mlas	-9.15623
▁hold	-9.15644
▁certain	-9.15772
▁authorities	-9.15823
▁ground	-9.15846
▁phase	-9.1603
▁until	-9.16066
▁safety	-9.16068
▁turn	-9.16085
▁rushed	-9.16138
▁press	-9.16199
▁doctors	-9.16209
▁2018	-9.16238
▁wrong	-9.16301
▁necessary	-9.16306
▁movement	-9.16474
▁similar	-9.16676
▁relations	-9.16692
▁mark	-9.16814
▁domestic	-9.1685
▁trust	-9.16887
▁short	-9.16946
▁playing	-9.16979
▁assam	-9.17079
▁jehovahs	-9.1711
▁eight	-9.1711
▁""""	-9.17244
▁outside	-9.17281
▁airport	-9.17394
▁performance	-9.17644
▁politics	-9.1771
▁x	-9.17746
▁black	-9.17822
▁star	-9.17856
7	-9.17857
▁upcoming	-9.18022
rs	-9.18058
▁regarding	-9.18083
▁named	-9.1841
▁includes	-9.18466
v	-9.18489
▁km	-9.1854
▁effect	-9.18557
▁measures	-9.18678
▁2017	-9.187
▁operation	-9.18756
▁questions	-9.18855
▁legal	-9.18962
▁22	-9.18963
▁paid	-9.19014
"	-9.19592
▁protest	-9.19619
▁model	-9.19728
▁especially	-9.1982
▁appointed	-9.19914
▁experience	-9.19946
▁surely	-9.19979
▁jail	-9.20096
▁wickets	-9.20274
▁reach	-9.20298
▁chennai	-9.20452
▁blood	-9.20477
us	-9.20615
▁religious	-9.20654
▁trying	-9.20782
based	-9.20908
▁fast	-9.21169
▁began	-9.212
▁huge	-9.21232
▁kejriwal	-9.21337
▁prasad	-9.21339
▁tourism	-9.21469
▁spread	-9.21572
▁sea	-9.21736
old	-9.21783
▁concerned	-9.21802
▁produced	-9.21836
▁spirit	-9.21954
▁cultural	-9.21979
▁festival	-9.22075
▁file	-9.22089
▁low	-9.22144
▁leading	-9.22146
▁kingdom	-9.22166
▁anyone	-9.22266
▁offer	-9.22357
▁steps	-9.22459
▁alliance	-9.22488
▁follow	-9.22557
ar	-9.22648
▁smartphone	-9.22659
▁religion	-9.22725
▁giving	-9.22747
▁either	-9.22811
able	-9.22834
▁opportunity	-9.23003
▁committed	-9.23004
▁games	-9.23034
▁search	-9.23052
▁responsibility	-9.23069
▁employment	-9.23075
▁involved	-9.23403
▁whose	-9.23615
▁chandigarh	-9.23659
▁exam	-9.23664
▁kolkata	-9.23852
▁looking	-9.24169
▁fir	-9.24196
am	-9.24202
▁exchange	-9.2423
▁conditions	-9.24299
▁petrol	-9.24308
▁implementation	-9.2431
▁operations	-9.24505
▁scheduled	-9.24546
▁presented	-9.24708
▁revealed	-9.24732
▁function	-9.24772
▁groups	-9.24893
▁access	-9.25086
▁completed	-9.25171
▁providing	-9.25828
▁monday	-9.25901
▁passengers	-9.25968
pur	-9.26016
▁facilities	-9.26227
▁chinese	-9.26365
of	-9.26376
▁supply	-9.26379
▁ready	-9.26566
▁worth	-9.26825
▁morning	-9.26969
▁considered	-9.27079
▁gst	-9.27155
▁birth	-9.27165
▁tweeted	-9.27188
▁gone	-9.27225
▁approved	-9.27378
▁watch	-9.27481
▁digital	-9.27595
▁focus	-9.27798
▁review	-9.27898
▁agreement	-9.28084
▁vehicle	-9.28151
w	-9.28182
▁diesel	-9.28259
▁tell	-9.28473
▁constituency	-9.28664
▁complete	-9.2868
▁rain	-9.287
▁pakistani	-9.28786
▁lodged	-9.28808
▁friday	-9.28876
▁lower	-9.28886
▁houses	-9.28889
▁popular	-9.29003
▁asia	-9.29217
▁sought	-9.2922
9	-9.29317
▁arrest	-9.29402
▁protection	-9.2943
&	-9.29504
▁roles	-9.29536
▁express	-9.29582
▁israel	-9.29658
▁ask	-9.29679
▁purpose	-9.2982
▁picture	-9.30028
▁evidence	-9.30029
▁relief	-9.30045
▁govt	-9.3012
▁needed	-9.30247
▁freedom	-9.30257
▁wanted	-9.30326
▁ji	-9.30505
▁tv	-9.30522
▁industrial	-9.30538
▁thou	-9.30742
▁vs	-9.30865
▁difficult	-9.30913
▁hands	-9.30922
▁26	-9.30958
▁half	-9.3096
▁rajnath	-9.31025
6	-9.31121
▁century	-9.31174
▁al	-9.31178
▁resources	-9.31312
▁recorded	-9.31339
▁except	-9.31373
▁status	-9.31443
▁unit	-9.31455
▁1,	-9.31959
▁spokesperson	-9.32008
▁vijay	-9.32103
▁talk	-9.3219
▁daily	-9.32228
▁teachers	-9.32242
▁rule	-9.32442
▁industries	-9.32506
▁display	-9.32558
india	-9.32562
▁nath	-9.32596
▁late	-9.32631
▁quite	-9.32673
▁foundation	-9.32675
▁instagram	-9.3272
▁marriage	-9.32733
3	-9.32923
▁external	-9.32972
na	-9.33179
en	-9.33211
▁talks	-9.33217
▁annual	-9.33249
▁enter	-9.33282
▁principal	-9.33294
led	-9.33364
▁jharkhand	-9.3344
▁rise	-9.33506
▁claim	-9.33605
▁assistance	-9.33652
▁located	-9.3366
▁31	-9.33671
▁everything	-9.33725
▁disease	-9.33743
▁joined	-9.3378
▁bad	-9.33784
at	-9.33806
▁indians	-9.33841
▁network	-9.3385
▁english	-9.3393
▁despite	-9.34234
▁billion	-9.34273
▁anil	-9.3448
▁dhoni	-9.3467
▁super	-9.34682
▁thought	-9.34699
▁compared	-9.34762
▁terror	-9.35019
▁music	-9.35085
▁impact	-9.35108
▁red	-9.35155
▁steel	-9.35178
▁addition	-9.35291
▁itself	-9.35418
▁provisions	-9.35558
▁stay	-9.35635
▁crime	-9.35659
▁nearly	-9.35702
▁carried	-9.35836
▁proposed	-9.35841
▁code	-9.35845
▁ltd	-9.36009
▁opportunities	-9.36057
▁funds	-9.36153
▁bus	-9.36377
▁photo	-9.36455
▁lal	-9.36509
▁notice	-9.3671
▁worked	-9.3675
j	-9.36909
▁muslims	-9.36926
▁leadership	-9.36955
▁investigating	-9.37095
▁answer	-9.37268
▁white	-9.37408
▁below	-9.37433
▁improve	-9.37744
▁average	-9.37769
▁property	-9.37845
la	-9.37896
▁terrorism	-9.37938
▁married	-9.38069
▁potential	-9.38096
▁stop	-9.38145
▁charges	-9.38145
▁odisha	-9.38156
▁schemes	-9.38168
▁closed	-9.38189
▁fourth	-9.38295
▁art	-9.38369
▁aircraft	-9.38372
▁successful	-9.38401
▁addressing	-9.38465
▁28	-9.38491
▁bachchan	-9.38522
▁silver	-9.38599
▁custody	-9.38748
ll	-9.38803
▁cash	-9.38831
this	-9.38962
▁join	-9.39036
ary	-9.39138
▁organised	-9.39527
▁direct	-9.39638
▁kept	-9.39663
▁im	-9.39689
▁users	-9.39715
▁200	-9.39917
▁pre	-9.39969
▁sunday	-9.39979
▁l	-9.40173
▁direction	-9.4024
▁nature	-9.40276
▁plans	-9.40343
▁sc	-9.40433
▁subject	-9.40454
▁tata	-9.40612
▁tuesday	-9.40662
▁modern	-9.40793
▁british	-9.40806
▁--	-9.40837
▁accounts	-9.41175
▁seeking	-9.41221
▁awards	-9.41291
▁manner	-9.41302
▁brothers	-9.41357
▁sections	-9.41401
▁greater	-9.41458
▁suicide	-9.41463
▁gets	-9.41504
▁almost	-9.41517
▁apply	-9.41531
▁trains	-9.41544
▁failed	-9.41544
▁worship	-9.41601
▁23	-9.41969
▁saturday	-9.42141
▁fans	-9.42325
▁makes	-9.42369
▁primary	-9.42377
▁27	-9.42384
▁stage	-9.42421
5	-9.42534
▁organisation	-9.42619
▁goods	-9.42669
▁viral	-9.42773
▁courts	-9.42779
▁allow	-9.42833
▁lanka	-9.42886
ness	-9.42898
▁traffic	-9.42928
▁confirmed	-9.43039
▁petition	-9.43085
▁witnesses	-9.43103
▁ex	-9.4327
▁executive	-9.4337
▁pictures	-9.43421
▁initiative	-9.43524
▁ms	-9.43549
▁presence	-9.43641
▁chopra	-9.43641
▁terrorists	-9.43664
if	-9.43734
▁deceased	-9.438
▁sale	-9.43812
▁changes	-9.43824
▁source	-9.43861
▁deaths	-9.4397
▁rest	-9.44059
▁built	-9.44127
▁signed	-9.44306
▁respectively	-9.44308
▁injuries	-9.4444
▁student	-9.445
▁try	-9.44574
▁benefits	-9.44701
▁site	-9.44767
▁eastern	-9.44778
▁internal	-9.44797
▁names	-9.44891
▁strength	-9.44893
▁underway	-9.45032
▁consider	-9.4513
▁centres	-9.45185
▁fine	-9.45246
▁victory	-9.45246
▁division	-9.45295
▁ceremony	-9.45326
▁himachal	-9.45329
▁discussed	-9.45344
▁david	-9.45356
▁build	-9.4551
▁criminal	-9.45564
▁duty	-9.45653
▁didnt	-9.45879
▁category	-9.45896
▁naidu	-9.45896
▁roads	-9.45898
▁travel	-9.45946
▁formed	-9.4603
▁app	-9.46038
▁stock	-9.46049
▁cut	-9.46083
▁effective	-9.46093
▁existing	-9.46119
▁regional	-9.46141
ji	-9.46233
▁goa	-9.46235
▁takes	-9.46281
▁uttarakhand	-9.46304
▁bilateral	-9.46336
▁plea	-9.46463
▁rally	-9.46472
▁victim	-9.4654
▁partnership	-9.46875
▁latest	-9.469
▁established	-9.46947
▁planning	-9.46961
▁evil	-9.4705
▁increasing	-9.47075
▁rape	-9.47079
▁chair	-9.47206
▁ago	-9.47227
▁american	-9.47281
▁prepared	-9.47321
▁material	-9.47368
▁insurance	-9.47372
▁zealand	-9.47372
▁challenge	-9.47423
▁laws	-9.47473
▁demanded	-9.4749
▁chhattisgarh	-9.47539
▁shot	-9.47594
▁inside	-9.47601
▁judicial	-9.47705
▁rates	-9.4776
▁gupta	-9.47793
▁speak	-9.47817
▁green	-9.47868
▁speech	-9.47929
▁save	-9.47975
▁caused	-9.48015
▁60	-9.48028
▁wednesday	-9.48286
▁majority	-9.48388
▁continued	-9.48457
▁range	-9.48459
▁moved	-9.48495
▁alone	-9.48627
▁target	-9.48649
▁votes	-9.48787
▁programmes	-9.48863
▁seized	-9.48879
▁agencies	-9.48953
▁challenges	-9.49035
▁referred	-9.49121
▁thursday	-9.49123
▁importance	-9.49207
▁internet	-9.49209
▁units	-9.49228
▁paul	-9.49269
▁happen	-9.4933
▁ones	-9.49411
▁mentioned	-9.4959
▁inter	-9.49687
▁rao	-9.49746
▁denied	-9.49795
▁sides	-9.49805
▁player	-9.49816
▁odi	-9.49974
▁pressure	-9.50014
▁risk	-9.50049
▁democracy	-9.50052
▁corruption	-9.50063
▁tried	-9.50101
▁telangana	-9.50137
▁sonia	-9.50193
▁republic	-9.50287
▁remained	-9.50296
▁akshay	-9.50303
▁promote	-9.50479
▁maximum	-9.50561
▁path	-9.50591
▁nagar	-9.50634
▁matches	-9.50705
▁handed	-9.50709
▁seek	-9.50946
▁clean	-9.50973
▁ways	-9.51016
▁equal	-9.51061
▁gives	-9.5107
▁pandemic	-9.51159
▁instead	-9.51203
▁critical	-9.5129
▁facing	-9.51341
▁learn	-9.51345
▁russia	-9.51381
▁minimum	-9.51418
▁punishment	-9.51423
▁matters	-9.51424
▁offered	-9.51427
▁scored	-9.51481
▁maintain	-9.51614
▁girls	-9.51642
▁individual	-9.51672
▁opening	-9.51679
▁parliamentary	-9.51695
ya	-9.51762
▁extended	-9.5184
▁technical	-9.51892
▁neither	-9.51937
▁yes	-9.52053
▁wants	-9.52113
▁changed	-9.52333
▁32	-9.5244
nd	-9.52529
▁arvind	-9.52584
▁payment	-9.52599
▁forest	-9.52712
▁particular	-9.52726
ka	-9.5274
▁systems	-9.52769
▁moment	-9.52858
▁bcci	-9.53001
▁turned	-9.53013
▁afghanistan	-9.53243
▁type	-9.53251
▁allegedly	-9.53345
▁sinha	-9.53361
▁nine	-9.53426
▁commercial	-9.53457
▁bail	-9.53796
▁coal	-9.53832
▁allegations	-9.53889
▁eyes	-9.53978
▁ban	-9.5398
▁christian	-9.53998
▁provision	-9.54019
▁western	-9.5404
▁heard	-9.54109
▁29	-9.5428
▁rukh	-9.54297
▁biggest	-9.54393
▁setting	-9.54396
▁arun	-9.54397
▁japan	-9.54469
▁responsible	-9.54474
▁add	-9.54495
▁participated	-9.54524
▁easy	-9.54562
▁career	-9.5469
▁remember	-9.55058
▁attention	-9.55185
▁donald	-9.55188
▁loan	-9.55194
▁exercise	-9.55282
ma	-9.55346
▁nepal	-9.55434
▁approach	-9.55469
le	-9.55507
▁iran	-9.55611
▁league	-9.55638
▁urged	-9.55652
▁significant	-9.55676
▁couple	-9.55739
▁vote	-9.55791
▁basic	-9.55993
▁coach	-9.56151
▁contest	-9.56212
▁safe	-9.56359
▁attend	-9.56385
▁rbi	-9.5639
▁reasons	-9.56603
▁serve	-9.56612
▁london	-9.56809
▁stations	-9.56814
▁pti	-9.56842
▁sure	-9.57188
▁whatever	-9.57226
▁avoid	-9.573
▁summit	-9.57449
▁platform	-9.57461
▁actually	-9.57463
▁markets	-9.57531
▁sons	-9.57612
▁h	-9.57626
▁wish	-9.57765
▁visited	-9.57902
▁published	-9.57926
▁idea	-9.57963
▁ten	-9.57994
ha	-9.58024
▁ajay	-9.58034
▁talking	-9.58152
▁gb	-9.58192
▁soldiers	-9.58297
▁normal	-9.58321
▁send	-9.58322
▁shows	-9.58448
▁fresh	-9.58546
for	-9.58579
▁strengthen	-9.58698
▁crores	-9.58712
▁hospitals	-9.588
▁yoga	-9.588
▁villages	-9.58962
▁provides	-9.59029
▁elected	-9.59043
▁numbers	-9.59082
▁mukherjee	-9.59103
▁ashok	-9.59109
▁manufacturing	-9.59196
▁rather	-9.59199
▁lockdown	-9.5929
▁krishna	-9.59328
▁tests	-9.59358
▁thakur	-9.59383
▁rear	-9.59504
▁500	-9.59616
▁round	-9.59621
▁temperature	-9.59699
▁tournament	-9.59889
▁janata	-9.59945
▁commerce	-9.59969
▁innings	-9.60134
▁spiritual	-9.6017
▁80	-9.60182
▁john	-9.60268
▁jaitley	-9.60319
▁index	-9.60412
▁64	-9.6043
▁deep	-9.60448
▁certainly	-9.60486
▁fall	-9.60527
▁signs	-9.6055
▁selection	-9.6072
▁opened	-9.60736
▁net	-9.60864
▁physical	-9.60932
▁strike	-9.60971
▁facility	-9.60977
▁growing	-9.61008
▁page	-9.6103
▁revenue	-9.61127
▁understanding	-9.61202
▁shooting	-9.6124
▁vision	-9.6126
▁deepika	-9.61266
▁receive	-9.61339
▁degree	-9.61417
,""""	-9.61428
▁please	-9.61506
▁uk	-9.61513
▁friend	-9.61563
▁ncp	-9.61585
▁asian	-9.61613
▁witness	-9.61777
▁plant	-9.61864
▁port	-9.61878
▁facebook	-9.61935
▁70	-9.61963
▁spoke	-9.61996
▁generation	-9.62006
▁hear	-9.62103
▁climate	-9.62121
▁song	-9.62135
▁character	-9.62185
▁35	-9.62221
▁levels	-9.62223
▁command	-9.62271
▁proposal	-9.6228
▁via	-9.62311
▁although	-9.62317
▁rail	-9.62378
▁survey	-9.62437
▁labour	-9.62565
▁achieve	-9.62701
▁produce	-9.6275
▁appeal	-9.62928
▁|	-9.63095
▁2016	-9.63119
▁contribution	-9.63155
▁ordered	-9.63209
no	-9.63224
▁discussion	-9.63355
▁pass	-9.63365
▁regular	-9.6342
▁icc	-9.63457
▁bar	-9.63499
▁screen	-9.6354
▁inquiry	-9.63763
▁reply	-9.63772
▁testing	-9.63887
▁communication	-9.63942
▁sister	-9.63944
▁firm	-9.63972
▁trial	-9.64055
▁evening	-9.64148
▁essential	-9.64206
da	-9.64477
▁approval	-9.64535
▁independent	-9.64574
▁rejected	-9.64678
▁attacks	-9.64696
▁competition	-9.64732
▁independence	-9.64744
▁separate	-9.64818
8	-9.64925
▁begin	-9.64932
▁victims	-9.65043
ni	-9.65072
▁resolution	-9.65132
▁remains	-9.65153
▁yogi	-9.65226
▁enough	-9.65232
▁posted	-9.6535
▁returned	-9.65408
▁deployed	-9.65447
▁christians	-9.65564
▁2014	-9.65674
un	-9.657
▁goes	-9.65715
▁agricultural	-9.65729
▁multi	-9.65825
▁sensor	-9.65831
▁shares	-9.65865
▁prakash	-9.65932
▁learning	-9.66044
▁celebrated	-9.66164
▁selected	-9.66222
▁speed	-9.66297
▁base	-9.6635
▁boss	-9.66426
▁ball	-9.66552
▁calls	-9.6657
▁heavens	-9.66701
▁middle	-9.66709
▁thousand	-9.66738
▁events	-9.6679
▁felt	-9.66824
▁anniversary	-9.66827
▁initiatives	-9.6687
▁standard	-9.66937
kar	-9.6719
▁estimated	-9.67246
▁sense	-9.67311
▁keeping	-9.6737
▁reduce	-9.67373
▁completely	-9.67499
time	-9.67655
▁device	-9.67659
▁agreed	-9.67665
▁partner	-9.67787
▁prevent	-9.67816
▁accept	-9.6783
▁meetings	-9.67932
▁knows	-9.68005
▁raise	-9.68054
▁rich	-9.68055
▁none	-9.68081
▁someone	-9.68086
▁christ	-9.68112
▁bhatt	-9.68141
▁headed	-9.68196
▁running	-9.68347
▁accepted	-9.68375
▁design	-9.68396
▁terrorist	-9.68538
ul	-9.68545
▁concern	-9.68665
▁innovation	-9.6868
▁creation	-9.68752
▁ruling	-9.68955
▁banerjee	-9.68956
▁born	-9.69021
▁debut	-9.69065
▁sectors	-9.69073
▁feature	-9.69114
"",	-9.69217
▁fully	-9.69488
▁receiving	-9.69571
▁specific	-9.69572
▁registration	-9.69575
▁skill	-9.69614
▁offers	-9.69668
▁submitted	-9.69676
▁electricity	-9.69678
▁orders	-9.69703
▁cover	-9.69728
▁crisis	-9.69778
▁jobs	-9.6982
▁room	-9.69834
▁weather	-9.69885
▁amendment	-9.69974
▁amitabh	-9.69987
▁confidence	-9.69995
▁france	-9.70098
▁guidelines	-9.70222
▁carry	-9.7033
▁develop	-9.70401
▁eat	-9.70692
▁sign	-9.70784
▁suspended	-9.70829
▁granted	-9.70833
▁protect	-9.70846
▁:	-9.70855
▁engineering	-9.70892
▁fled	-9.70945
▁particularly	-9.7098
▁manmohan	-9.71029
▁germany	-9.71262
▁initiated	-9.71356
▁shown	-9.71358
▁tweet	-9.71393
""""	-9.71537
▁medal	-9.71676
80	-9.71797
▁truck	-9.71941
▁york	-9.71972
▁kareena	-9.7208
▁documents	-9.72093
▁battery	-9.72292
▁kapil	-9.72503
▁verily	-9.72508
▁cant	-9.72569
▁aap	-9.72575
▁pollution	-9.72608
▁developing	-9.7269
▁plays	-9.72763
z	-9.72793
▁box	-9.72809
▁journey	-9.72822
▁effort	-9.72896
▁voice	-9.72936
▁arrived	-9.73058
▁options	-9.73101
▁rajiv	-9.73198
ri	-9.73219
▁helped	-9.73248
▁imran	-9.73257
▁customers	-9.73314
ia	-9.73413
▁yesterday	-9.73571
▁interview	-9.73619
▁transfer	-9.73645
▁request	-9.73657
▁kaur	-9.73692
▁arjun	-9.73719
▁holding	-9.73777
▁housing	-9.73786
▁sunil	-9.73789
▁program	-9.73826
▁cast	-9.73927
▁birthday	-9.7402
▁stone	-9.74224
▁rescue	-9.74364
▁citizenship	-9.74438
▁bengaluru	-9.7444
▁believed	-9.7446
ity	-9.74467
▁distribution	-9.74542
▁reddy	-9.7455
te	-9.74601
▁democratic	-9.7465
▁suffered	-9.74711
▁solar	-9.74776
▁bsp	-9.74816
▁dal	-9.74864
▁anand	-9.74866
▁armed	-9.74914
▁organization	-9.74996
▁pune	-9.75037
▁ongoing	-9.75043
▁rai	-9.75071
▁link	-9.75206
▁awareness	-9.7531
▁practice	-9.75328
▁posts	-9.75403
▁battle	-9.75414
▁ahmedabad	-9.7542
▁ceo	-9.75422
de	-9.75428
▁navy	-9.75472
▁aware	-9.75557
▁placed	-9.75588
▁wedding	-9.75632
▁books	-9.75669
▁associated	-9.75778
▁protests	-9.7583
bjp	-9.75836
▁connectivity	-9.7596
▁appeared	-9.75976
com	-9.76158
▁fair	-9.76247
▁verdict	-9.7629
▁tour	-9.76299
▁panel	-9.763
▁tonnes	-9.76367
▁speaker	-9.76444
▁kg	-9.76501
▁flight	-9.76525
est	-9.7668
▁attempt	-9.76718
▁fell	-9.76738
▁pan	-9.76817
▁languages	-9.76853
▁beginning	-9.76956
▁standards	-9.77049
li	-9.77054
▁directly	-9.77246
▁defeat	-9.77278
▁holy	-9.7731
▁municipal	-9.77393
▁refused	-9.77522
rd	-9.77559
▁task	-9.77573
▁mean	-9.77612
▁die	-9.77619
▁hence	-9.77686
▁metro	-9.77765
megapixel	-9.77833
▁honour	-9.77834
▁anushka	-9.77849
▁plus	-9.77861
▁educational	-9.77883
▁sushant	-9.7796
▁dhawan	-9.78071
▁throughout	-9.78111
▁claims	-9.78156
▁continues	-9.78175
▁fee	-9.78214
so	-9.7823
▁mishra	-9.78298
▁introduced	-9.78326
▁mi	-9.78379
▁skipper	-9.78521
▁sachin	-9.78533
▁winning	-9.78546
▁kings	-9.78588
▁entry	-9.78639
▁paper	-9.78759
▁reserve	-9.78814
▁laid	-9.79092
co	-9.79179
▁mohan	-9.79337
▁immediate	-9.7938
▁virus	-9.79414
▁indies	-9.7943
▁score	-9.79445
▁reporters	-9.79498
▁priority	-9.79545
▁inaugurated	-9.79602
▁milk	-9.79605
ne	-9.79898
▁discuss	-9.79986
▁rainfall	-9.79999
▁ka	-9.80051
▁cricketer	-9.8007
▁served	-9.80102
▁pawar	-9.80114
▁representatives	-9.80115
▁2015	-9.80185
▁strategic	-9.80228
▁bhavan	-9.80241
▁monitoring	-9.80298
▁manohar	-9.80342
▁sharing	-9.80381
▁rajput	-9.80389
▁kovind	-9.80457
▁petroleum	-9.80457
▁thy	-9.80592
▁image	-9.80624
▁cancer	-9.80698
▁individuals	-9.80743
▁adityanath	-9.80804
▁option	-9.80898
▁implemented	-9.80999
▁soul	-9.81082
▁ganga	-9.81098
▁dedicated	-9.8128
▁awarded	-9.81285
▁remaining	-9.81377
▁dispute	-9.81476
▁nuclear	-9.815
▁intelligence	-9.815
▁hearts	-9.81555
▁decisions	-9.81669
▁break	-9.81829
▁wide	-9.81878
▁redmi	-9.81969
ism	-9.81977
▁nitish	-9.82086
▁departments	-9.82161
▁rupee	-9.82265
▁chandra	-9.82339
▁karan	-9.82419
▁multiple	-9.82419
▁becomes	-9.82517
▁studies	-9.82549
▁ed	-9.82607
▁grant	-9.82652
▁pradhan	-9.82674
▁observed	-9.82695
▁false	-9.82741
▁carrying	-9.82758
▁appear	-9.82766
▁double	-9.82781
▁creating	-9.82785
▁notification	-9.82796
▁residents	-9.82802
▁marks	-9.82816
▁48	-9.82829
▁90	-9.82915
▁sexual	-9.82971
▁smart	-9.8303
▁dream	-9.83117
▁reliance	-9.83148
▁lucknow	-9.83382
▁sit	-9.83406
▁healthy	-9.83428
▁valley	-9.83451
▁traditional	-9.83464
▁unique	-9.83487
▁rains	-9.83547
▁judges	-9.83552
▁bharatiya	-9.83629
▁korea	-9.8365
▁believers	-9.83659
▁similarly	-9.83708
▁television	-9.83731
▁finally	-9.83765
▁consumer	-9.84058
▁simple	-9.84179
▁litre	-9.84212
▁drug	-9.84261
eth	-9.84373
▁polling	-9.84383
▁colleges	-9.84385
▁america	-9.84456
▁reality	-9.84459
▁beyond	-9.84567
▁colour	-9.84569
▁ranveer	-9.8457
▁damage	-9.84579
ation	-9.84672
▁wicket	-9.84694
▁secondary	-9.84745
▁female	-9.84783
▁territory	-9.84806
▁mahatma	-9.84808
▁residence	-9.84809
▁addressed	-9.84813
▁commitment	-9.84898
▁tomorrow	-9.84928
▁experts	-9.84931
▁relat	-9.85018
▁batsman	-9.85297
▁noted	-9.85357
▁alia	-9.85384
▁stood	-9.85408
▁ancient	-9.85409
▁park	-9.85494
▁boy	-9.85616
▁squad	-9.85649
▁sitting	-9.85657
▁encounter	-9.85981
▁45	-9.85986
▁wishes	-9.86043
▁st	-9.86048
▁sad	-9.8608
▁scientists	-9.86123
▁stadium	-9.86136
▁cross	-9.86274
▁sun	-9.86276
▁actors	-9.86304
sh	-9.86307
▁fixed	-9.86406
▁grand	-9.86425
▁title	-9.86536
▁sales	-9.8656
▁recovery	-9.86637
▁waste	-9.8667
▁thereafter	-9.86696
▁suffering	-9.8672
▁auto	-9.86742
▁mercy	-9.86746
▁quarter	-9.87065
▁overall	-9.871
▁showed	-9.87106
▁values	-9.87146
▁proud	-9.87194
▁fuel	-9.87239
inch	-9.87244
▁+	-9.87331
▁android	-9.87361
▁loans	-9.87372
▁invited	-9.87389
▁stands	-9.87406
▁block	-9.87417
▁product	-9.87485
▁emergency	-9.87486
▁google	-9.87488
▁bigg	-9.87551
▁reforms	-9.87585
▁delegation	-9.87605
▁pranab	-9.87608
▁trading	-9.87733
▁behalf	-9.87781
▁export	-9.87872
▁devi	-9.87947
▁participation	-9.8798
▁corporate	-9.87983
▁imposed	-9.88001
▁organized	-9.88003
fi	-9.88006
▁panchayat	-9.88017
▁thank	-9.88033
▁seriously	-9.88089
▁original	-9.88102
▁else	-9.88104
▁goal	-9.88144
▁nehru	-9.88229
▁ties	-9.88247
▁proper	-9.88435
▁complex	-9.88446
▁rising	-9.88491
▁managed	-9.88524
▁apex	-9.88602
▁spent	-9.88605
▁tribal	-9.88612
▁bat	-9.88633
▁cr	-9.88661
▁thousands	-9.8871
▁minor	-9.88733
▁nobody	-9.88739
▁cell	-9.88761
▁dev	-9.88778
▁weeks	-9.88912
▁engine	-9.89206
▁150	-9.89219
▁standing	-9.89256
▁poll	-9.89342
▁fighting	-9.89457
▁royal	-9.89522
▁entered	-9.8959
▁computer	-9.89619
▁structure	-9.89677
▁scale	-9.89698
▁faced	-9.89718
▁padukone	-9.8973
▁banking	-9.89818
▁views	-9.89819
▁supported	-9.89849
▁activity	-9.89861
▁disaster	-9.89877
they	-9.89983
▁killing	-9.90045
▁schedule	-9.90163
▁happiness	-9.90237
▁severe	-9.90264
▁hurt	-9.90305
▁appropriate	-9.90318
▁cctv	-9.90363
▁subsequently	-9.9038
▁sara	-9.90434
ur	-9.90435
▁european	-9.90537
▁universities	-9.90617
▁promotion	-9.90751
our	-9.90798
▁sold	-9.9085
there	-9.90953
▁cards	-9.91018
▁comment	-9.91086
▁roy	-9.91135
$	-9.91164
▁w	-9.91168
▁illegal	-9.91212
▁welcome	-9.9131
▁toll	-9.91351
vi	-9.91365
▁technologies	-9.91385
▁host	-9.91502
▁camp	-9.91549
▁aim	-9.91554
▁legislative	-9.91646
▁costs	-9.91723
extremely	-9.91764
▁scientific	-9.91769
▁assistant	-9.91774
▁crude	-9.91901
▁managing	-9.91902
▁>	-9.91916
▁version	-9.91953
▁jd	-9.91957
▁tested	-9.92009
▁guidance	-9.92027
▁strategy	-9.92027
▁profit	-9.92084
▁assured	-9.92137
▁servants	-9.92154
▁gadkari	-9.9216
▁investors	-9.92186
▁hath	-9.92234
▁policies	-9.92286
▁starting	-9.92294
▁beautiful	-9.92369
▁thinking	-9.92447
▁boost	-9.92565
▁permission	-9.92603
el	-9.92627
▁nitin	-9.92698
▁contact	-9.92716
▁shifted	-9.92733
▁remove	-9.92733
ro	-9.92739
▁xi	-9.92827
▁collection	-9.92857
▁booked	-9.92926
▁sometimes	-9.92947
▁becoming	-9.92996
▁click	-9.93007
▁medium	-9.93068
▁exams	-9.93091
▁records	-9.93113
▁rose	-9.9316
▁370	-9.93189
▁ranbir	-9.93197
▁stopped	-9.93197
sa	-9.93229
▁doubt	-9.93245
▁massive	-9.93283
▁ended	-9.93309
▁table	-9.93318
▁36	-9.93438
▁pending	-9.93471
▁beat	-9.93525
do	-9.93537
▁chidambaram	-9.93591
▁enable	-9.93592
▁drive	-9.93609
▁scam	-9.93652
0	-9.93732
▁processing	-9.93755
▁lo	-9.93787
by	-9.93854
▁assets	-9.93917
▁aadhaar	-9.93988
▁33	-9.94114
▁hour	-9.94212
ton	-9.94232
▁messenger	-9.94313
▁flood	-9.94389
▁threat	-9.94438
▁decide	-9.94503
▁objective	-9.94582
▁respective	-9.94739
all	-9.94832
▁corresponding	-9.94925
▁participate	-9.94965
▁northern	-9.95044
▁patient	-9.95073
▁priced	-9.95099
▁reduced	-9.95143
▁bringing	-9.95195
▁drinking	-9.95204
▁rupees	-9.95237
▁treated	-9.95242
ba	-9.95306
▁acts	-9.95316
▁blue	-9.95337
▁applications	-9.95422
▁clearly	-9.95466
▁powerful	-9.95514
▁variant	-9.95521
▁error	-9.95526
▁thackeray	-9.95578
▁bangalore	-9.95579
+	-9.95598
▁user	-9.95627
ch	-9.95698
▁writing	-9.95705
▁sitharaman	-9.95713
▁promoting	-9.95713
▁looked	-9.95746
▁holds	-9.95771
▁opinion	-9.95791
▁expenditure	-9.95845
▁pandey	-9.95847
▁75	-9.95875
▁forms	-9.95954
▁calling	-9.96034
▁heritage	-9.96112
▁congregation	-9.96334
▁procedure	-9.96336
▁fifth	-9.96382
▁goyal	-9.9639
▁ahmed	-9.96509
▁verma	-9.9656
▁rank	-9.96629
▁track	-9.96677
▁strict	-9.96716
▁negative	-9.96742
▁jan	-9.96848
▁removed	-9.96867
▁fellow	-9.96922
▁operating	-9.96923
▁accompanied	-9.96924
▁governance	-9.96945
ti	-9.97011
▁injury	-9.9706
▁micro	-9.97086
▁remarks	-9.9711
▁europe	-9.97176
▁manipur	-9.97213
▁engaged	-9.97227
▁cold	-9.97297
▁channel	-9.97299
▁ayodhya	-9.97331
▁yojana	-9.97339
"""	-9.97408
▁mohammad	-9.97484
▁organisations	-9.97556
▁achieved	-9.97575
run	-9.97588
▁australian	-9.97643
less	-9.97668
▁wise	-9.97685
▁2011	-9.97685
▁saif	-9.9774
▁islamic	-9.97761
▁discussions	-9.9777
▁promise	-9.97771
▁proceedings	-9.97846
▁headquarters	-9.98124
▁administrative	-9.98152
▁limit	-9.98206
▁french	-9.98294
▁described	-9.98342
▁submit	-9.98393
▁sharif	-9.98432
▁favour	-9.98511
▁race	-9.98522
▁guru	-9.98539
▁famous	-9.98655
▁equipment	-9.98677
▁forth	-9.98697
▁attacked	-9.98703
▁happening	-9.98728
▁mutual	-9.98795
▁lack	-9.988
▁reward	-9.98915
▁resident	-9.99103
▁aviation	-9.99116
▁tendulkar	-9.99119
▁drugs	-9.99154
▁highways	-9.99244
▁desire	-9.99266
▁weight	-9.99269
▁knew	-9.9927
▁degrees	-9.99313
▁touch	-9.9932
▁lakhs	-9.99321
▁counsel	-9.99342
▁kill	-9.99345
ance	-9.99375
▁demands	-9.99376
▁sustainable	-9.99399
▁suresh	-9.99403
▁postmortem	-9.99419
▁gain	-9.99453
▁nda	-9.99484
▁arrangements	-9.99487
▁passenger	-9.99519
▁suggested	-9.99597
▁sisters	-9.99695
▁moses	-9.99706
▁saudi	-9.99821
▁delivery	-9.99977
▁flow	-10.0038
ion	-10.0048
▁guest	-10.0067
im	-10.0071
▁mps	-10.0071
ised	-10.0072
▁balance	-10.0086
▁voters	-10.0091
▁judgment	-10.0107
▁announcement	-10.0107
▁admit	-10.0126
▁declined	-10.0141
▁plants	-10.0142
▁resource	-10.0148
▁voting	-10.015
▁buy	-10.0157
▁difference	-10.0165
▁swaraj	-10.0166
▁purchase	-10.0172
▁acting	-10.0175
▁missing	-10.0189
▁mamata	-10.0193
▁requested	-10.0196
▁par	-10.0207
ist	-10.0213
▁destroyed	-10.0213
▁download	-10.0218
▁300	-10.022
▁tree	-10.0224
▁promised	-10.023
▁interests	-10.0236
▁premier	-10.0236
▁sugar	-10.0236
▁srinagar	-10.0238
▁highway	-10.0239
ling	-10.0246
▁register	-10.0262
▁advised	-10.0265
▁prophet	-10.0266
▁harsh	-10.0273
▁sin	-10.0278
▁galaxy	-10.0279
▁guilty	-10.0279
▁spend	-10.028
▁lines	-10.0289
▁write	-10.0293
▁hindus	-10.0293
▁covered	-10.0297
▁identity	-10.0307
▁mantri	-10.0309
pa	-10.0317
▁moving	-10.0322
▁incidents	-10.0326
▁deeds	-10.0328
▁communities	-10.0336
▁perhaps	-10.0337
▁relevant	-10.0351
▁mohammed	-10.0353
▁offices	-10.0354
▁comments	-10.0361
▁hd	-10.0366
▁solution	-10.0368
▁worlds	-10.0384
▁patna	-10.0403
section	-10.0406
19	-10.0407
▁34	-10.0407
▁select	-10.0408
▁ladakh	-10.0409
▁guard	-10.0409
▁washington	-10.041
▁practices	-10.041
▁ticket	-10.0413
▁shahid	-10.0413
▁farm	-10.0415
▁lies	-10.0417
▁grow	-10.0422
▁offering	-10.0424
▁waiting	-10.0426
▁pilot	-10.0427
▁size	-10.0438
▁coast	-10.0439
▁quoted	-10.0439
▁stakeholders	-10.0445
▁processor	-10.0448
▁reportedly	-10.045
di	-10.0452
▁items	-10.0456
▁enhance	-10.0459
▁russian	-10.0461
▁concerns	-10.0463
▁bear	-10.0463
▁128	-10.0467
▁peter	-10.047
▁muhammad	-10.0471
▁professional	-10.0481
▁dance	-10.0484
▁doesnt	-10.049
member	-10.0491
▁sustained	-10.05
ous	-10.0504
▁pain	-10.051
▁rashtrapati	-10.0511
▁nearby	-10.0513
▁prayer	-10.0518
▁motor	-10.052
be	-10.0523
▁passing	-10.0525
▁telugu	-10.0526
▁planned	-10.0527
▁jio	-10.0534
▁affect	-10.0537
▁highly	-10.0541
▁citizen	-10.0544
▁batting	-10.0571
▁joshi	-10.0575
▁partners	-10.0582
▁collaboration	-10.059
▁mou	-10.059
▁0	-10.0596
▁ramesh	-10.0596
▁branch	-10.0598
▁2,	-10.0598
▁comprising	-10.06
▁feet	-10.0611
▁wealth	-10.0612
▁historic	-10.0613
▁smt	-10.0618
▁institution	-10.0621
▁militants	-10.0625
▁healthcare	-10.0631
▁dies	-10.0631
▁extend	-10.0633
▁professor	-10.0635
▁window	-10.0635
▁occurred	-10.0645
▁integrated	-10.0646
▁appointment	-10.0666
▁bit	-10.0675
▁skills	-10.0695
▁kamal	-10.0697
captain	-10.0707
▁ipc	-10.0714
▁constitutional	-10.0716
▁constituencies	-10.072
▁manoj	-10.072
▁sbi	-10.0732
▁indira	-10.0735
▁usually	-10.0737
ized	-10.0743
▁diseases	-10.0746
▁resolve	-10.075
▁mode	-10.0751
▁ajit	-10.0757
▁sa	-10.0759
▁memory	-10.0765
▁compensation	-10.0765
▁longer	-10.0771
▁ravi	-10.0773
▁perform	-10.0776
▁german	-10.0777
▁kuldeep	-10.078
▁truly	-10.0796
▁enjoy	-10.0798
▁ensuring	-10.081
▁drink	-10.0814
▁witnessed	-10.0817
▁pension	-10.0817
▁firing	-10.0823
▁photos	-10.0824
wa	-10.0824
▁detained	-10.0827
▁sound	-10.0832
▁dialogue	-10.0833
▁manager	-10.0834
my	-10.0845
▁2012	-10.0847
▁hundred	-10.0848
▁recommendations	-10.0849
▁abroad	-10.0856
ies	-10.0865
▁ill	-10.0865
▁content	-10.0877
▁detailed	-10.0878
▁islam	-10.0888
▁constituted	-10.089
▁advanced	-10.0894
▁abhishek	-10.0902
▁videos	-10.0907
▁text	-10.0909
▁begun	-10.091
▁prize	-10.0912
▁powers	-10.0912
▁amid	-10.0916
▁assessment	-10.0918
▁adding	-10.0918
▁prominent	-10.0927
▁debt	-10.0934
▁animal	-10.0941
▁mankind	-10.0949
▁%	-10.0963
▁supporting	-10.0969
▁rss	-10.0979
▁congratulated	-10.0985
ah	-10.0991
▁dual	-10.0991
▁spokesman	-10.0994
ani	-10.0994
▁doctor	-10.1
▁caste	-10.1008
▁connected	-10.1021
▁accord	-10.1024
▁strengthening	-10.1025
▁didn	-10.1025
▁protesters	-10.1027
▁helps	-10.1028
ry	-10.1033
▁exports	-10.1056
▁marketing	-10.1059
ting	-10.1059
▁route	-10.1061
▁eye	-10.1066
▁arms	-10.107
▁electric	-10.1072
▁clause	-10.1083
▁das	-10.1091
▁2008	-10.1091
▁troops	-10.1091
ce	-10.1095
▁42	-10.1096
▁asking	-10.1096
mortem	-10.1103
▁hundreds	-10.111
▁changing	-10.112
but	-10.1123
▁core	-10.1125
▁unity	-10.1128
▁chance	-10.1129
99	-10.113
▁realme	-10.1136
▁seed	-10.1136
▁circumstances	-10.1138
▁homes	-10.114
▁edition	-10.1144
ad	-10.1146
▁improved	-10.1151
▁advocate	-10.1153
▁38	-10.1155
ive	-10.1156
▁animals	-10.1156
▁bridge	-10.1167
▁influence	-10.1168
▁smith	-10.1182
ant	-10.1187
▁returns	-10.1199
▁draw	-10.1203
▁37	-10.1206
▁counter	-10.121
▁moon	-10.1212
▁looks	-10.1215
▁debate	-10.1216
▁expect	-10.1223
▁portal	-10.1228
▁aspects	-10.1233
▁facilitate	-10.1236
▁damaged	-10.1238
▁2013	-10.124
one	-10.1244
▁broke	-10.1252
▁teacher	-10.1259
▁bureau	-10.126
▁leaving	-10.126
▁balls	-10.1274
▁contesting	-10.1276
▁y	-10.1277
▁malik	-10.1278
pm	-10.1281
▁minutes	-10.1283
▁brand	-10.1291
▁joy	-10.1295
▁youths	-10.1302
▁caught	-10.1308
▁aamir	-10.1308
▁raja	-10.131
▁spoken	-10.1313
▁tiwari	-10.1323
▁vardhan	-10.1325
▁crop	-10.1337
▁wait	-10.1341
▁male	-10.1343
▁surface	-10.1348
▁infection	-10.1353
▁blast	-10.1372
▁recommended	-10.1377
▁contract	-10.1382
▁apostle	-10.1383
▁advance	-10.1393
▁classes	-10.1396
▁decades	-10.1396
▁hotel	-10.1402
▁amarinder	-10.1404
▁notes	-10.1407
esh	-10.1411
▁gram	-10.1412
▁oath	-10.1418
▁aid	-10.1425
▁club	-10.1434
▁wind	-10.1438
▁sharad	-10.1453
▁serving	-10.1453
▁reference	-10.1454
os	-10.1458
▁charged	-10.146
▁loved	-10.1462
▁jnu	-10.1465
▁improving	-10.1468
▁fadnavis	-10.1468
▁bombay	-10.1469
hi	-10.1475
ac	-10.1484
▁superintendent	-10.1484
▁hockey	-10.1485
▁varun	-10.1502
▁crops	-10.1504
▁whereas	-10.1504
▁actions	-10.1505
▁3,	-10.1506
▁fit	-10.1513
▁southern	-10.1517
va	-10.1518
term	-10.1525
ca	-10.1528
men	-10.1531
when	-10.1537
▁electronic	-10.1549
▁yourself	-10.1551
▁51	-10.1555
▁successfully	-10.1576
▁singapore	-10.1582
▁bhopal	-10.1582
▁telecom	-10.1595
▁sessions	-10.1599
▁iphone	-10.1601
▁warning	-10.1605
war	-10.1609
▁web	-10.1613
▁academic	-10.1615
▁poverty	-10.1615
▁advice	-10.1615
▁rjd	-10.1618
▁questioned	-10.1621
▁fields	-10.1622
▁kids	-10.1623
▁context	-10.1631
▁stake	-10.1632
▁mass	-10.1633
level	-10.1635
▁establish	-10.1646
▁whatsapp	-10.1648
▁distance	-10.1648
▁adopted	-10.1656
▁choice	-10.1656
▁ministries	-10.1665
▁scene	-10.1665
▁empowerment	-10.1665
▁journalist	-10.1665
▁principles	-10.1668
president	-10.1668
▁ideas	-10.1677
▁skin	-10.1679
▁software	-10.1681
▁confident	-10.1681
▁filing	-10.1683
▁interested	-10.1695
▁performed	-10.1696
▁cars	-10.1705
out	-10.1706
▁initial	-10.171
▁pal	-10.171
▁resignation	-10.1715
▁medicine	-10.1715
▁peoples	-10.1716
▁prove	-10.1722
▁44	-10.1724
▁flights	-10.173
▁defeated	-10.1734
▁center	-10.174
▁literature	-10.1747
ja	-10.1751
▁investments	-10.1751
▁dismissed	-10.1752
law	-10.176
▁soil	-10.1761
▁namely	-10.178
):	-10.1786
▁whoever	-10.1797
▁nirmala	-10.18
▁warm	-10.1813
▁cinema	-10.1814
▁#	-10.1815
▁statements	-10.182
▁iron	-10.1822
▁sam	-10.1826
▁teaching	-10.1828
▁chouhan	-10.1831
▁procurement	-10.1831
▁daughters	-10.1833
▁falls	-10.1845
▁identify	-10.1846
▁mah	-10.1849
▁ease	-10.1858
raj	-10.1863
▁secure	-10.1864
▁operational	-10.1868
▁canada	-10.187
▁happens	-10.1876
▁controversy	-10.1881
▁diwali	-10.1881
▁abraham	-10.1883
▁guide	-10.1886
▁delivered	-10.1894
▁veteran	-10.1901
▁master	-10.1905
▁rivers	-10.1912
▁hdfc	-10.1915
▁dutt	-10.1921
▁undergoing	-10.1923
iya	-10.1928
▁entertainment	-10.1932
▁countrys	-10.1939
▁righteous	-10.1944
▁q	-10.1947
▁apple	-10.1949
▁draft	-10.1952
▁enterprises	-10.1952
▁designed	-10.1972
▁mental	-10.198
▁stories	-10.1983
▁arunachal	-10.1983
▁seems	-10.1998
▁devendra	-10.2001
▁prepare	-10.2009
nic	-10.2015
▁celebrations	-10.2021
▁ki	-10.203
▁flag	-10.2038
▁busy	-10.2042
▁heaven	-10.2051
▁mid	-10.2055
▁constructed	-10.2056
▁sardar	-10.2069
▁penalty	-10.2069
▁possession	-10.2073
▁villagers	-10.2076
ram	-10.2076
▁types	-10.2086
▁avail	-10.2089
▁nrc	-10.209
▁amongst	-10.2094
▁encourage	-10.2099
▁federation	-10.2108
▁lawyer	-10.2108
▁adequate	-10.2116
▁crucial	-10.2121
▁_	-10.2124
▁seeing	-10.2125
▁listen	-10.2127
▁measure	-10.2135
▁heads	-10.2136
▁weapons	-10.2138
▁hc	-10.2145
▁samajwadi	-10.2155
▁hell	-10.2158
▁warner	-10.2161
▁author	-10.2161
▁singer	-10.2162
▁powered	-10.2163
▁heat	-10.2165
▁territories	-10.2173
▁presently	-10.2182
▁phones	-10.2186
▁rajesh	-10.2188
▁undertaken	-10.2192
▁55	-10.2193
▁audience	-10.2195
▁follows	-10.2196
▁zone	-10.2197
▁depend	-10.2202
▁academy	-10.2207
▁electoral	-10.2207
▁mahendra	-10.2208
▁shankar	-10.221
▁radio	-10.2213
▁400	-10.2215
▁ni	-10.2215
▁39	-10.2218
▁regions	-10.2236
▁convention	-10.2238
▁grief	-10.2242
-2	-10.2253
▁availability	-10.2261
▁jitendra	-10.2262
▁showing	-10.229
▁friendly	-10.229
▁framework	-10.2295
▁ocean	-10.2299
▁establishment	-10.2302
go	-10.231
▁hall	-10.231
▁icici	-10.2312
▁straight	-10.2319
▁visiting	-10.2327
▁millions	-10.2328
me	-10.2329
▁goals	-10.233
▁therein	-10.233
▁songs	-10.2338
▁farmer	-10.2343
▁sir	-10.2344
▁investigations	-10.2348
▁beneficiaries	-10.2348
▁opposed	-10.2351
▁demanding	-10.2354
▁satan	-10.2357
▁comprehensive	-10.2361
▁street	-10.2361
▁permanent	-10.2362
ment	-10.2365
▁forum	-10.2376
▁65	-10.2382
▁transferred	-10.2385
▁prevention	-10.2386
▁forget	-10.239
▁equity	-10.2402
▁varanasi	-10.2402
▁import	-10.2408
il	-10.2414
▁relatives	-10.2421
▁sky	-10.2422
▁figure	-10.2437
▁trophy	-10.2437
▁sciences	-10.245
▁store	-10.245
▁analysis	-10.2454
▁memorial	-10.2454
▁<	-10.2455
▁prior	-10.2455
▁myself	-10.2455
▁payments	-10.2464
cc	-10.2472
▁atmosphere	-10.2472
▁eligible	-10.2472
▁snapdragon	-10.2472
▁sidhu	-10.2472
▁rice	-10.2473
▁usd	-10.2474
ian	-10.2487
▁challenging	-10.249
▁deepak	-10.2491
▁linked	-10.2496
▁invest	-10.2497
▁samsung	-10.2526
▁contribute	-10.2527
▁strongly	-10.2527
▁choose	-10.2541
▁wall	-10.2557
▁katrina	-10.2562
▁rawat	-10.2563
▁appreciated	-10.2567
▁2010	-10.2569
▁dollar	-10.2573
▁banned	-10.2581
▁province	-10.259
▁bhushan	-10.2599
▁jaipur	-10.26
▁sahib	-10.2607
▁producer	-10.2615
▁pray	-10.2621
▁samples	-10.2625
▁pace	-10.2628
▁wisdom	-10.2635
▁unknown	-10.2635
▁directorate	-10.2638
har	-10.2641
▁deliver	-10.2646
▁feeling	-10.2649
▁retail	-10.2649
▁writer	-10.265
▁sanitation	-10.2653
▁situated	-10.2653
▁policemen	-10.2657
▁amazon	-10.2671
▁tripura	-10.2672
▁desk	-10.2672
▁unable	-10.2677
▁formation	-10.2678
ish	-10.2681
▁alert	-10.2686
▁wheat	-10.269
▁shetty	-10.269
▁baby	-10.269
▁gdp	-10.2691
▁solutions	-10.2705
▁length	-10.2705
▁james	-10.2709
▁proved	-10.2717
▁id	-10.2717
▁lose	-10.2723
▁lived	-10.2724
▁maintenance	-10.2726
▁chairperson	-10.2727
▁consideration	-10.2738
▁walk	-10.274
off	-10.275
▁boys	-10.2753
ru	-10.2753
▁purposes	-10.2768
▁lalu	-10.2774
▁certificate	-10.2775
▁door	-10.2775
▁improvement	-10.2775
▁abdullah	-10.2782
▁sensex	-10.2784
age	-10.2794
▁concerning	-10.2797
▁crpf	-10.2802
▁ii	-10.2804
nagar	-10.2804
▁praise	-10.2805
mi	-10.2805
▁handle	-10.2807
▁ourselves	-10.2818
▁alongside	-10.282
ise	-10.2824
▁requirements	-10.2829
▁overs	-10.2832
▁gathering	-10.284
▁thanks	-10.2841
▁divided	-10.2842
▁olympic	-10.285
▁monsoon	-10.2856
▁cancelled	-10.2856
▁clash	-10.2859
▁wing	-10.286
▁inflation	-10.2874
▁ambani	-10.2875
▁gathered	-10.2881
▁meaning	-10.2886
▁ambassador	-10.2887
ut	-10.2888
▁conservation	-10.2893
▁johar	-10.2894
▁ability	-10.2898
▁49	-10.2921
you	-10.2926
▁larger	-10.2929
▁extent	-10.293
▁noida	-10.2933
um	-10.2938
▁gift	-10.2944
▁elements	-10.2946
▁womens	-10.2951
▁shops	-10.2954
new	-10.2955
▁olympics	-10.2955
▁fundamental	-10.2955
▁belonging	-10.2959
▁winners	-10.2964
▁specified	-10.2968
▁mahindra	-10.2968
▁taught	-10.2968
▁crowd	-10.2969
▁ranjan	-10.2969
▁chosen	-10.297
▁cbse	-10.2971
50	-10.2973
▁san	-10.2975
▁guided	-10.2977
▁properties	-10.2987
▁environmental	-10.2992
?"""	-10.2993
▁forced	-10.2995
ki	-10.2996
▁inspired	-10.2997
▁tradition	-10.2998
▁faces	-10.2999
▁renewable	-10.3006
▁minority	-10.3006
▁naval	-10.3007
ter	-10.3013
▁combat	-10.3029
▁initially	-10.303
▁su	-10.3031
▁collected	-10.3031
▁sikh	-10.3041
▁participating	-10.3044
▁twenty	-10.3044
▁unless	-10.3046
gov	-10.3049
▁extra	-10.3064
nt	-10.3064
▁enforcement	-10.3082
▁fake	-10.3083
▁maintained	-10.3092
▁bronze	-10.31
▁azad	-10.31
▁centuries	-10.3102
▁delay	-10.3103
▁quickly	-10.3104
▁medals	-10.3108
▁magistrate	-10.3116
▁location	-10.3117
▁pulwama	-10.312
▁currency	-10.312
▁bharti	-10.3134
▁prayers	-10.3135
▁tribunal	-10.3135
▁shut	-10.3141
▁extension	-10.3158
▁islands	-10.3162
▁island	-10.3166
she	-10.3167
▁puri	-10.3172
▁sonam	-10.3173
▁pointed	-10.3173
▁method	-10.3174
▁vaccine	-10.3174
▁machine	-10.3174
▁storm	-10.3175
id	-10.3177
▁complaints	-10.318
▁gur	-10.318
▁wins	-10.3184
▁style	-10.3186
▁greetings	-10.3191
▁jain	-10.3194
▁recruitment	-10.3197
▁document	-10.3198
▁theres	-10.3198
▁10,000	-10.3199
▁welcomed	-10.3208
▁brief	-10.3211
▁generally	-10.3212
▁twice	-10.3216
▁prosperity	-10.3216
pal	-10.3216
▁bagg	-10.3217
ty	-10.3219
▁consumers	-10.3222
▁files	-10.3224
▁leaves	-10.3227
▁reservoirs	-10.323
▁cpi	-10.3233
▁campus	-10.3234
▁categories	-10.3235
▁toward	-10.3237
▁belongs	-10.3244
▁sh	-10.3246
▁mahesh	-10.3252
▁rashtriya	-10.3255
▁football	-10.3259
▁sex	-10.3261
▁novel	-10.327
▁arabia	-10.327
▁lie	-10.3272
▁2019:	-10.3273
▁jagran	-10.3274
▁rafale	-10.3274
▁jai	-10.3276
▁participants	-10.3283
▁struggle	-10.3283
▁prison	-10.3287
▁manish	-10.3289
▁church	-10.3291
▁championship	-10.3291
▁relative	-10.3292
▁xiaomi	-10.3293
▁mukesh	-10.3293
▁corona	-10.3293
▁56	-10.3296
▁akhilesh	-10.3296
▁installed	-10.3298
pakistan	-10.33
▁47	-10.331
▁easily	-10.3312
▁fighter	-10.3322
▁reading	-10.3323
▁52	-10.3324
▁burden	-10.333
▁chapter	-10.3331
▁vikas	-10.3334
▁pair	-10.3337
▁band	-10.3337
▁stress	-10.3338
▁2000	-10.3341
▁sum	-10.3341
▁celebrate	-10.3343
▁fought	-10.3353
▁stable	-10.3354
▁implement	-10.3356
▁greatest	-10.3357
▁dated	-10.3357
▁otherwise	-10.3362
▁trouble	-10.3362
▁gautam	-10.3371
se	-10.3374
▁kaif	-10.3374
▁premises	-10.3378
▁aims	-10.3388
▁akhtar	-10.3391
▁possibility	-10.3391
▁fiscal	-10.3391
▁garden	-10.3396
▁respond	-10.3396
ga	-10.34
▁angels	-10.34
▁regularly	-10.34
▁tough	-10.3408
▁papers	-10.3409
ii	-10.341
▁reduction	-10.341
▁species	-10.341
10	-10.3411
▁mainly	-10.3411
▁revised	-10.3412
▁vital	-10.3416
▁honor	-10.3416
▁african	-10.3417
▁lay	-10.3419
▁semi	-10.3422
▁hot	-10.3425
▁materials	-10.3429
▁interesting	-10.343
▁nifty	-10.343
15	-10.3431
▁sell	-10.3433
▁movies	-10.3449
▁harmony	-10.345
▁obama	-10.345
▁yahweh	-10.345
▁shivraj	-10.3451
▁\""	-10.3452
▁ruled	-10.3454
▁sentence	-10.3463
▁sushma	-10.3468
▁triple	-10.3468
▁peaceful	-10.3471
▁organizations	-10.3471
▁allahabad	-10.3472
▁starts	-10.3485
▁tiger	-10.349
▁slogans	-10.3498
▁knowing	-10.3501
ever	-10.3505
▁2021	-10.3508
▁doesn	-10.3509
▁failure	-10.3509
▁achievement	-10.351
▁cameras	-10.3515
▁require	-10.3521
▁mar	-10.3524
▁preparations	-10.3526
▁trees	-10.3528
▁causes	-10.3531
▁ma	-10.3535
▁mayor	-10.3545
with	-10.3549
▁raising	-10.355
▁color	-10.3551
wal	-10.356
▁factors	-10.3568
▁outstanding	-10.3571
▁hair	-10.3572
▁harm	-10.3578
▁2009	-10.3582
ak	-10.3597
match	-10.3597
▁connect	-10.3598
▁escape	-10.3601
▁younger	-10.3604
▁missile	-10.361
▁legend	-10.3611
▁indo	-10.3613
▁proof	-10.3615
▁founder	-10.3617
▁excellent	-10.3629
▁conflict	-10.3632
▁bio	-10.3632
▁facts	-10.3634
▁tourist	-10.3639
▁wont	-10.3643
▁agenda	-10.3649
▁warned	-10.3656
▁le	-10.3663
▁bal	-10.367
▁humans	-10.3671
▁channels	-10.3675
▁appealed	-10.3677
▁stressed	-10.3683
▁simply	-10.3689
▁opposite	-10.3689
▁distributed	-10.3692
▁ship	-10.3694
▁resigned	-10.3697
▁odis	-10.3699
▁format	-10.3701
▁interact	-10.3711
▁du	-10.3713
▁concept	-10.3726
▁percentage	-10.3731
▁closely	-10.3732
▁justices	-10.3735
▁determined	-10.3738
▁upper	-10.3742
▁46	-10.3745
sp	-10.3751
▁motion	-10.3751
▁drama	-10.3753
▁3:	-10.3761
▁secret	-10.3765
▁worst	-10.3771
▁efficiency	-10.3771
▁venture	-10.3771
▁floor	-10.3774
ana	-10.3779
▁plane	-10.3784
▁chand	-10.3787
▁correct	-10.379
▁admission	-10.3794
▁instance	-10.3794
▁violation	-10.3794
▁z	-10.3799
▁upto	-10.3802
▁newly	-10.3808
▁abdul	-10.3811
▁duties	-10.3812
▁resurrection	-10.3812
▁chaudhary	-10.3812
▁airtel	-10.3812
▁joseph	-10.3812
▁inspector	-10.3818
▁followers	-10.3824
▁sufficient	-10.3829
▁gang	-10.383
▁celsius	-10.3832
▁dangerous	-10.3832
▁43	-10.3838
ie	-10.3839
▁household	-10.3845
▁helping	-10.3851
dar	-10.3851
▁rakesh	-10.3853
▁reform	-10.3857
▁expression	-10.3857
▁gate	-10.3861
▁earned	-10.3862
▁iaf	-10.3869
▁sixth	-10.3872
▁secretaries	-10.3873
-1	-10.3876
▁advantage	-10.3876
▁attitude	-10.3877
▁reflect	-10.3883
▁devices	-10.3889
▁applied	-10.3894
▁begins	-10.3895
▁nawaz	-10.3895
▁har	-10.3897
▁copy	-10.3898
▁1,000	-10.3899
▁considering	-10.39
▁notified	-10.3905
▁bowling	-10.3907
▁nab	-10.3913
▁trailer	-10.3917
▁feels	-10.3919
▁sleep	-10.3919
▁package	-10.3932
▁sandeep	-10.3935
▁emerged	-10.3939
▁owner	-10.3942
▁floods	-10.3945
▁ratio	-10.3945
▁ha	-10.3948
▁taxes	-10.395
▁pride	-10.3956
▁coastal	-10.396
30	-10.3962
▁leads	-10.3966
▁prof	-10.3968
▁requires	-10.3976
▁arora	-10.3977
▁wake	-10.3977
▁regulatory	-10.3978
▁atal	-10.3982
▁institutes	-10.3989
ir	-10.399
▁dinesh	-10.3991
▁gen	-10.3997
▁advani	-10.3998
▁toss	-10.3998
▁medicines	-10.4018
▁bond	-10.4018
▁numerous	-10.4018
▁prescribed	-10.4019
▁sort	-10.4021
▁41	-10.4027
mah	-10.4029
▁rapid	-10.4035
▁reaching	-10.4038
▁historical	-10.4038
▁shukla	-10.4039
▁referring	-10.4041
▁promises	-10.4045
▁reservation	-10.4045
▁commander	-10.4051
per	-10.4052
▁lake	-10.4061
▁aimed	-10.4062
▁theme	-10.4062
▁regulations	-10.4062
▁winter	-10.4066
▁transactions	-10.4066
▁sindhu	-10.4068
▁deeply	-10.4072
▁constant	-10.4077
▁sacrifice	-10.408
▁piyush	-10.4081
▁coalition	-10.4081
▁ganguly	-10.4081
cl	-10.4087
▁4,	-10.4089
▁tea	-10.4094
▁functioning	-10.4098
▁instructions	-10.4103
▁ambedkar	-10.4103
▁appears	-10.4111
▁devotees	-10.4114
▁na	-10.4116
▁driving	-10.4124
▁tmc	-10.4126
▁examples	-10.4134
▁explained	-10.4135
▁2:	-10.4137
▁seem	-10.4138
▁fruits	-10.4144
▁completion	-10.4145
▁pivotal	-10.4145
▁fill	-10.4156
▁figures	-10.4158
▁bid	-10.4171
▁satellite	-10.4173
line	-10.4174
▁drop	-10.4175
et	-10.4179
▁listed	-10.4187
▁visa	-10.4193
▁upa	-10.4206
▁mining	-10.4216
▁involving	-10.423
▁expansion	-10.423
▁ran	-10.423
▁merciful	-10.4231
▁estate	-10.4239
▁iit	-10.424
▁picked	-10.4241
▁courses	-10.4246
▁previously	-10.4248
▁suggestions	-10.4249
▁tourists	-10.425
▁corridor	-10.4259
▁chris	-10.426
▁federal	-10.4272
▁jerusalem	-10.4272
▁2006	-10.4277
ai	-10.4279
▁presidential	-10.428
▁se	-10.429
▁condolences	-10.429
▁malaysia	-10.429
▁kl	-10.4291
▁judgement	-10.4298
▁mishap	-10.4302
▁badal	-10.4305
▁norms	-10.4307
han	-10.432
▁bjps	-10.4329
▁perfect	-10.4342
▁investigated	-10.4343
▁tension	-10.4346
▁approached	-10.4348
▁mechanism	-10.4368
ization	-10.4368
▁faithful	-10.4376
▁remote	-10.4378
▁cells	-10.4379
▁probably	-10.438
charge	-10.4388
▁contain	-10.4397
▁hussain	-10.4402
▁emerging	-10.4402
▁statue	-10.4411
▁isnt	-10.4414
▁thoughts	-10.4417
▁ashwin	-10.4419
▁wasnt	-10.442
▁sanskrit	-10.4424
▁directors	-10.4428
ab	-10.4429
▁requirement	-10.4434
▁grace	-10.4438
▁manage	-10.4438
▁filled	-10.4438
▁tickets	-10.4441
▁memorandum	-10.4445
▁deny	-10.445
▁temples	-10.445
▁khanna	-10.4463
▁continuing	-10.4467
▁uddhav	-10.4467
▁meant	-10.447
▁retired	-10.447
▁thanked	-10.4471
▁broad	-10.4473
▁danger	-10.4477
▁bound	-10.4482
▁sport	-10.4487
▁consumption	-10.4489
▁concluded	-10.4493
▁discharged	-10.4494
▁exit	-10.4497
▁offence	-10.4501
▁dear	-10.4508
▁directions	-10.4508
ms	-10.4509
▁overseas	-10.4511
▁saved	-10.4511
▁universal	-10.4511
▁coverage	-10.4512
▁associate	-10.4514
state	-10.4516
▁selfie	-10.4523
▁contains	-10.4523
▁dropped	-10.4533
▁indore	-10.4537
▁believes	-10.4538
▁5,	-10.4544
son	-10.4552
▁bay	-10.4558
▁thereof	-10.4564
▁la	-10.4572
▁rani	-10.4573
causing	-10.4573
▁museum	-10.4588
▁sets	-10.4589
▁agree	-10.4592
▁maruti	-10.4599
▁recognised	-10.4605
ex	-10.4608
▁brings	-10.4611
▁imports	-10.4612
▁actual	-10.4619
▁54	-10.4622
ine	-10.4623
▁belong	-10.4624
▁decline	-10.4626
▁eve	-10.4628
▁reserved	-10.4637
▁fraud	-10.4639
▁suit	-10.4641
▁mm	-10.465
▁fathers	-10.4651
▁plastic	-10.4656
▁mw	-10.4664
▁friendship	-10.4666
▁charging	-10.4667
▁worldwide	-10.4671
▁brain	-10.4671
▁tri	-10.4675
▁messengers	-10.4677
▁consultation	-10.4679
▁dark	-10.4685
▁caa	-10.4686
▁solid	-10.4689
▁approximately	-10.469
ally	-10.4691
▁factory	-10.4693
▁shape	-10.4706
▁learnt	-10.471
▁era	-10.4712
▁zero	-10.4712
▁chain	-10.4722
▁row	-10.4726
▁transmission	-10.4733
▁irrigation	-10.4733
▁lt	-10.4735
▁locations	-10.4737
▁honoured	-10.4738
ee	-10.4738
▁sight	-10.4741
▁traders	-10.4754
▁quit	-10.4761
▁monthly	-10.4774
▁resort	-10.4778
▁mizoram	-10.4778
▁japanese	-10.4778
q	-10.478
▁buildings	-10.4783
▁aditya	-10.4783
▁gardens	-10.4795
▁highlights	-10.4796
her	-10.4798
▁weak	-10.4801
▁para	-10.4802
▁root	-10.4802
▁broken	-10.4805
▁roll	-10.4809
▁trained	-10.4811
▁jurisdiction	-10.4812
air	-10.4818
sc	-10.4819
▁dubai	-10.4823
▁shipping	-10.4823
▁jointly	-10.4824
▁expanded	-10.4836
con	-10.4837
▁adam	-10.4838
▁$	-10.484
ari	-10.4841
▁excellence	-10.4846
▁coordination	-10.4846
▁agarwal	-10.4846
▁existence	-10.4847
▁(1)	-10.4851
▁losses	-10.4854
▁rana	-10.4855
▁moral	-10.4859
▁sites	-10.4859
▁modis	-10.4864
▁platforms	-10.4865
▁functions	-10.4869
▁print	-10.4871
▁120	-10.4875
▁blessings	-10.4877
▁bowler	-10.4882
▁conspiracy	-10.4891
▁nagaland	-10.4891
▁mt	-10.4904
▁travelling	-10.4915
▁moreover	-10.4922
ap	-10.4922
▁assault	-10.4928
▁loving	-10.4933
▁mayawati	-10.4937
▁vajpayee	-10.4937
▁eventually	-10.4938
▁extreme	-10.4938
▁patil	-10.4939
▁threatened	-10.4943
▁jet	-10.4946
bo	-10.4946
▁messages	-10.4951
▁enemy	-10.496
▁variety	-10.496
▁kangana	-10.496
▁summer	-10.496
▁competitive	-10.496
▁learned	-10.4973
ke	-10.4975
▁aspect	-10.4976
▁72	-10.498
▁2019.	-10.4982
▁consecutive	-10.4983
▁stability	-10.4983
▁acquisition	-10.4983
▁ba	-10.4984
▁champions	-10.4985
▁customs	-10.499
▁legislature	-10.4999
▁gopal	-10.4999
▁jadhav	-10.5006
▁auction	-10.501
▁deposit	-10.5011
▁represented	-10.5017
▁steve	-10.5024
▁relation	-10.5028
▁differences	-10.5028
▁jawaharlal	-10.503
▁swami	-10.5031
▁alternative	-10.5041
▁titled	-10.5044
▁resolved	-10.5044
▁resulted	-10.5051
▁amritsar	-10.5053
▁penal	-10.5055
▁spotted	-10.5055
ts	-10.5058
▁contributed	-10.5062
▁wherein	-10.5064
▁qualcomm	-10.5075
▁junior	-10.5076
▁golden	-10.5082
▁suspected	-10.5087
▁applicable	-10.5099
▁talent	-10.5102
▁trend	-10.5103
▁researchers	-10.5104
▁sanctioned	-10.5106
▁rock	-10.5108
cs	-10.5119
▁mehta	-10.5122
▁ahmad	-10.5122
▁everybody	-10.5123
▁lying	-10.5127
class	-10.5133
▁allows	-10.5134
▁anger	-10.5136
▁volume	-10.514
▁destination	-10.514
▁belief	-10.514
▁affordable	-10.5146
▁putting	-10.5149
▁principle	-10.5165
▁sms	-10.5169
▁innovative	-10.5169
▁mandatory	-10.5169
▁@	-10.5173
▁firms	-10.5174
▁globally	-10.5183
▁square	-10.5185
▁5-	-10.5185
▁mosque	-10.5187
ang	-10.519
▁courage	-10.5192
▁ne	-10.5192
▁transparency	-10.5192
▁divine	-10.5193
▁sikkim	-10.5193
▁restrictions	-10.5194
mo	-10.5197
▁communications	-10.5198
▁sheet	-10.5201
▁suffer	-10.5201
ps	-10.521
▁covering	-10.5211
▁households	-10.5212
▁nick	-10.5216
▁reviewed	-10.5216
▁absconding	-10.5216
▁pandya	-10.5216
▁aiims	-10.5217
▁journalists	-10.5218
▁experienced	-10.5221
▁letters	-10.5221
▁whenever	-10.5229
wise	-10.5231
▁maha	-10.5233
▁ben	-10.5234
▁models	-10.5235
▁maritime	-10.5239
▁brazil	-10.524
▁alive	-10.5244
▁output	-10.5244
▁coaches	-10.5245
uts	-10.5245
▁dealing	-10.5246
▁57	-10.5257
.1	-10.5257
▁sho	-10.5259
▁bin	-10.5259
▁talked	-10.5261
▁matthew	-10.5263
▁dry	-10.5265
▁vast	-10.5269
▁hike	-10.5275
▁baba	-10.5279
▁diet	-10.5286
▁footage	-10.5287
▁activists	-10.5294
provisional	-10.5298
▁fun	-10.5299
▁fan	-10.53
▁1:	-10.5301
▁dates	-10.5302
40	-10.5305
▁integrity	-10.531
▁javadekar	-10.5311
▁thereby	-10.5316
▁gains	-10.5317
gu	-10.5318
▁funding	-10.532
▁enhanced	-10.5323
▁prince	-10.533
▁interaction	-10.5331
,000	-10.5334
▁communal	-10.5334
▁meghalaya	-10.5335
▁regime	-10.5346
▁grievances	-10.5346
po	-10.5349
▁secretariat	-10.5358
▁premium	-10.5359
.2	-10.5366
▁sat	-10.5366
▁fulfilled	-10.5367
▁pak	-10.5367
▁update	-10.5373
▁om	-10.5375
▁italy	-10.5383
▁definitely	-10.5383
▁paying	-10.5385
▁accidents	-10.5385
▁250	-10.5394
▁ani	-10.5397
▁fish	-10.5401
▁allocation	-10.5406
▁sensitive	-10.5408
▁advisory	-10.5409
▁blessed	-10.541
▁nia	-10.5417
▁herself	-10.5432
national	-10.5435
?"	-10.544
▁effects	-10.5455
▁ke	-10.5455
▁capable	-10.5455
si	-10.5455
▁ships	-10.5457
▁isro	-10.5462
like	-10.5469
▁experiences	-10.5472
▁legislation	-10.5476
▁khattar	-10.5478
▁sushil	-10.5479
▁5,000	-10.5483
end	-10.5487
em	-10.5499
▁articles	-10.5502
▁britain	-10.5503
▁jonas	-10.5503
▁myanmar	-10.5503
▁gross	-10.5503
▁filmmaker	-10.5504
▁trip	-10.5514
▁quick	-10.5514
▁2017-18	-10.5516
▁mighty	-10.5524
▁afraid	-10.5527
▁gehlot	-10.5527
▁consist	-10.5534
▁leg	-10.5536
long	-10.5538
▁da	-10.5538
▁bowlers	-10.554
▁explain	-10.5542
▁wi	-10.5542
▁stayed	-10.5547
ib	-10.5548
▁workshop	-10.555
▁replied	-10.5551
▁forever	-10.5554
▁buses	-10.5558
▁4:	-10.5566
▁segment	-10.5568
▁maintaining	-10.5579
▁settled	-10.5581
▁salt	-10.5581
▁finished	-10.5584
▁broadcasting	-10.5585
▁disbelieve	-10.5588
▁indonesia	-10.5597
▁grown	-10.5606
▁offences	-10.5613
▁stronger	-10.5615
▁mostly	-10.5617
▁wearing	-10.5618
▁expert	-10.5624
▁starred	-10.5626
▁widely	-10.5635
ate	-10.5637
▁comprises	-10.5638
▁effectively	-10.5639
▁questioning	-10.5639
kg	-10.5645
▁protesting	-10.5648
▁grew	-10.5648
▁selling	-10.5649
▁totally	-10.5657
▁vegetables	-10.5657
▁mega	-10.5657
▁losing	-10.5658
▁tributes	-10.5664
km	-10.5666
land	-10.567
▁cooperative	-10.5673
▁representative	-10.5674
▁metal	-10.5682
▁expand	-10.569
▁watching	-10.5692
▁advisor	-10.5694
▁behold	-10.5696
▁exhibition	-10.5698
▁achievements	-10.5698
▁hooda	-10.57
▁formal	-10.5707
▁useful	-10.5715
▁abuse	-10.5721
▁imprisonment	-10.5723
▁nomination	-10.5723
▁beauty	-10.5723
▁taliban	-10.5725
▁shoot	-10.5726
▁59	-10.5729
▁combined	-10.5729
▁arts	-10.5743
▁journal	-10.5744
▁integral	-10.5748
▁sheikh	-10.5748
▁transformation	-10.5748
▁youtube	-10.575
95	-10.5752
▁subhash	-10.5754
who	-10.5762
▁mix	-10.5769
▁jadeja	-10.5773
▁meteorological	-10.5773
▁reducing	-10.5773
▁powder	-10.5773
what	-10.5778
▁farming	-10.578
ful	-10.5783
▁highlighted	-10.5786
mm	-10.5787
▁mountain	-10.579
▁seeks	-10.579
▁implementing	-10.5796
▁dam	-10.5801
▁ias	-10.5803
ize	-10.5806
▁condemned	-10.5807
▁fashion	-10.5808
▁poet	-10.581
▁fruit	-10.582
▁valid	-10.582
▁harassment	-10.5823
▁struck	-10.5823
▁background	-10.5824
▁nagpur	-10.5824
▁crimes	-10.5835
▁53	-10.584
▁mary	-10.584
▁assist	-10.5843
▁falling	-10.5847
▁interim	-10.5849
▁kanpur	-10.5849
▁anywhere	-10.5851
▁count	-10.5859
congress	-10.5861
▁supporters	-10.5861
11	-10.5864
nath	-10.5866
▁supplies	-10.5873
▁sacred	-10.5873
▁pleasure	-10.5874
▁humanity	-10.5878
▁pick	-10.5885
▁significantly	-10.5886
▁niti	-10.5902
pi	-10.5917
▁searching	-10.592
▁mention	-10.592
▁wear	-10.592
▁absence	-10.5923
▁torment	-10.5924
▁125	-10.5924
over	-10.5926
▁oneplus	-10.5927
▁airports	-10.5928
▁constantly	-10.5929
▁opt	-10.5931
▁owned	-10.5934
▁pat	-10.5939
▁2005	-10.5944
▁yourselves	-10.5949
▁rankings	-10.5949
▁email	-10.5952
▁factor	-10.5958
▁launches	-10.5959
▁convey	-10.596
▁object	-10.5962
▁targeted	-10.5964
▁padma	-10.5966
su	-10.5966
▁subjects	-10.597
▁shami	-10.5971
▁batsmen	-10.5974
▁unidentified	-10.5974
▁miss	-10.599
▁returning	-10.5994
▁businesses	-10.5994
▁emotional	-10.5996
▁judiciary	-10.6
▁crew	-10.6
▁servant	-10.6001
▁examinations	-10.6008
▁68	-10.602
▁setup	-10.6023
▁mitchell	-10.6025
▁ravindra	-10.6025
▁nadda	-10.6026
▁difficulties	-10.6027
▁conversation	-10.6028
▁superstar	-10.6029
tic	-10.6034
],	-10.6034
▁punjabi	-10.6037
▁paradise	-10.6052
▁?	-10.6052
▁depth	-10.6053
▁nominated	-10.6053
▁snow	-10.6053
▁wave	-10.6054
▁crossed	-10.6054
▁67	-10.6065
▁images	-10.6066
free	-10.6066
▁exist	-10.6079
▁unbelievers	-10.608
za	-10.6081
▁limits	-10.6082
▁relationships	-10.6088
▁lawyers	-10.6095
▁egypt	-10.6102
▁teach	-10.6104
ns	-10.6105
▁preparation	-10.6106
▁stones	-10.6106
▁convicted	-10.6108
▁aside	-10.6109
▁mountains	-10.611
▁scriptures	-10.6112
▁flipkart	-10.6128
▁glory	-10.6128
▁hardik	-10.6129
▁labourers	-10.6131
▁tap	-10.6137
▁locals	-10.614
▁wood	-10.6141
▁revolution	-10.6153
▁securities	-10.6154
▁asserted	-10.6156
▁obtained	-10.6164
▁usa	-10.6165
people	-10.6167
▁processes	-10.6173
▁fees	-10.6175
▁gogoi	-10.618
▁salary	-10.618
▁electronics	-10.6181
▁merely	-10.6183
▁constable	-10.6184
▁pakistans	-10.6198
▁paris	-10.6198
▁vinod	-10.6205
▁laundering	-10.6206
▁conferred	-10.6207
▁fort	-10.6209
▁supports	-10.6209
▁symptoms	-10.6213
▁winner	-10.6213
▁emphasis	-10.6219
▁accordingly	-10.6221
▁motors	-10.6221
▁highlight	-10.6225
▁beneficial	-10.6232
▁entrance	-10.6232
▁shimla	-10.6232
▁shortage	-10.6233
▁occur	-10.6236
▁raw	-10.6237
▁argument	-10.6237
▁hate	-10.6247
▁obey	-10.6252
▁flash	-10.6258
▁equipped	-10.6258
▁bi	-10.6258
▁attached	-10.6262
▁mos	-10.6272
▁appearing	-10.6273
▁rama	-10.6274
▁agra	-10.6275
▁taste	-10.6277
▁worker	-10.6279
▁gained	-10.6283
▁liquor	-10.6284
▁demise	-10.6284
▁absolutely	-10.6288
▁bs	-10.6288
▁duo	-10.6291
▁chemicals	-10.6301
▁makers	-10.6304
▁fielded	-10.6308
▁74	-10.6309
▁devgn	-10.631
▁astray	-10.631
▁bumrah	-10.631
▁michael	-10.6311
▁backward	-10.6311
▁mandi	-10.632
▁addresses	-10.6324
▁secured	-10.6327
from	-10.6334
▁angry	-10.6336
let	-10.6337
▁naik	-10.634
▁earthquake	-10.6342
▁iraq	-10.6344
45	-10.6345
▁66	-10.6348
▁pure	-10.635
▁responded	-10.6355
▁58	-10.6361
▁tech	-10.6362
▁suzuki	-10.6363
▁bhutan	-10.6363
▁rishi	-10.6364
▁variants	-10.6374
▁encouraged	-10.6374
▁airlines	-10.6388
▁methods	-10.6393
garh	-10.6398
▁assess	-10.6398
▁irani	-10.6398
▁2020.	-10.6411
▁achieving	-10.6416
▁visible	-10.6416
isation	-10.6417
▁quran	-10.6418
ung	-10.6428
▁forgive	-10.6436
▁generate	-10.6442
▁preparing	-10.6442
▁diplomatic	-10.6448
▁jews	-10.6453
tri	-10.6455
ol	-10.6464
▁cattle	-10.6469
▁tenure	-10.647
▁acted	-10.6479
lo	-10.6486
.3	-10.6496
▁lahore	-10.6496
▁islamabad	-10.6497
17	-10.6505
amendment	-10.651
▁(19	-10.6511
▁investigate	-10.6515
▁solve	-10.6517
▁smaller	-10.6517
▁wicked	-10.6522
▁ayush	-10.6522
▁subsidy	-10.6523
not	-10.6524
▁raksha	-10.6525
▁towns	-10.6527
▁opens	-10.6529
▁jal	-10.6532
du	-10.6532
▁foot	-10.6532
▁passes	-10.6533
▁seeds	-10.6534
▁neighbours	-10.6535
▁bomb	-10.6537
▁van	-10.6542
▁eu	-10.6542
▁immense	-10.6545
▁engineer	-10.6545
▁shraddha	-10.6549
▁pratap	-10.655
▁sending	-10.655
▁focused	-10.6551
ho	-10.6555
▁1.	-10.6555
▁drawn	-10.6556
▁burning	-10.6561
▁replace	-10.6568
▁efficient	-10.6573
▁machinery	-10.6577
dr	-10.658
▁arrangement	-10.6586
▁cow	-10.6589
speed	-10.6591
▁intention	-10.6591
pe	-10.6594
▁treat	-10.6595
▁fy	-10.6598
▁glass	-10.6601
ge	-10.6604
▁northeast	-10.6605
▁revelation	-10.6613
▁portion	-10.6614
60	-10.6614
▁8,	-10.6627
iv	-10.6633
▁mine	-10.6634
▁bills	-10.6638
▁declaration	-10.664
▁hill	-10.664
▁joining	-10.6642
▁specifications	-10.6645
▁mixed	-10.6646
that	-10.6646
▁tomar	-10.6647
▁gun	-10.6654
▁aayog	-10.6658
▁honble	-10.6658
▁axis	-10.6659
▁hub	-10.6661
▁personality	-10.6661
▁bag	-10.6661
ara	-10.6668
▁dis	-10.6669
▁chemical	-10.6669
▁sixes	-10.6676
▁inclusive	-10.6685
▁permitted	-10.6686
▁tally	-10.669
▁elder	-10.669
▁motorcycle	-10.6695
▁map	-10.6697
▁audit	-10.67
ble	-10.6703
▁violent	-10.6708
ory	-10.6709
gi	-10.6713
▁recognition	-10.6713
▁painful	-10.6718
▁wonderful	-10.6718
▁replaced	-10.672
▁performing	-10.672
▁3.	-10.6721
▁sharp	-10.6722
▁engagement	-10.6723
▁withdraw	-10.6725
▁manual	-10.673
▁bike	-10.673
▁sins	-10.6738
▁pawan	-10.674
▁6,	-10.6757
▁slow	-10.6764
▁hits	-10.6766
▁isolated	-10.6769
▁captured	-10.6772
▁mines	-10.6787
ial	-10.6788
▁goddess	-10.6792
▁statistics	-10.6795
▁wives	-10.6795
▁retirement	-10.6795
▁folk	-10.6796
▁shiva	-10.6799
▁customer	-10.6808
▁5:	-10.6814
▁asks	-10.6818
▁expenses	-10.6819
▁mob	-10.6822
fa	-10.683
▁phases	-10.6833
▁grounds	-10.6834
▁tribute	-10.6834
▁pant	-10.6836
▁gap	-10.6838
ated	-10.685
▁library	-10.685
▁tennis	-10.6851
after	-10.6856
▁01	-10.6856
▁tells	-10.6863
▁birds	-10.6865
▁elders	-10.6868
tha	-10.687
ran	-10.6873
▁screening	-10.6875
.5	-10.6876
▁significance	-10.6878
▁continuously	-10.6882
▁tribes	-10.6883
▁feed	-10.6886
▁smartphones	-10.6887
▁settlement	-10.689
▁feelings	-10.6891
▁disputes	-10.6892
▁succeed	-10.6901
▁spreading	-10.6903
▁anybody	-10.6907
▁meets	-10.6912
▁aam	-10.6915
▁50,000	-10.6917
while	-10.692
▁ends	-10.6929
▁malhotra	-10.6934
▁machines	-10.6938
▁identification	-10.6962
▁ranaut	-10.6964
▁2014,	-10.6967
▁recognized	-10.6968
wan	-10.6978
▁counting	-10.6982
▁introduce	-10.6983
90	-10.6985
▁positions	-10.6985
▁disciples	-10.6987
▁scope	-10.6991
▁73	-10.6994
say	-10.6999
sar	-10.7
▁flat	-10.7002
▁older	-10.7007
entrepreneurship	-10.701
▁rescued	-10.7011
▁blind	-10.7013
▁behaviour	-10.7015
ted	-10.7016
▁worse	-10.7017
▁maybe	-10.7018
▁suspect	-10.7018
▁lady	-10.7019
▁stranded	-10.7019
▁minds	-10.7021
▁decade	-10.7031
▁newspaper	-10.7032
▁tensions	-10.7035
▁audio	-10.7043
▁cotton	-10.7046
▁entrepreneurs	-10.7047
▁suitable	-10.7047
▁bestow	-10.7048
▁78	-10.7051
▁mothers	-10.7052
▁acquired	-10.7052
▁contributions	-10.7053
▁estimates	-10.7054
▁deposits	-10.7054
▁conveyed	-10.7061
▁peak	-10.7062
ley	-10.7072
▁aaron	-10.7075
▁latter	-10.7075
▁asset	-10.7081
ner	-10.7097
▁scenario	-10.7103
▁greek	-10.7103
dc	-10.7104
▁di	-10.7104
▁approves	-10.7107
▁panic	-10.7107
▁kinds	-10.7109
▁bengali	-10.7113
endra	-10.7115
▁bihari	-10.7126
▁challenged	-10.7129
▁1000	-10.713
▁swachh	-10.7131
▁shroff	-10.7131
▁anurag	-10.7131
▁minorities	-10.7132
▁producing	-10.7132
▁links	-10.7134
▁equality	-10.7134
▁hero	-10.7134
▁shikhar	-10.7136
▁answers	-10.7139
▁preaching	-10.7139
▁62	-10.714
▁seventh	-10.7143
▁venue	-10.7147
▁entering	-10.7148
▁contained	-10.7149
▁committees	-10.7152
▁enemies	-10.716
▁kannada	-10.7161
▁camps	-10.7161
▁rajendra	-10.7161
▁trials	-10.7164
▁guarantee	-10.7168
▁controlled	-10.717
▁jee	-10.7173
▁hari	-10.7179
▁crash	-10.7183
▁exact	-10.7184
▁agitation	-10.7189
▁grateful	-10.7189
▁bought	-10.719
▁qualified	-10.719
▁brics	-10.7193
▁fired	-10.7194
▁proposals	-10.7198
▁69	-10.7209
▁presentation	-10.7215
▁vadra	-10.7218
▁turkey	-10.7218
▁execution	-10.7218
▁transportation	-10.722
uk	-10.7223
▁bigger	-10.7225
▁characters	-10.7227
▁wished	-10.7231
▁2007	-10.7232
▁george	-10.7246
▁microsd	-10.7246
▁glad	-10.7249
▁pa	-10.725
▁origin	-10.725
▁praised	-10.7258
crore	-10.7259
▁shortly	-10.7269
▁indigenous	-10.727
▁afternoon	-10.7275
▁ut	-10.7283
▁streets	-10.7283
▁discipline	-10.7285
gar	-10.7286
▁gill	-10.7292
▁institutional	-10.7295
▁answered	-10.7299
▁dust	-10.7302
▁psalm	-10.7302
▁brigade	-10.7304
▁involvement	-10.7304
▁spain	-10.7305
▁reiterated	-10.7308
der	-10.7308
▁adopt	-10.7313
▁represent	-10.7318
▁pool	-10.7327
▁cyber	-10.7333
▁controversial	-10.7333
▁pretty	-10.7333
▁creative	-10.7333
▁bose	-10.7334
▁ak	-10.7339
▁ports	-10.7344
▁63	-10.7349
▁pattern	-10.735
▁000	-10.735
▁examine	-10.7354
▁appreciate	-10.7355
▁con	-10.736
▁covenant	-10.7362
▁attending	-10.7367
▁hereafter	-10.7369
▁shock	-10.737
▁generated	-10.7371
▁babu	-10.7372
hal	-10.7372
▁represents	-10.7374
▁suggest	-10.7377
general	-10.7379
▁sen	-10.7379
mer	-10.7381
▁poster	-10.7386
▁undertaking	-10.7386
▁deficit	-10.7391
▁faculty	-10.7391
▁ghosh	-10.7392
tu	-10.7395
▁venkaiah	-10.7396
▁neighbouring	-10.7399
▁kong	-10.74
▁visits	-10.7401
av	-10.7402
▁reveal	-10.7407
▁mail	-10.7409
▁arrival	-10.7409
▁appearance	-10.741
▁virtual	-10.7417
▁comfort	-10.7417
▁eating	-10.7418
▁deals	-10.7418
▁ministerial	-10.7421
▁hong	-10.7426
▁pertaining	-10.7427
▁textiles	-10.7427
▁generations	-10.7431
▁keeps	-10.7438
his	-10.7441
way	-10.7442
▁sonakshi	-10.7451
▁afghan	-10.7451
▁infected	-10.7452
▁85	-10.7452
▁hosted	-10.7453
▁ko	-10.7455
▁increases	-10.7455
ship	-10.7458
▁manufacture	-10.7458
▁bhawan	-10.7459
▁announce	-10.7461
▁declare	-10.7461
▁ips	-10.7464
▁prem	-10.7467
▁circuit	-10.747
▁visitors	-10.7472
▁invitation	-10.748
▁interior	-10.748
▁prabhu	-10.748
mc	-10.7481
deep	-10.7483
▁emphasized	-10.7483
18	-10.7484
▁expectations	-10.7487
▁turns	-10.749
east	-10.7493
▁borders	-10.7503
▁acres	-10.7505
▁attract	-10.7506
▁pra	-10.7514
▁consequences	-10.7519
▁resulting	-10.752
70	-10.7523
▁magazine	-10.7529
▁9,	-10.7531
ks	-10.7534
▁targets	-10.7534
▁keen	-10.7536
▁parrikar	-10.7539
▁lowest	-10.7542
tax	-10.7559
ising	-10.7559
▁push	-10.7568
▁excise	-10.7569
▁basket	-10.7569
▁sunny	-10.7569
▁entitled	-10.7569
▁ideal	-10.7571
▁mu	-10.7571
▁favourite	-10.7573
▁fat	-10.7578
irav	-10.7578
▁2020:	-10.7583
pl	-10.7584
▁narayan	-10.7584
▁256	-10.7585
▁acid	-10.7587
▁combination	-10.7588
▁qualification	-10.7589
▁migrant	-10.7589
▁employee	-10.7589
▁corner	-10.759
▁featured	-10.7591
ina	-10.7592
▁continuous	-10.7594
▁kim	-10.7598
▁fitness	-10.76
▁consists	-10.7601
▁cargo	-10.7601
▁bowl	-10.7603
▁discount	-10.7605
▁assigned	-10.7607
▁destroy	-10.7618
▁mount	-10.7619
cha	-10.7619
jit	-10.762
▁activist	-10.762
▁ph	-10.7621
▁joe	-10.7622
▁enjoyed	-10.7625
▁msme	-10.7627
▁aadmi	-10.7628
▁dignitaries	-10.7628
▁mufti	-10.7629
▁paise	-10.7629
▁md	-10.7629
▁mouth	-10.7632
▁defined	-10.7633
▁pages	-10.7633
▁tool	-10.7637
▁2,000	-10.7637
hit	-10.7643
▁2018,	-10.7643
▁monitor	-10.7647
▁soldier	-10.765
▁extensive	-10.7654
▁displayed	-10.7656
ating	-10.7656
▁2020,	-10.767
▁grants	-10.7671
▁conclusion	-10.768
▁dalit	-10.7686
▁removal	-10.7689
▁dharmendra	-10.7689
▁diversity	-10.769
▁righteousness	-10.769
▁stocks	-10.7693
▁marked	-10.7696
▁spending	-10.7698
▁properly	-10.77
▁wage	-10.7704
▁2.	-10.771
▁editor	-10.7711
ite	-10.7718
▁pregnant	-10.7719
▁destruction	-10.7719
▁designated	-10.7721
13	-10.7725
▁amended	-10.7726
▁ive	-10.7729
▁strengthened	-10.7733
▁reaction	-10.774
▁bonds	-10.7741
▁outcome	-10.7744
▁savings	-10.7746
▁philosophy	-10.7749
▁studied	-10.7749
▁eminent	-10.775
▁bsf	-10.7753
12	-10.7754
▁2016-17	-10.7764
▁graduate	-10.7767
▁shift	-10.7771
▁71	-10.7771
▁queen	-10.7772
▁mortem	-10.7773
▁masks	-10.7777
▁lens	-10.7778
▁outbreak	-10.7782
▁earn	-10.7783
▁shrine	-10.7789
▁objectives	-10.7794
▁th	-10.78
▁syria	-10.7804
▁attempts	-10.7808
▁capabilities	-10.781
▁jodhpur	-10.781
▁demonetisation	-10.7811
related	-10.7811
▁li	-10.7818
▁fertilizers	-10.7821
▁korean	-10.7821
▁2019-20	-10.7822
▁transaction	-10.7833
▁lets	-10.7837
▁calendar	-10.7841
▁surveillance	-10.7841
▁walking	-10.7841
▁calcutta	-10.7841
▁forgiveness	-10.7842
▁reasonable	-10.7845
▁cricketers	-10.7845
▁$1	-10.7849
▁shop	-10.7859
▁native	-10.7865
▁(2)	-10.7868
▁aishwarya	-10.7871
▁appreciation	-10.7871
▁marathi	-10.7872
▁rashid	-10.7872
▁ansari	-10.7872
core	-10.7873
▁drivers	-10.7876
▁...	-10.7885
responsibilities	-10.7902
▁vacant	-10.7902
▁paswan	-10.7902
▁daniel	-10.7902
▁jaishankar	-10.7902
▁vivo	-10.7902
▁2018-19	-10.7903
▁turning	-10.7904
▁soft	-10.7906
▁ward	-10.791
allah	-10.7912
▁input	-10.7913
ft	-10.7925
▁celebration	-10.7926
▁load	-10.793
▁primarily	-10.7933
▁worried	-10.7933
▁rare	-10.7936
ent	-10.7938
▁fly	-10.7942
▁couldnt	-10.7946
▁sar	-10.7949
▁studying	-10.7955
▁commit	-10.7956
▁voted	-10.7959
▁verses	-10.796
▁inspiration	-10.7961
.6	-10.7963
▁uae	-10.7965
▁raped	-10.7967
▁suddenly	-10.7968
sha	-10.7971
▁forgiving	-10.7974
back	-10.7974
▁flying	-10.7983
▁civilian	-10.7992
▁chose	-10.7992
▁symbol	-10.7992
▁encouraging	-10.7995
▁roshan	-10.7995
▁introduction	-10.7995
▁childhood	-10.7995
▁gender	-10.7996
▁11,	-10.8
▁2001	-10.8008
les	-10.8012
▁amendments	-10.8013
▁congratulate	-10.8015
om	-10.8015
▁expressing	-10.8017
▁opener	-10.8018
▁theatre	-10.8021
▁appoint	-10.8025
▁panchayats	-10.8026
▁composed	-10.8027
▁vikram	-10.8027
▁survived	-10.8032
▁commanded	-10.8039
▁sentiments	-10.8042
▁apps	-10.8049
▁detail	-10.8052
▁speaks	-10.8055
ci	-10.8056
08	-10.8057
▁chauhan	-10.8057
▁cement	-10.8058
▁yatra	-10.8058
shi	-10.806
▁disbelievers	-10.8068
has	-10.8075
▁finding	-10.8075
▁vi	-10.8076
▁inaugurate	-10.8078
100	-10.8087
▁ultra	-10.8089
▁amazing	-10.8089
▁minus	-10.809
▁updates	-10.8093
▁rapidly	-10.8096
▁mad	-10.8101
▁worry	-10.8102
▁pilgrims	-10.8104
▁blame	-10.8109
▁ec	-10.8111
▁600	-10.8112
▁mal	-10.8116
▁withdrawal	-10.8118
▁jewellery	-10.812
▁guwahati	-10.8121
▁preliminary	-10.8121
▁hide	-10.8124
▁dreams	-10.8127
▁protected	-10.813
▁raids	-10.8139
▁closer	-10.8141
▁61	-10.8142
▁hosts	-10.8143
▁engage	-10.8144
▁ar	-10.815
▁personally	-10.815
ud	-10.815
▁hrs	-10.8152
▁understood	-10.8152
▁rehabilitation	-10.8152
▁excited	-10.8153
▁pitch	-10.8154
▁saina	-10.8157
▁marry	-10.8165
▁kashmiri	-10.8169
indian	-10.8175
▁cyclone	-10.8185
▁carbon	-10.8187
▁iranian	-10.8189
▁ascertained	-10.8192
▁organic	-10.8197
▁gear	-10.8197
▁uses	-10.8201
▁1.5	-10.8202
▁legislators	-10.821
▁jawans	-10.8215
▁pleased	-10.8215
▁lpg	-10.8216
▁allocated	-10.8217
▁releases	-10.8223
▁6:	-10.8231
cr	-10.8233
▁zones	-10.8237
▁champion	-10.8244
▁enhancing	-10.8247
▁equivalent	-10.8247
▁temporary	-10.8247
▁fastest	-10.825
▁ya	-10.8253
▁indicated	-10.8257
▁agreements	-10.8264
▁pulses	-10.8265
china	-10.8273
▁smooth	-10.8274
▁plot	-10.8275
▁biopic	-10.8279
▁regulation	-10.8279
▁ludhiana	-10.828
▁inform	-10.8282
▁2019,	-10.8287
▁observe	-10.8296
▁undertake	-10.8303
▁kar	-10.8304
▁default	-10.8308
▁innocent	-10.8311
▁residential	-10.8311
▁castes	-10.8312
▁sheep	-10.8316
▁intended	-10.8317
che	-10.8333
ika	-10.834
▁receipt	-10.8341
▁arab	-10.8342
}	-10.8343
▁criticism	-10.8343
▁tim	-10.8352
▁manifest	-10.8355
▁confirm	-10.8359
are	-10.8361
▁colleagues	-10.8363
▁timely	-10.8365
▁el	-10.8369
▁touched	-10.8375
▁dera	-10.8375
▁mallya	-10.8376
▁criticised	-10.8377
▁overcome	-10.8379
▁clashes	-10.8379
▁careful	-10.8382
▁ad	-10.839
jan	-10.8391
▁remembered	-10.8392
▁ending	-10.8394
▁(2	-10.8395
▁amar	-10.8398
▁operate	-10.8399
▁theory	-10.8402
▁po	-10.8405
▁collector	-10.8406
▁cycle	-10.8407
▁lieutenant	-10.8408
▁prosecution	-10.8408
▁architecture	-10.8408
▁transparent	-10.8408
▁kha	-10.8409
▁equally	-10.8426
▁delayed	-10.8431
▁photograph	-10.8439
▁stolen	-10.8441
▁2017,	-10.8445
▁exactly	-10.8446
▁forecast	-10.8452
▁pen	-10.8452
▁bse	-10.8456
▁chargesheet	-10.8459
▁hindustan	-10.8463
▁tools	-10.8463
▁surprise	-10.8465
▁realize	-10.847
▁terminal	-10.8471
lu	-10.8472
▁janhvi	-10.8473
▁precious	-10.8473
▁vietnam	-10.8473
▁obtain	-10.8473
bar	-10.8476
▁connections	-10.849
ng	-10.8492
▁politicians	-10.8495
▁practical	-10.8501
▁weapon	-10.8504
▁2016,	-10.8504
▁collision	-10.8505
▁ibrahim	-10.8505
▁shakti	-10.8508
▁dig	-10.8521
nm	-10.8529
▁presidents	-10.853
▁imagine	-10.8531
see	-10.8532
▁intervention	-10.8537
▁components	-10.8538
▁bajaj	-10.8539
▁pharaoh	-10.854
21	-10.8542
▁metres	-10.8543
▁ssp	-10.8548
▁ranking	-10.8551
▁faster	-10.8553
▁desires	-10.8555
▁purchased	-10.8556
▁hills	-10.8558
independent	-10.8559
▁breaking	-10.8562
▁professionals	-10.8563
▁substantial	-10.8567
▁royals	-10.8567
▁77	-10.857
▁surgery	-10.8571
▁bhagat	-10.8571
▁globe	-10.8571
▁integration	-10.8572
▁kalyan	-10.8573
▁jam	-10.8574
▁wherever	-10.8575
▁madras	-10.8576
▁clothes	-10.858
▁7,	-10.8584
16	-10.8596
most	-10.8599
▁mistake	-10.8601
▁inaugural	-10.8604
▁discrimination	-10.8604
▁blocks	-10.8605
▁calm	-10.8612
ists	-10.8618
▁launching	-10.8624
▁privilege	-10.863
▁chahal	-10.8637
▁compliance	-10.8639
▁handling	-10.8641
▁wild	-10.8645
▁blamed	-10.8649
▁reaches	-10.8649
35	-10.8649
▁divorce	-10.8663
▁frame	-10.8663
▁sai	-10.8664
▁sick	-10.8669
▁puducherry	-10.8671
▁compare	-10.8671
▁component	-10.8671
▁thailand	-10.8671
▁andaman	-10.8672
▁starring	-10.8672
▁membership	-10.8672
▁piece	-10.8673
▁ndrf	-10.8673
▁programs	-10.8677
▁mo	-10.8682
▁cleared	-10.8682
▁mere	-10.8683
▁mandate	-10.8697
▁max	-10.8699
▁satish	-10.8704
▁viz	-10.8707
▁airline	-10.871
▁manufacturers	-10.8712
▁sand	-10.8714
46	-10.8714
▁pink	-10.8723
ler	-10.8724
▁divide	-10.8729
▁socio	-10.8731
ier	-10.8733
▁gratitude	-10.8737
▁poetry	-10.8738
▁palace	-10.8738
▁momentum	-10.8738
▁governing	-10.8743
ash	-10.8744
▁dc	-10.8746
-3	-10.8747
▁jaish	-10.8749
▁hopes	-10.8749
▁publication	-10.875
▁clinical	-10.8751
▁cha	-10.8761
▁comedy	-10.8775
izing	-10.8776
▁20,000	-10.8776
▁surprised	-10.8779
god	-10.878
▁procedures	-10.8783
▁mc	-10.8792
▁wash	-10.8792
▁scholars	-10.8794
▁invite	-10.8796
▁tremendous	-10.88
▁earliest	-10.8804
65	-10.8805
▁akbar	-10.8806
▁counterpart	-10.8809
▁99	-10.8811
▁jack	-10.8812
que	-10.8817
▁artists	-10.8817
▁forests	-10.8819
▁stages	-10.8825
▁ranchi	-10.8829
▁shelter	-10.8835
▁electrical	-10.8838
▁satisfied	-10.8838
▁dignity	-10.8839
▁tripathi	-10.8839
▁jason	-10.8839
▁performances	-10.8842
▁driven	-10.885
▁difficulty	-10.8855
▁representing	-10.886
▁chat	-10.8863
▁riots	-10.8865
▁durga	-10.8868
▁atomic	-10.8874
▁explanation	-10.8874
▁observation	-10.8875
lal	-10.8875
▁rrb	-10.8875
▁discovered	-10.8879
▁arm	-10.8886
▁kartik	-10.8898
▁uncle	-10.8903
mb	-10.8905
▁easier	-10.8906
▁cops	-10.8907
▁mexico	-10.8907
ku	-10.8907
▁ab	-10.8907
▁secular	-10.8907
▁omar	-10.8909
▁saving	-10.8914
55	-10.8915
▁sangh	-10.8918
▁ranks	-10.8918
▁rti	-10.8918
eshwar	-10.8919
▁log	-10.8926
▁operators	-10.8927
▁colours	-10.8929
▁unfortunate	-10.8936
▁hidden	-10.894
▁dedication	-10.894
▁cleanliness	-10.894
▁maldives	-10.894
▁800	-10.8941
▁qureshi	-10.8941
▁diverse	-10.8941
▁intellectual	-10.8944
ten	-10.8945
▁branches	-10.8945
▁debit	-10.8946
▁sentenced	-10.8954
▁moderate	-10.8954
▁suv	-10.8956
▁pe	-10.8962
▁ho	-10.8963
▁telling	-10.8965
ali	-10.897
▁economies	-10.8975
▁ireland	-10.8975
▁financing	-10.8975
▁boundary	-10.8976
net	-10.8976
▁dmk	-10.8977
▁pandit	-10.8978
▁kills	-10.8979
▁drawing	-10.898
▁radha	-10.8981
ors	-10.8983
▁0.	-10.8984
▁jo	-10.8985
▁hai	-10.8989
ham	-10.8996
▁windows	-10.8997
22	-10.8998
▁95	-10.9001
▁realise	-10.9003
▁silent	-10.9004
▁exists	-10.9005
▁84	-10.9009
▁celebrities	-10.9009
▁badminton	-10.901
▁nanak	-10.9011
▁submission	-10.9013
▁scientist	-10.9014
▁inputs	-10.9019
▁ganesh	-10.9033
▁tom	-10.9034
▁determine	-10.904
▁arrive	-10.9041
▁census	-10.9043
▁explosion	-10.9043
▁patience	-10.9043
▁satisfaction	-10.9043
▁bsnl	-10.9043
▁productivity	-10.9044
▁2015-16	-10.9044
▁smriti	-10.9044
▁whosoever	-10.9047
▁burnt	-10.905
▁rajan	-10.9069
▁arguments	-10.9071
▁sudden	-10.9073
▁robust	-10.9078
jasprit	-10.9078
▁stokes	-10.9078
▁diabetes	-10.9078
▁explore	-10.9082
▁valuable	-10.9082
▁bbl	-10.9089
▁signal	-10.9093
▁sim	-10.9096
25	-10.9098
▁pv	-10.9098
▁ratna	-10.9102
▁(1	-10.9103
▁rent	-10.9106
▁subsequent	-10.9108
▁moves	-10.9108
▁centers	-10.9109
▁connecting	-10.911
▁oxygen	-10.9112
▁hrithik	-10.9113
▁freight	-10.9113
▁sourav	-10.9113
▁distress	-10.9115
wide	-10.9118
▁situations	-10.9123
▁suspects	-10.9131
▁lock	-10.9143
▁sovereignty	-10.9148
▁worshipped	-10.9148
▁pdp	-10.9151
▁element	-10.9152
▁predicted	-10.9153
▁festivals	-10.9162
abad	-10.9166
98	-10.9166
mumbai	-10.917
▁stream	-10.9172
▁technological	-10.9178
▁2011-12	-10.9183
▁shashi	-10.9183
▁sidharth	-10.9183
▁honda	-10.9184
▁repeatedly	-10.9187
▁willing	-10.9188
▁livelihood	-10.9188
▁unveiled	-10.9189
▁employed	-10.9192
▁officially	-10.9197
▁recording	-10.9198
ncr	-10.9207
nc	-10.9214
▁suspension	-10.9218
▁probing	-10.9218
▁bottom	-10.9218
▁mehbooba	-10.9219
ag	-10.9221
▁creator	-10.9223
▁dec	-10.9226
▁apostles	-10.9227
▁strikes	-10.9234
▁challengers	-10.9238
pura	-10.9239
▁82	-10.9241
▁tackle	-10.9245
ical	-10.925
▁cop	-10.9251
▁prestigious	-10.9253
▁boundaries	-10.9253
star	-10.9254
▁adviser	-10.926
▁parent	-10.926
▁hal	-10.9261
▁traditions	-10.9262
▁upset	-10.9267
▁staying	-10.9271
▁ca	-10.9273
may	-10.9274
▁enabled	-10.9275
▁76	-10.9278
▁navjo	-10.928
93	-10.9288
▁masjid	-10.9289
▁fallen	-10.9292
▁15,	-10.9295
▁tie	-10.9299
▁certificates	-10.9301
▁pmo	-10.9301
▁nutrition	-10.9305
81	-10.9306
▁contested	-10.9306
▁aspirations	-10.9308
mar	-10.9312
van	-10.9316
▁parade	-10.932
▁alcohol	-10.9322
▁mirza	-10.9323
▁telephone	-10.9324
▁samaj	-10.9324
▁partition	-10.9325
▁blocked	-10.9327
▁episode	-10.9331
▁religions	-10.9335
▁notices	-10.9335
▁arrests	-10.9335
▁routes	-10.9337
▁rumours	-10.9338
75	-10.9339
▁refers	-10.9345
▁2002	-10.9345
▁signing	-10.9351
▁ch	-10.9357
▁144	-10.9359
▁bluetooth	-10.9359
▁wildlife	-10.9359
▁maiden	-10.9359
▁patiala	-10.936
▁beaten	-10.9362
▁ensured	-10.9362
▁strive	-10.9366
▁corrupt	-10.9367
▁whats	-10.9372
▁culprits	-10.9377
▁petitions	-10.9377
▁parking	-10.9378
▁gates	-10.9389
ko	-10.939
▁deshmukh	-10.9395
▁onion	-10.9397
▁kabir	-10.9398
▁citing	-10.9399
▁assurance	-10.9402
▁protocol	-10.9403
▁reject	-10.9406
▁kher	-10.941
▁dollars	-10.9412
▁bright	-10.9415
!"	-10.9415
▁settle	-10.9423
▁col	-10.9429
▁throne	-10.9431
▁unprecedented	-10.9431
▁tharoor	-10.9431
▁batch	-10.9432
▁obviously	-10.9435
▁wounded	-10.9436
ip	-10.9437
▁ians	-10.9438
▁registering	-10.9441
03	-10.9441
▁dg	-10.9442
▁dhan	-10.9443
▁originally	-10.9445
▁threats	-10.9448
▁noble	-10.9448
▁consent	-10.9453
ik	-10.9456
▁pursue	-10.9459
then	-10.9459
▁retain	-10.9461
dh	-10.9462
▁split	-10.9467
▁adjoining	-10.9467
▁slammed	-10.9468
▁surat	-10.9468
▁dna	-10.9475
▁domain	-10.948
▁uts	-10.9486
af	-10.9486
economic	-10.949
▁engineers	-10.9495
▁81	-10.9498
▁clarified	-10.9503
▁pooja	-10.9505
▁knock	-10.9512
▁rival	-10.9513
▁tan	-10.9517
ita	-10.9518
▁ice	-10.9521
▁inclusion	-10.9523
▁instrument	-10.9527
▁supposed	-10.9537
▁lash	-10.9538
▁vivek	-10.9539
▁impossible	-10.9539
▁mini	-10.9539
▁tagore	-10.9539
▁monetar	-10.9539
▁thermal	-10.954
▁everywhere	-10.9541
▁presided	-10.9541
▁championships	-10.9543
▁mis	-10.9547
▁robert	-10.9549
zi	-10.9555
▁iii	-10.9564
▁responding	-10.9575
▁autonomous	-10.9575
▁empty	-10.9575
▁owaisi	-10.9575
▁quantity	-10.9575
▁disposal	-10.9576
▁1990	-10.9578
▁edge	-10.958
▁carefully	-10.9581
▁priest	-10.9586
▁converted	-10.9586
▁margin	-10.9586
▁mineral	-10.9592
▁cool	-10.9595
▁cook	-10.9605
▁planet	-10.9606
▁noah	-10.9608
▁mulayam	-10.9612
▁yuvraj	-10.9612
▁unlimited	-10.9612
bir	-10.9614
▁cutting	-10.9614
▁dad	-10.9621
▁militant	-10.9623
.00	-10.9626
▁helm	-10.9627
28	-10.9632
▁petitioner	-10.9636
wicket	-10.9636
▁disha	-10.9636
▁96	-10.964
▁imported	-10.964
▁embassy	-10.9649
▁ideology	-10.9649
▁malayalam	-10.9649
▁flagship	-10.9649
▁celebrating	-10.965
▁stating	-10.9653
▁gather	-10.9653
▁syed	-10.9654
▁hrd	-10.9655
▁entirely	-10.9656
▁roman	-10.966
▁firmly	-10.9667
▁pull	-10.9668
85	-10.9674
▁130	-10.9681
▁illness	-10.9685
▁vulnerable	-10.9685
▁allotted	-10.9685
▁remarkable	-10.9686
▁urge	-10.9689
▁2018.	-10.969
▁elderly	-10.9692
▁seminar	-10.9697
▁lab	-10.9702
▁rounds	-10.9707
▁delegates	-10.9709
▁abbas	-10.9709
▁holders	-10.9711
▁riders	-10.9722
▁nokia	-10.9722
▁entities	-10.9722
▁contrast	-10.9723
▁smoke	-10.9723
▁dependent	-10.9725
▁mat	-10.9728
▁rio	-10.973
ot	-10.9733
▁password	-10.9734
▁vitamin	-10.9734
▁doubles	-10.9738
▁yield	-10.9738
▁tied	-10.9739
▁fail	-10.974
44	-10.9743
▁voter	-10.9747
▁reporting	-10.9747
▁containing	-10.9754
▁pieces	-10.9758
▁contrary	-10.9759
▁umesh	-10.976
▁cured	-10.977
▁passport	-10.9772
▁wonder	-10.9772
▁deol	-10.9773
san	-10.9775
▁politician	-10.9776
ala	-10.9776
▁largely	-10.9781
▁mann	-10.9783
▁cap	-10.9783
wi	-10.9785
▁fulfil	-10.9787
▁martin	-10.979
▁collective	-10.9792
▁instruments	-10.9793
▁profession	-10.9794
▁trinamool	-10.9796
▁complained	-10.9801
▁distinguished	-10.9802
.""	-10.9806
▁chances	-10.9809
▁havent	-10.981
▁grave	-10.9813
▁layer	-10.9816
hu	-10.9816
▁height	-10.9817
▁seemed	-10.9823
.10	-10.9836
▁deemed	-10.9838
▁fault	-10.9843
▁perspective	-10.9846
nam	-10.9854
making	-10.9859
▁waters	-10.9864
▁urgent	-10.9867
▁fifty	-10.9871
▁automatic	-10.9872
▁vigilance	-10.9872
▁script	-10.9873
▁jaya	-10.9881
▁%1	-10.9885
▁allies	-10.9889
▁dealt	-10.9891
▁contempt	-10.9892
▁2018:	-10.9898
67	-10.9905
tech	-10.9909
▁laboratory	-10.9909
▁parishad	-10.9909
▁kaushal	-10.9909
▁rajeev	-10.9909
▁kumaraswamy	-10.991
▁kan	-10.9918
▁raina	-10.9918
▁palm	-10.992
▁4.	-10.9922
▁protein	-10.9923
▁profile	-10.9926
field	-10.9929
▁tender	-10.9932
▁breach	-10.9933
▁meat	-10.9935
▁assure	-10.9939
▁boards	-10.994
▁sworn	-10.9947
▁randeep	-10.9947
▁knight	-10.9948
▁kindness	-10.9952
▁greatly	-10.9953
▁ro	-10.9953
▁hotels	-10.9953
▁owners	-10.9954
▁examined	-10.9956
▁tonne	-10.9958
▁representation	-10.9961
▁tune	-10.9963
▁bowled	-10.9964
▁temperatures	-10.9969
▁server	-10.9973
▁bed	-10.9976
▁acquire	-10.9977
▁finish	-10.9984
▁gowda	-10.9984
▁qualities	-10.9984
▁saeed	-10.9984
▁commonwealth	-10.9984
▁artificial	-10.9985
▁database	-10.9985
▁operated	-10.9994
▁buying	-10.9996
▁cry	-10.9997
io	-11.0001
▁agent	-11.0002
▁outfit	-11.0002
▁attain	-11.0007
▁recognize	-11.0015
▁assume	-11.0015
.25	-11.0015
14	-11.0017
dis	-11.0018
▁enquiry	-11.0023
▁photographs	-11.0024
▁nationwide	-11.0025
▁discharge	-11.003
▁withdrawn	-11.003
ence	-11.0031
▁lu	-11.0032
▁ok	-11.0035
.8	-11.0036
▁portfolio	-11.0037
24	-11.0039
▁jha	-11.0041
▁mor	-11.0043
▁91	-11.0048
▁exclusive	-11.0056
▁depression	-11.0061
▁condemn	-11.0061
▁urdu	-11.0062
▁kmph	-11.0063
▁geo	-11.0063
▁instructed	-11.0063
▁kane	-11.0067
▁repeated	-11.0068
▁refer	-11.0074
▁pin	-11.0075
▁os	-11.0077
bi	-11.0084
▁revelations	-11.0086
▁ally	-11.0089
▁critics	-11.0092
▁inner	-11.0092
▁uniform	-11.0094
▁silence	-11.01
▁lifestyle	-11.01
▁commodities	-11.01
▁involves	-11.0101
▁en	-11.0101
ities	-11.0102
▁crown	-11.0103
▁1999	-11.0104
▁yellow	-11.0105
▁throw	-11.0106
▁'%	-11.0106
hra	-11.0107
▁wages	-11.011
▁msmes	-11.0111
▁shocked	-11.0117
▁boat	-11.0121
▁rallies	-11.0137
▁tragedy	-11.0137
▁fishermen	-11.0137
▁coffee	-11.0138
31	-11.014
▁chowk	-11.0141
ball	-11.0143
▁greeted	-11.0147
▁circle	-11.0154
▁surrounding	-11.0157
▁prizes	-11.0158
68	-11.0168
▁farooq	-11.0176
▁grid	-11.0178
▁acceptable	-11.018
,500	-11.018
▁nodal	-11.0182
▁deadly	-11.0184
▁taluka	-11.0185
▁tweets	-11.0192
▁sweet	-11.0193
▁recommendation	-11.0194
jeet	-11.0196
▁meal	-11.0201
▁depends	-11.0203
▁puja	-11.0211
▁bhai	-11.0214
▁hollywood	-11.0215
▁azhar	-11.0215
▁anointed	-11.0215
▁rahman	-11.0218
▁kisan	-11.0218
pro	-11.0222
ph	-11.0225
▁translation	-11.0232
▁covers	-11.0238
▁chancellor	-11.0239
including	-11.0241
▁networks	-11.0242
▁protecting	-11.0245
▁guests	-11.0249
▁possess	-11.025
▁consensus	-11.0254
▁chandrababu	-11.0254
▁adoption	-11.0254
▁specifically	-11.0255
▁heavenly	-11.0264
▁restore	-11.0268
▁franchise	-11.0271
▁affair	-11.0272
▁producers	-11.0276
▁tend	-11.0276
ind	-11.0281
▁disabilities	-11.0293
▁desai	-11.0293
▁raut	-11.0294
▁collect	-11.0297
▁4,000	-11.0302
▁recalled	-11.0307
▁theft	-11.0312
▁catch	-11.0315
▁resign	-11.0318
kha	-11.0322
▁pilots	-11.0324
▁absolute	-11.0327
rounder	-11.033
▁tight	-11.0331
▁conviction	-11.0333
ator	-11.0334
now	-11.0335
74	-11.034
pan	-11.0345
▁tongue	-11.035
chief	-11.0359
▁desert	-11.0359
▁associations	-11.0371
▁kailash	-11.0371
▁conversion	-11.0371
▁grover	-11.0372
bu	-11.0375
▁disclosed	-11.038
▁fdi	-11.038
▁prisoners	-11.0381
▁reveals	-11.0386
▁2017.	-11.0389
▁dairy	-11.0392
▁7.	-11.0393
▁beds	-11.0395
▁lecture	-11.0404
▁dar	-11.0404
▁quad	-11.0406
▁intense	-11.0406
▁engines	-11.0407
▁alok	-11.0408
▁bird	-11.0408
86	-11.041
▁closing	-11.0411
▁thomas	-11.0411
▁vishnu	-11.0411
▁isolation	-11.0411
▁bahadur	-11.0411
▁dilip	-11.0411
▁statutory	-11.0411
had	-11.0412
▁jalandhar	-11.0412
▁gradually	-11.0412
owned	-11.0419
▁tear	-11.0423
chi	-11.0426
▁plain	-11.0427
▁farhan	-11.0433
▁tower	-11.0433
▁annually	-11.0437
litre	-11.0439
▁ssc	-11.0439
▁pankaj	-11.0442
▁inspire	-11.0443
32	-11.0444
▁expensive	-11.045
▁interrogation	-11.045
▁darkness	-11.0452
▁recover	-11.0455
▁developments	-11.0456
▁experiment	-11.0457
▁curb	-11.0457
vis	-11.0461
▁showcase	-11.0463
▁cave	-11.0469
▁endeavour	-11.0471
000	-11.0471
▁alias	-11.0476
▁toilets	-11.048
▁progressive	-11.0488
op	-11.049
▁vodafone	-11.049
▁sisodia	-11.049
▁hatred	-11.049
26	-11.0491
▁sridevi	-11.0491
▁defense	-11.0491
▁unemployment	-11.0491
▁roof	-11.0491
▁tdp	-11.0494
▁surya	-11.0496
▁manufactured	-11.0501
▁occasions	-11.0501
▁speeches	-11.0501
uri	-11.0502
final	-11.0502
pu	-11.0504
▁dgp	-11.0505
uni	-11.0505
oli	-11.0509
▁negotiations	-11.0511
▁sample	-11.0511
▁chit	-11.0511
▁lift	-11.0522
▁mandir	-11.0525
▁saini	-11.0527
▁laying	-11.0528
▁bhupinder	-11.053
://	-11.0531
▁solomon	-11.0531
▁sole	-11.0537
▁administered	-11.0537
92	-11.0544
▁94	-11.0546
▁86	-11.0546
▁ru	-11.0551
▁normally	-11.0551
▁definition	-11.0551
▁kilometres	-11.0553
thi	-11.0558
▁governors	-11.0562
▁angel	-11.0569
▁societies	-11.057
▁spectrum	-11.057
▁vacancies	-11.057
▁sec	-11.0571
▁kartarpur	-11.0571
▁holder	-11.0572
▁97	-11.0574
▁scared	-11.0577
▁700	-11.0578
▁pacific	-11.0578
▁gu	-11.0579
▁folder	-11.0581
▁goel	-11.0583
▁speedy	-11.0584
▁hoped	-11.0588
▁ecosystem	-11.0592
why	-11.06
fc	-11.06
▁31,	-11.0606
▁flesh	-11.0606
▁auspicious	-11.0611
▁distancing	-11.0611
▁universe	-11.0611
▁eco	-11.0617
▁blow	-11.062
▁dog	-11.0621
▁leela	-11.0622
▁79	-11.0622
▁israeli	-11.0623
94	-11.0627
▁amounts	-11.0632
▁earnings	-11.0634
▁grain	-11.0636
ard	-11.0638
kumar	-11.064
▁convicts	-11.0645
▁souls	-11.0648
▁lee	-11.065
▁california	-11.0651
▁enabling	-11.0651
▁casualties	-11.0651
▁gorakhpur	-11.0652
▁exchanges	-11.0655
mon	-11.0656
▁treaty	-11.0656
▁oldest	-11.0656
uddin	-11.0658
:%	-11.0659
▁prevailing	-11.0661
.50	-11.0669
-20	-11.067
▁breaks	-11.0671
▁murdered	-11.0672
▁licence	-11.0674
▁magic	-11.0676
▁badly	-11.0678
modi	-11.0686
▁accorded	-11.0687
▁capability	-11.0692
▁gambhir	-11.0693
▁johnson	-11.0694
▁athletes	-11.0695
76	-11.0697
▁considerable	-11.0697
▁establishing	-11.0697
photo	-11.0697
▁bagh	-11.0699
)."	-11.0702
▁allied	-11.0702
▁tank	-11.0704
▁reminder	-11.0705
▁sanctions	-11.0706
▁105	-11.0706
▁fulfill	-11.0709
▁masters	-11.071
38	-11.071
tal	-11.071
▁14,	-11.0723
▁recall	-11.0724
▁2015,	-11.0726
▁isaiah	-11.0727
▁unlike	-11.0731
▁narrow	-11.0733
▁techniques	-11.0734
▁owing	-11.0734
▁ordinary	-11.0734
aj	-11.0735
▁1996	-11.0735
▁digvijay	-11.0736
▁contracts	-11.074
▁infections	-11.0741
▁2022	-11.0741
▁updated	-11.0746
▁ring	-11.0746
▁commence	-11.075
▁8-	-11.0755
89	-11.0755
ning	-11.0757
delhi	-11.0761
▁routine	-11.0769
▁rating	-11.077
▁indicates	-11.0774
▁rijiju	-11.0774
▁recognise	-11.0775
▁kms	-11.0777
these	-11.0779
▁nationalist	-11.0789
▁retained	-11.0789
▁pulled	-11.0789
34	-11.079
▁87	-11.0794
▁parameters	-11.0797
▁98	-11.0799
▁arrives	-11.0809
▁evident	-11.081
▁injustice	-11.0814
▁simultaneously	-11.0816
▁ultimately	-11.0818
▁pvt	-11.0825
▁flee	-11.0825
▁trace	-11.0832
▁loves	-11.0833
▁akali	-11.0834
▁scripture	-11.084
▁bow	-11.0841
▁msp	-11.0842
▁clearance	-11.0844
▁cumulative	-11.0851
48	-11.0854
bha	-11.0855
▁sovereign	-11.0856
▁liquid	-11.0856
▁nicobar	-11.0856
▁abhiyan	-11.0856
▁renowned	-11.0856
▁italian	-11.0856
▁javed	-11.0856
▁pledge	-11.0858
▁thrown	-11.086
▁restricted	-11.0862
▁ray	-11.0868
▁announces	-11.0871
era	-11.0875
▁separately	-11.0876
▁allegation	-11.0882
▁desired	-11.0882
meet	-11.0883
▁remand	-11.0884
▁110	-11.0884
which	-11.0885
▁nice	-11.0893
az	-11.0895
▁laboratories	-11.0898
▁supplied	-11.0898
▁honey	-11.0898
▁contacted	-11.09
▁tele	-11.09
▁dsp	-11.0903
▁fog	-11.0903
▁raman	-11.0905
▁adds	-11.0907
▁remark	-11.091
pat	-11.0912
tra	-11.0913
▁jp	-11.0914
▁finds	-11.0915
nu	-11.0918
▁affidavit	-11.0923
▁slave	-11.0923
▁helicopter	-11.0923
sis	-11.0924
▁survive	-11.0932
▁honest	-11.0932
dy	-11.0933
▁conscious	-11.0935
▁promoted	-11.0936
▁hat	-11.0939
▁fingerprint	-11.0939
▁defamation	-11.094
▁terrible	-11.094
▁chandrayaan	-11.094
how	-11.094
▁mall	-11.0943
under	-11.0945
▁miles	-11.0945
▁twin	-11.0948
▁recommend	-11.0951
file	-11.0951
▁ga	-11.0952
▁cat	-11.0952
▁bearing	-11.0953
▁grade	-11.0955
▁usage	-11.0963
▁ordinance	-11.0965
▁adult	-11.0966
ability	-11.0967
▁guardian	-11.0967
▁spin	-11.0967
▁83	-11.0968
▁nh	-11.0972
▁genuine	-11.0976
lan	-11.0976
▁macro	-11.0978
▁empire	-11.0981
▁excellency	-11.0981
▁exposure	-11.0981
▁torque	-11.0981
▁impressive	-11.0981
▁ghulam	-11.0982
▁ghaziabad	-11.0982
▁rohtak	-11.0982
▁dawn	-11.0983
▁fray	-11.0983
▁visual	-11.0985
▁scindia	-11.0986
▁sees	-11.099
?""	-11.0993
ganj	-11.0994
▁proverbs	-11.0994
00	-11.0997
month	-11.1014
od	-11.1015
59	-11.1017
▁blessing	-11.1018
▁prophets	-11.1019
▁lesson	-11.1022
▁ammunition	-11.1023
▁malaika	-11.1023
▁rajinikanth	-11.1024
▁certification	-11.1024
▁validity	-11.1024
▁birla	-11.1025
▁liberal	-11.1025
ncp	-11.1026
▁putin	-11.1028
▁sing	-11.1031
▁gauri	-11.1032
ups	-11.1033
▁empower	-11.1033
▁segments	-11.1037
▁burn	-11.1039
▁grains	-11.1042
▁indus	-11.1042
▁88	-11.1048
▁minute	-11.105
▁nse	-11.1063
▁attorney	-11.1065
▁heavily	-11.1065
▁shastri	-11.1065
▁forthcoming	-11.1066
▁postponed	-11.1069
▁album	-11.107
▁defend	-11.1071
▁artist	-11.1075
▁2016.	-11.1076
06	-11.1077
33	-11.108
▁kin	-11.1081
▁dil	-11.1085
▁bullet	-11.1088
▁comparison	-11.1093
rc	-11.1097
▁unjust	-11.1103
▁ambitious	-11.1108
▁basically	-11.1109
▁conferencing	-11.111
▁futures	-11.1111
▁mandal	-11.1112
72	-11.1112
▁frequently	-11.1112
▁arabic	-11.1115
▁appeals	-11.112
▁08	-11.1121
.15	-11.1122
▁sanction	-11.1123
inder	-11.1124
▁transform	-11.1124
▁reviews	-11.1131
right	-11.1133
▁mens	-11.1141
▁humble	-11.1143
▁accurate	-11.1146
▁consistent	-11.1146
▁writes	-11.1147
▁behavior	-11.1148
▁snowfall	-11.115
▁nominations	-11.115
▁tobacco	-11.1151
▁commonly	-11.1151
▁{	-11.1152
▁azam	-11.1152
▁congratulations	-11.1152
▁92	-11.1153
▁competitions	-11.1154
▁pnb	-11.1155
▁restored	-11.1163
▁severely	-11.1166
▁nabi	-11.1177
▁2003	-11.1178
▁dynamic	-11.118
▁minerals	-11.1181
br	-11.1181
▁volunteers	-11.1185
▁pc	-11.1186
96	-11.1193
▁netherlands	-11.1193
▁thieves	-11.1193
▁everlasting	-11.1193
▁tehsil	-11.1193
▁inauguration	-11.1193
west	-11.1194
▁circular	-11.1194
▁revision	-11.1194
▁cordon	-11.1194
▁determination	-11.1195
▁nathan	-11.1197
▁starrer	-11.1201
▁punish	-11.1202
▁hasan	-11.1209
29	-11.1211
▁lankan	-11.1217
commerce	-11.1224
par	-11.1228
▁actively	-11.123
▁alleg	-11.1234
▁curfew	-11.1236
▁mohali	-11.1236
▁paddy	-11.1236
▁opposing	-11.1236
▁dehradun	-11.1237
▁communist	-11.1237
▁apparently	-11.124
▁summoned	-11.124
mu	-11.1242
▁findings	-11.1245
ev	-11.1246
▁drdo	-11.125
▁lessons	-11.1252
▁vinay	-11.1253
▁2-	-11.1254
▁2.5	-11.1255
%),	-11.1256
▁13:	-11.1257
▁increasingly	-11.1261
09	-11.1262
▁chamber	-11.1266
07	-11.1269
▁evolution	-11.1269
▁refuge	-11.127
▁intent	-11.1271
also	-11.1271
▁neck	-11.1273
▁objects	-11.1275
▁economics	-11.1277
▁cautious	-11.1279
▁lottery	-11.1279
▁neeraj	-11.1279
▁admiral	-11.1279
▁patnaik	-11.128
▁sania	-11.1281
78	-11.1284
ey	-11.1284
▁ration	-11.1285
▁lauded	-11.1285
▁exposed	-11.1286
kh	-11.1288
▁produces	-11.1291
▁kiran	-11.1292
▁asean	-11.1295
▁specially	-11.1297
▁kal	-11.1301
▁brave	-11.1304
▁canal	-11.1305
▁agents	-11.1306
▁holi	-11.1309
▁buddhist	-11.131
▁refugees	-11.1312
▁6.	-11.1317
rbi	-11.1318
▁briefing	-11.1321
▁afford	-11.1321
jo	-11.1322
▁detention	-11.1322
▁enthusiasm	-11.1322
▁strategies	-11.1322
bsp	-11.1322
▁complainant	-11.1323
ay	-11.1327
▁chinas	-11.1328
▁kapur	-11.1329
▁3,000	-11.1331
77	-11.1332
▁midst	-11.1336
▁walls	-11.1344
▁stores	-11.1346
▁estimate	-11.1346
▁11.	-11.135
made	-11.1354
▁respected	-11.1358
▁rid	-11.1362
▁kashyap	-11.1366
▁contemporary	-11.1366
▁widespread	-11.1366
▁prashant	-11.1366
▁formula	-11.1367
▁clock	-11.1369
▁targeting	-11.1375
▁needy	-11.1377
▁dress	-11.1379
▁weekly	-11.1382
▁gulf	-11.1395
▁fame	-11.1397
▁prayed	-11.1399
▁criteria	-11.141
▁eligibility	-11.141
▁2020-21	-11.1411
▁attendance	-11.1412
▁passion	-11.1415
▁slowly	-11.1417
shri	-11.1418
▁pop	-11.1419
bound	-11.1427
▁22,	-11.143
▁infosys	-11.1431
▁writers	-11.1433
ju	-11.1433
▁risks	-11.1439
ious	-11.1439
use	-11.144
▁labs	-11.144
▁bhagwat	-11.1444
▁reverse	-11.1446
▁hasnt	-11.1449
▁devotion	-11.1451
▁lands	-11.1451
▁harbhajan	-11.1453
▁homage	-11.1453
▁arising	-11.1454
ites	-11.1454
▁lucky	-11.1456
▁legs	-11.1457
▁santosh	-11.1458
post	-11.1458
▁arranged	-11.1458
▁argued	-11.1458
▁lots	-11.1462
den	-11.1464
▁amol	-11.1469
▁9.	-11.1475
▁safeguard	-11.1486
▁giant	-11.1488
▁pacer	-11.1494
▁180	-11.1496
▁contingent	-11.1497
▁interpretation	-11.1498
▁canadian	-11.1498
▁1998	-11.1499
▁pu	-11.1501
▁quota	-11.1503
▁county	-11.1504
▁vessels	-11.1506
▁kumari	-11.1508
▁dy	-11.1509
▁lifted	-11.1512
83	-11.1515
▁350	-11.1521
▁rooms	-11.1523
▁establishments	-11.1526
▁mom	-11.1526
51	-11.1526
▁guides	-11.1536
iz	-11.1539
▁custom	-11.154
▁arbitration	-11.1542
▁concrete	-11.1542
▁gurugram	-11.1543
▁jacob	-11.1543
▁oppo	-11.1543
▁drought	-11.1545
▁madan	-11.155
88	-11.1554
▁asif	-11.1556
▁horse	-11.1557
yan	-11.1561
▁martyrs	-11.1573
▁surge	-11.1575
▁2014.	-11.1577
▁16,	-11.1577
tar	-11.1578
pped	-11.158
▁structures	-11.158
▁strange	-11.1583
ward	-11.1584
▁functional	-11.1586
▁tunnel	-11.1586
▁chastisement	-11.1586
▁constitute	-11.1587
▁stepped	-11.1587
▁kriti	-11.1587
▁csir	-11.1589
▁ambala	-11.1591
▁additionally	-11.1593
▁nobel	-11.1595
▁www	-11.1596
▁89	-11.1605
▁regarded	-11.1607
▁93	-11.1609
▁matt	-11.1613
▁corps	-11.1618
according	-11.1618
▁rebel	-11.1622
▁investor	-11.1624
▁bread	-11.1626
▁twelve	-11.1631
▁interface	-11.1631
▁deployment	-11.1631
▁kala	-11.1631
▁voluntary	-11.1632
▁assessee	-11.1632
▁comfortable	-11.1632
▁scoring	-11.1633
▁accountability	-11.1633
▁alex	-11.1633
▁vidhan	-11.1633
▁philippines	-11.1638
gen	-11.164
▁extending	-11.1642
▁commenced	-11.1643
▁khans	-11.1644
▁escaped	-11.1648
dha	-11.1648
▁kant	-11.1652
▁ta	-11.1658
▁reflected	-11.166
▁ap	-11.1662
ima	-11.1663
▁module	-11.1666
▁heading	-11.1666
▁arise	-11.1669
▁rishabh	-11.1676
▁supremo	-11.1676
▁beijing	-11.1676
▁yuzvendra	-11.1676
▁mahajan	-11.1676
▁williamson	-11.1677
▁tracks	-11.168
▁finch	-11.1682
▁doors	-11.1683
58	-11.1685
▁deadline	-11.1691
▁gandhiji	-11.1692
▁hectares	-11.1693
bbl	-11.1699
37	-11.1701
▁shocking	-11.1704
▁innovations	-11.1707
▁walked	-11.1709
▁sultan	-11.1709
▁gandhis	-11.171
▁milestone	-11.1711
▁vessel	-11.1712
▁passage	-11.1712
▁compromise	-11.1712
▁manufacturer	-11.1716
▁teachings	-11.1717
▁usb	-11.1718
▁siddharth	-11.1719
▁painting	-11.1719
▁reception	-11.1721
▁acquitted	-11.1721
▁neighbourhood	-11.1721
▁vilas	-11.1722
▁shivaji	-11.1722
▁outlook	-11.1724
ative	-11.1732
▁hydro	-11.1732
some	-11.1733
▁pack	-11.1733
▁repeat	-11.1734
▁mani	-11.1741
fs	-11.1743
▁emi	-11.1746
▁qualify	-11.1747
▁emerge	-11.1749
▁mir	-11.1751
▁lest	-11.1752
▁textile	-11.1758
▁quarantine	-11.1759
tt	-11.1761
ez	-11.1764
▁nevertheless	-11.1766
▁bobde	-11.1766
▁merit	-11.1766
▁parallel	-11.1766
▁helpful	-11.1767
▁rcb	-11.1769
▁sanjeev	-11.1772
▁tab	-11.1773
▁sikhs	-11.1776
▁broadcast	-11.179
▁viewed	-11.179
▁ac	-11.1796
▁pistol	-11.1803
▁spouse	-11.1803
▁idols	-11.1804
▁item	-11.1805
01	-11.1808
▁witnessing	-11.1809
▁bhansali	-11.1811
▁legacy	-11.1811
llowing	-11.1811
▁rahane	-11.1811
▁literary	-11.1812
▁naqvi	-11.1812
▁hunger	-11.1813
▁expressway	-11.1813
▁angle	-11.1815
▁sq	-11.1815
▁bcm	-11.1816
▁marshal	-11.1817
▁sake	-11.1817
▁`	-11.1819
▁civilians	-11.1821
▁likewise	-11.1825
▁flu	-11.1825
▁nay	-11.1831
▁fa	-11.1833
iii	-11.1836
▁2004	-11.184
▁profits	-11.1842
▁50%	-11.1843
▁priests	-11.1844
judge	-11.1845
▁2.0	-11.1847
▁tribe	-11.1848
▁hi	-11.185
▁chase	-11.1853
▁fatalities	-11.1857
▁mistakes	-11.1857
▁entity	-11.1857
▁jewish	-11.1858
▁noticed	-11.1859
▁celebrates	-11.1861
▁annum	-11.1862
▁jump	-11.1864
87	-11.1865
▁posed	-11.1866
▁triggered	-11.1867
ong	-11.1869
▁flowers	-11.1877
▁delight	-11.1878
▁octa	-11.1881
▁valued	-11.1881
▁heights	-11.1887
57	-11.189
▁invested	-11.1892
▁warrant	-11.1892
▁accepting	-11.1895
▁nominee	-11.1895
▁capture	-11.1895
▁founded	-11.1896
▁foreigners	-11.1896
▁dharma	-11.1899
ini	-11.1899
▁tej	-11.1903
▁siddiqui	-11.1903
▁ayurveda	-11.1904
▁belt	-11.1904
▁rahim	-11.1905
▁160	-11.1906
▁17,	-11.1906
▁sadar	-11.1913
ze	-11.1914
▁dalits	-11.1917
36	-11.1917
▁fighters	-11.1918
▁youngsters	-11.1924
▁10-	-11.1924
▁shoulder	-11.1929
▁span	-11.1942
▁enterprise	-11.1943
suing	-11.1945
▁extraordinary	-11.1949
▁exciting	-11.1949
▁attackers	-11.1954
▁mike	-11.196
▁eighth	-11.196
42	-11.1961
▁remanded	-11.1964
▁cooking	-11.1972
▁newspapers	-11.1973
▁ft	-11.1973
▁nar	-11.1975
tc	-11.1976
▁collapse	-11.198
▁compete	-11.1988
being	-11.1989
▁shweta	-11.1995
▁ceasefire	-11.1995
▁gurgaon	-11.1996
▁hardeep	-11.1996
▁fluid	-11.1996
▁distinction	-11.1996
▁succumbed	-11.1999
mat	-11.2
▁weaker	-11.2001
▁maharaj	-11.2003
mal	-11.2003
▁grams	-11.2003
▁abandoned	-11.2003
pp	-11.2004
▁executed	-11.2007
▁strictly	-11.2012
▁israelites	-11.2014
▁isn	-11.2018
▁jets	-11.202
▁saint	-11.2021
].	-11.2028
▁abide	-11.204
▁winds	-11.2041
▁surjewala	-11.2042
▁vicky	-11.2042
▁pradeep	-11.2042
▁priorities	-11.2042
▁disappointed	-11.2043
▁personalities	-11.2043
ada	-11.2043
▁explains	-11.2045
.40	-11.2046
cap	-11.2049
will	-11.205
▁iyer	-11.205
39	-11.2051
▁colourful	-11.2053
art	-11.2065
▁chest	-11.2069
56	-11.2074
49	-11.2075
▁cloud	-11.2081
▁tractor	-11.2083
▁nabbed	-11.2089
▁resistance	-11.2089
▁benchmark	-11.2089
▁shekhar	-11.2092
▁cited	-11.2092
▁doval	-11.2096
▁lending	-11.2096
▁convert	-11.2097
▁button	-11.21
▁gandhinagar	-11.2101
▁skilled	-11.2103
▁jos	-11.2106
▁risen	-11.211
▁si	-11.2119
▁bip	-11.2122
keeper	-11.2123
▁pixels	-11.2124
▁lalit	-11.2124
▁moto	-11.2125
speaking	-11.2125
▁13.	-11.2128
▁op	-11.2128
▁cluster	-11.213
▁landing	-11.213
▁oppose	-11.213
▁adverse	-11.2131
▁cadre	-11.2132
▁permit	-11.2135
▁bhuvneshwar	-11.2135
▁conclave	-11.2135
▁releasing	-11.2135
▁forbidden	-11.2136
▁okay	-11.2136
▁attractive	-11.2136
▁mindset	-11.2138
▁fever	-11.2138
▁raju	-11.2139
car	-11.2139
▁anupam	-11.214
▁unfortunately	-11.2143
▁raipur	-11.2143
▁28,	-11.2147
▁2015.	-11.215
▁suggests	-11.2154
▁missed	-11.2161
operation	-11.2168
▁preserve	-11.2176
was	-11.2177
▁thankful	-11.2178
▁salute	-11.218
▁excess	-11.218
▁iqbal	-11.2183
▁privacy	-11.2183
▁masood	-11.2183
▁2014-15	-11.2183
▁hamid	-11.2183
▁interventions	-11.2184
▁undergo	-11.2184
▁waiver	-11.2186
▁occupied	-11.219
▁empowered	-11.2198
▁buddha	-11.2199
▁imd	-11.2201
43	-11.2202
▁consultations	-11.2204
▁balanced	-11.2208
▁warn	-11.2215
prime	-11.2219
53	-11.2221
▁automobile	-11.2226
▁literacy	-11.223
▁preferred	-11.223
▁believing	-11.223
▁duration	-11.2231
▁expertise	-11.2231
▁bhumi	-11.2232
▁kishan	-11.2232
▁staged	-11.2232
▁1992	-11.2232
▁beating	-11.2232
▁hanuman	-11.2232
▁typically	-11.2233
oo	-11.2234
▁merger	-11.2234
66	-11.2242
▁13,	-11.2243
▁locked	-11.2249
▁ashram	-11.225
▁pot	-11.2251
ds	-11.2255
73	-11.226
▁11:	-11.2261
▁sagar	-11.2263
▁reserves	-11.2266
▁eliminate	-11.227
▁aggressive	-11.2273
▁carrier	-11.2274
▁craft	-11.2277
▁dixit	-11.2278
▁panchkula	-11.2278
▁confirmation	-11.2278
27	-11.2279
▁brown	-11.228
▁cleaning	-11.2285
▁criminals	-11.2286
▁12:	-11.2287
king	-11.2288
board	-11.2289
▁destinations	-11.2289
-16	-11.2292
▁posting	-11.2297
▁lights	-11.2299
chand	-11.2299
▁dravid	-11.2305
▁disputed	-11.2309
▁providers	-11.2313
.45	-11.2314
▁guards	-11.2316
▁reputation	-11.2326
▁accusing	-11.2326
▁tokyo	-11.2326
▁fisheries	-11.2326
▁orissa	-11.2326
▁vaccination	-11.2326
▁pursuing	-11.2326
▁sunrisers	-11.2326
▁trillion	-11.2326
▁bansal	-11.2327
▁apprise	-11.2327
▁irctc	-11.2329
ban	-11.2338
▁stretch	-11.2339
▁solved	-11.2339
▁acharya	-11.2348
▁pensions	-11.2351
▁critically	-11.2352
▁br	-11.2354
cum	-11.2363
▁involve	-11.2363
▁va	-11.2363
▁ascertain	-11.2364
▁finals	-11.2364
▁exemption	-11.237
▁capt	-11.2372
▁booth	-11.2372
▁essay	-11.2372
▁choudhary	-11.2374
▁confusion	-11.2374
▁contributing	-11.2374
▁committing	-11.2374
▁bribe	-11.2376
▁aligarh	-11.2377
▁weekend	-11.2377
▁hailed	-11.2386
▁aids	-11.2391
▁14.	-11.2395
▁singing	-11.2396
▁influenced	-11.2397
▁trans	-11.24
▁openly	-11.2401
ig	-11.2408
american	-11.2408
▁expanding	-11.241
ible	-11.2417
▁mills	-11.2417
▁inspection	-11.2419
▁ethnic	-11.2421
▁civic	-11.2422
▁sengar	-11.2422
▁pilgrimage	-11.2422
▁pensioners	-11.2425
ger	-11.2429
▁sincere	-11.2431
▁commissioners	-11.2433
▁3.5	-11.2434
ug	-11.2435
▁swing	-11.2438
das	-11.2443
▁beach	-11.245
▁nanda	-11.2452
mani	-11.2455
82	-11.2456
▁loyal	-11.2456
▁(3)	-11.2461
bhai	-11.2461
▁developmental	-11.2463
ology	-11.247
▁cummins	-11.247
▁ravichandran	-11.247
▁stunning	-11.247
▁karachi	-11.2471
▁description	-11.2471
▁competent	-11.2471
▁copies	-11.2471
▁kedarnath	-11.2472
▁combine	-11.2474
▁vidya	-11.2478
▁spinner	-11.2478
▁mohit	-11.248
▁artisans	-11.2481
▁repair	-11.2484
▁silk	-11.249
▁agro	-11.2491
▁leh	-11.2491
▁17.	-11.2493
\'	-11.2498
▁garg	-11.2501
▁favor	-11.2501
▁ears	-11.2501
▁gps	-11.2511
hr	-11.2514
-17	-11.2517
▁ambulance	-11.2517
▁usual	-11.2518
▁fi	-11.2519
▁completing	-11.2519
▁hyundai	-11.2519
▁nursing	-11.2519
▁luke	-11.252
▁girlfriend	-11.2521
▁rope	-11.2521
▁lakshmi	-11.2522
64	-11.2522
▁ignored	-11.2529
▁khadi	-11.2533
▁shal	-11.2536
▁logistics	-11.2542
▁crossing	-11.2542
▁poems	-11.2543
pre	-11.2545
▁hiv	-11.2545
shah	-11.255
▁dwell	-11.255
69	-11.2553
▁focusing	-11.2554
▁boxing	-11.2555
▁apologise	-11.2559
▁initiate	-11.2561
▁jag	-11.2561
▁serves	-11.2565
▁technique	-11.2567
▁possibly	-11.2568
▁sehwag	-11.2568
▁queries	-11.2568
▁topic	-11.2569
▁1997	-11.257
▁instruction	-11.257
.75	-11.2571
▁preparedness	-11.2573
barack	-11.2578
▁creates	-11.2582
▁transition	-11.2582
▁classical	-11.2584
▁substance	-11.2585
▁campaigning	-11.2587
▁umar	-11.2588
▁mill	-11.2589
▁bones	-11.2598
▁holiday	-11.2614
▁pharma	-11.2617
▁gi	-11.2617
▁jinping	-11.2618
▁karthik	-11.2618
▁pregnancy	-11.2618
▁triumph	-11.2618
▁stringent	-11.2618
▁christmas	-11.2618
▁containment	-11.2618
▁drew	-11.2619
▁landmark	-11.2619
▁somebody	-11.262
▁tihar	-11.262
▁popularity	-11.2622
▁1980	-11.2624
ought	-11.2626
▁wine	-11.263
rk	-11.2636
▁exceptional	-11.2645
ipl	-11.2649
▁sends	-11.2654
bcci	-11.2656
▁jamia	-11.2663
▁websites	-11.2664
▁indirect	-11.2666
▁superior	-11.2666
▁clinton	-11.2667
▁navratri	-11.2667
▁maulana	-11.2667
▁radical	-11.2668
▁(3	-11.2669
84	-11.2669
▁pet	-11.2674
▁hon	-11.2677
▁hanging	-11.2681
▁jagan	-11.2684
hand	-11.2685
▁sealed	-11.2687
cu	-11.2688
▁madhuri	-11.2688
500	-11.269
▁associates	-11.2693
▁everyday	-11.2702
▁kits	-11.2706
istic	-11.2707
▁abu	-11.2709
▁sdm	-11.2712
▁diamond	-11.2717
▁regret	-11.2717
▁exploration	-11.2717
▁corinthians	-11.2717
▁ghat	-11.2717
▁gurdaspur	-11.2717
▁verification	-11.2718
▁spring	-11.2718
▁kochi	-11.2719
▁turnover	-11.2719
▁persian	-11.2719
▁sawant	-11.272
▁pronounced	-11.2722
▁exclusively	-11.2723
▁jawan	-11.2726
▁singles	-11.273
▁realised	-11.2732
▁remind	-11.2737
▁belonged	-11.2747
ries	-11.2751
pr	-11.2753
▁surrender	-11.2753
▁describe	-11.2767
▁concentration	-11.2767
▁forensic	-11.2767
▁gurdwara	-11.2767
▁tragic	-11.2767
▁sibal	-11.2767
▁hindutva	-11.2768
▁fibre	-11.2768
▁accessible	-11.2768
▁1984	-11.2768
▁dip	-11.2774
▁loc	-11.2776
▁educated	-11.2776
▁manifesto	-11.2777
▁30,	-11.2782
▁tracking	-11.2785
▁fc	-11.2786
▁bo	-11.2788
gam	-11.2791
▁accounting	-11.2794
red	-11.2805
aditya	-11.2806
fer	-11.281
97	-11.281
▁indicate	-11.2815
▁yamuna	-11.2817
▁sydney	-11.2817
▁unbeaten	-11.2817
▁vibrant	-11.2817
▁rejuvenation	-11.2817
▁henry	-11.2817
▁liability	-11.2817
▁cashback	-11.2818
▁bulk	-11.282
▁convinced	-11.2821
gs	-11.2821
ec	-11.2825
▁ranging	-11.2828
tan	-11.2835
▁succeeded	-11.2842
▁physically	-11.2843
▁exception	-11.2844
▁rk	-11.2844
▁tears	-11.2845
▁discussing	-11.2848
▁2009,	-11.2849
54	-11.2849
▁ja	-11.285
▁pioneer	-11.285
singh	-11.2853
▁jay	-11.2855
▁outer	-11.2857
▁elaborate	-11.286
▁decree	-11.2861
▁cong	-11.2865
▁watchtower	-11.2868
▁madhav	-11.2868
▁glorious	-11.2868
▁qatar	-11.2868
▁lunar	-11.2868
▁lease	-11.2869
▁protestors	-11.2869
▁topics	-11.2871
▁quarters	-11.2871
▁listening	-11.2871
▁martyred	-11.2872
▁somewhere	-11.2873
▁mantra	-11.2874
▁ishant	-11.2875
▁helpline	-11.2877
▁subscribers	-11.2878
▁seva	-11.2881
▁delighted	-11.2883
ov	-11.2888
even	-11.2889
▁revenues	-11.289
▁foods	-11.2895
▁selfies	-11.2898
port	-11.2905
election	-11.2905
41	-11.2906
▁regulator	-11.2917
▁perception	-11.2918
▁possibilities	-11.2918
▁naveen	-11.2919
▁romantic	-11.2919
▁whatsoever	-11.2921
▁cd	-11.2923
bs	-11.2925
▁collapsed	-11.2927
▁requests	-11.2929
▁couldn	-11.293
▁commissioned	-11.2931
▁gifts	-11.2933
▁sha	-11.2933
▁ride	-11.2933
▁marine	-11.2934
▁reacting	-11.2936
▁(1%	-11.2938
▁27,	-11.294
▁onwards	-11.2942
▁seal	-11.2945
▁06	-11.2954
mou	-11.296
▁chart	-11.296
▁obvious	-11.2964
47	-11.2965
▁instant	-11.2965
▁ayushman	-11.2968
▁unnao	-11.2969
▁kargil	-11.2969
▁thirty	-11.297
▁wrestling	-11.2971
▁evaluation	-11.2971
▁pujara	-11.2971
▁tariff	-11.2972
▁pharmaceutical	-11.2973
▁weigh	-11.2974
▁southwest	-11.2974
▁hitting	-11.2976
don	-11.2977
▁acknowledged	-11.2978
▁arabian	-11.298
▁payable	-11.2981
▁punished	-11.2986
▁cable	-11.2987
▁adults	-11.2988
▁harvest	-11.2991
▁respects	-11.2993
▁emphasised	-11.2998
aa	-11.3
▁shed	-11.3014
▁license	-11.3015
▁resume	-11.3016
sen	-11.3018
gaon	-11.302
62	-11.3021
▁collaborate	-11.3021
▁pokhriyal	-11.3021
▁nehwal	-11.3021
▁utmost	-11.3021
▁commencement	-11.3021
▁swamy	-11.3023
▁satya	-11.3025
▁patent	-11.3025
▁revive	-11.303
▁rendered	-11.3031
▁mask	-11.3032
▁devil	-11.3033
ye	-11.3036
▁migrants	-11.3037
bra	-11.3037
dhar	-11.3038
taking	-11.304
▁02	-11.3042
ath	-11.3045
▁pushed	-11.3045
shiv	-11.305
▁corn	-11.3051
▁sco	-11.3057
government	-11.3057
▁uphold	-11.3057
▁corporations	-11.3059
however	-11.306
▁missions	-11.3062
▁rejoice	-11.3064
▁cooperate	-11.3065
▁impose	-11.3068
▁marg	-11.3069
▁irrfan	-11.3072
▁surgical	-11.3072
▁testimony	-11.3072
▁microsoft	-11.3072
▁talaq	-11.3072
▁chakraborty	-11.3072
▁deduction	-11.3073
▁slain	-11.3073
▁mobility	-11.3073
▁replacement	-11.3074
▁preventive	-11.3074
▁expecting	-11.3081
▁dhaka	-11.3083
▁19,	-11.3087
▁neet	-11.3088
▁searches	-11.309
▁ncr	-11.3093
▁2013.	-11.3094
▁warriors	-11.3096
▁monitored	-11.3097
▁tons	-11.3098
▁noise	-11.3102
▁separated	-11.3116
▁mela	-11.3116
▁ps	-11.3116
side	-11.3119
▁10:	-11.3124
▁aperture	-11.3124
▁subsidiary	-11.3124
▁generating	-11.3124
▁faridabad	-11.3124
▁forgotten	-11.3124
▁denies	-11.3124
▁switzerland	-11.3125
▁colony	-11.3125
▁affection	-11.3127
▁composition	-11.3128
▁cheque	-11.3128
▁epfo	-11.3128
act	-11.313
▁enacted	-11.3131
▁allowance	-11.3131
▁rhea	-11.3131
▁cuts	-11.3135
▁sal	-11.3135
▁lac	-11.3136
▁140	-11.3144
▁greet	-11.3145
▁threaten	-11.3147
▁riding	-11.3148
▁taxpayers	-11.3152
▁yash	-11.3156
▁tb	-11.3167
▁bhu	-11.3167
▁familiar	-11.3176
▁buttler	-11.3176
▁menace	-11.3176
▁2010-11	-11.3176
▁nephew	-11.3177
▁litigation	-11.3177
▁cheaper	-11.3178
▁subordinate	-11.3181
▁stamp	-11.3181
▁motivated	-11.3182
▁taxation	-11.3185
ls	-11.3187
▁beliefs	-11.3189
work	-11.3189
▁gul	-11.319
▁hopeful	-11.3191
▁gar	-11.3202
mr	-11.3205
muhammad	-11.3216
▁dutta	-11.3216
▁forming	-11.322
ij	-11.3221
▁plenty	-11.3228
▁2013-14	-11.3229
▁104	-11.3229
▁falsehood	-11.3229
▁elsewhere	-11.3229
▁ownership	-11.3229
▁visakhapatnam	-11.3229
▁delivering	-11.3229
91	-11.3231
▁los	-11.3233
▁upsc	-11.3234
▁suggestion	-11.3235
▁dense	-11.3237
▁akash	-11.3237
▁fed	-11.324
▁feb	-11.3241
▁nair	-11.3243
kin	-11.3245
fl	-11.3245
ber	-11.3257
organising	-11.3261
▁anna	-11.3262
▁rejects	-11.3269
▁distinct	-11.3275
▁brilliant	-11.3276
▁eternal	-11.3276
▁firs	-11.3277
▁metropolitan	-11.3281
▁timothy	-11.3281
▁featuring	-11.3281
▁apology	-11.3281
▁publications	-11.3281
▁bahujan	-11.3282
▁felicitated	-11.3284
▁asha	-11.3284
▁patani	-11.3285
org	-11.3285
▁impressed	-11.3287
▁dozen	-11.329
▁inaugurates	-11.3292
ela	-11.3292
▁detected	-11.3292
▁jat	-11.3294
▁violated	-11.33
▁verse	-11.3308
ade	-11.3313
▁sacrifices	-11.3319
▁oh	-11.3331
▁conclude	-11.3333
▁bajwa	-11.3334
▁rajkummar	-11.3334
▁taimur	-11.3334
▁airways	-11.3334
▁amethi	-11.3334
▁stuck	-11.3334
▁judah	-11.3334
▁shopping	-11.3334
▁orange	-11.3335
slated	-11.3336
▁slightly	-11.3337
▁pays	-11.3338
▁sk	-11.3338
▁buyers	-11.334
put	-11.3341
▁enjoying	-11.3346
▁thick	-11.3353
▁ruler	-11.3361
▁proceed	-11.3363
▁char	-11.3373
▁sequence	-11.3387
▁juice	-11.3387
▁slowdown	-11.3387
▁trends	-11.3387
▁morgan	-11.3388
▁srivastava	-11.3388
▁meters	-11.3389
▁likes	-11.3389
▁rampur	-11.339
▁surrounded	-11.339
▁1991	-11.3391
▁cheating	-11.3393
ris	-11.3394
▁comeback	-11.3395
▁finalised	-11.3397
▁prohibited	-11.3397
▁parks	-11.3398
lic	-11.3405
▁moments	-11.3405
▁postal	-11.3406
ron	-11.3407
▁booking	-11.3413
▁lifetime	-11.3415
kal	-11.3415
▁cs	-11.3416
hara	-11.3416
▁deposited	-11.3419
▁reign	-11.3422
▁pur	-11.3426
▁impart	-11.3427
▁harish	-11.3428
friendly	-11.343
ver	-11.3434
▁convict	-11.3434
▁frequent	-11.3436
▁salvation	-11.3441
▁sidelines	-11.3441
▁feat	-11.3441
▁investing	-11.3442
▁ratan	-11.3443
▁harmful	-11.3443
▁discovery	-11.3444
▁kishore	-11.3446
▁youngest	-11.3448
▁nearest	-11.3448
▁analyst	-11.3449
actor	-11.3454
▁cji	-11.3456
▁arch	-11.3461
▁receives	-11.3463
▁pi	-11.3464
▁businessman	-11.3466
▁failing	-11.3467
▁shi	-11.3468
▁granting	-11.3472
hil	-11.3473
▁veer	-11.3473
▁violations	-11.3487
ek	-11.3488
▁tag	-11.3488
▁battalion	-11.3494
▁compulsory	-11.3494
▁doubling	-11.3494
▁jayalalithaa	-11.3494
▁mathematics	-11.3494
▁liberty	-11.3494
▁thrust	-11.3494
▁morcha	-11.3495
▁feedback	-11.3495
▁anderson	-11.3495
▁confined	-11.3496
▁1993	-11.3497
-4	-11.3497
▁misra	-11.3498
▁sponsored	-11.35
▁amrita	-11.3501
▁jayanti	-11.3502
▁09	-11.3502
▁assignment	-11.3503
▁mac	-11.351
▁idol	-11.351
▁swearing	-11.3511
▁lamp	-11.3511
▁em	-11.3514
▁thane	-11.3516
▁fare	-11.3516
▁exceed	-11.3516
▁install	-11.3517
▁feared	-11.3519
pos	-11.3522
▁breath	-11.3523
▁managers	-11.3525
▁pad	-11.3526
▁rolled	-11.3527
▁sundar	-11.3531
harsh	-11.3534
▁rises	-11.3535
september	-11.3536
▁fears	-11.3539
▁disperse	-11.3541
▁quiet	-11.3544
▁tidings	-11.3548
▁kumble	-11.3549
▁consciousness	-11.3549
▁remake	-11.3549
▁carries	-11.355
▁angeles	-11.3551
▁chairmanship	-11.3552
▁lr	-11.3553
rao	-11.3554
▁exporters	-11.3555
ray	-11.3556
▁legislator	-11.3558
▁*	-11.3558
▁bags	-11.3562
rb	-11.3573
non	-11.3574
pc	-11.358
ring	-11.3586
▁panchayati	-11.3588
▁aged	-11.3588
▁ore	-11.359
▁creatures	-11.3592
▁31.	-11.3592
tr	-11.3595
71	-11.3596
▁observations	-11.3598
▁bridges	-11.36
▁compassion	-11.3603
▁taylor	-11.3603
▁dinner	-11.3603
▁detection	-11.3603
▁checking	-11.3604
▁conventional	-11.3606
▁travelled	-11.3609
▁eid	-11.361
▁scholarship	-11.3613
▁musical	-11.3615
pra	-11.3616
▁dan	-11.3617
▁hire	-11.3623
▁incredible	-11.3623
gram	-11.3626
ullah	-11.3629
▁mg	-11.363
▁nationals	-11.3632
▁bold	-11.3634
▁rifles	-11.3636
▁chi	-11.3646
▁marginal	-11.3656
▁pompeo	-11.3657
▁virender	-11.3657
▁cultivation	-11.3658
▁naresh	-11.3658
▁kiara	-11.3658
▁productive	-11.3659
▁deserve	-11.366
▁1950	-11.3661
▁ayushmann	-11.3661
▁americans	-11.3662
▁exalted	-11.3662
▁economically	-11.3664
▁catholic	-11.3667
▁pipeline	-11.3667
▁breast	-11.3668
▁banner	-11.3669
jd	-11.3669
▁objection	-11.3669
05	-11.3671
▁taran	-11.3673
▁obc	-11.3674
ura	-11.3677
▁provisional	-11.3682
63	-11.3683
▁mata	-11.3685
▁"(	-11.3685
▁100%	-11.3687
▁pil	-11.3688
oc	-11.3689
▁gujarati	-11.3693
-5	-11.3697
party	-11.3699
▁reflects	-11.3702
wk	-11.3704
dev	-11.3704
▁heartfelt	-11.3712
▁mittal	-11.3712
▁restoration	-11.3713
▁netaji	-11.3713
▁commodity	-11.3713
▁rajkumar	-11.3714
▁consistently	-11.3719
▁pie	-11.372
▁6,000	-11.3721
▁assumed	-11.3723
gst	-11.3725
▁mathura	-11.3725
▁shreyas	-11.3729
▁disbelieved	-11.373
▁advocates	-11.373
▁bath	-11.373
▁helicopters	-11.3733
▁threatening	-11.3734
▁describ	-11.3734
▁maker	-11.3744
▁talented	-11.3745
▁printed	-11.3745
au	-11.375
res	-11.3753
known	-11.3754
▁sur	-11.3763
▁fabric	-11.3765
▁campaigns	-11.3767
▁anxiety	-11.3768
▁closure	-11.3768
▁venugopal	-11.3768
▁accompany	-11.3768
▁eleven	-11.3768
▁couples	-11.3769
▁query	-11.3769
▁capitals	-11.3769
▁vishal	-11.377
▁flows	-11.3771
▁commented	-11.3771
hari	-11.3774
▁raje	-11.3774
▁masses	-11.3775
▁blasts	-11.3778
▁pgi	-11.3778
▁awaited	-11.3779
▁23,	-11.3779
▁roots	-11.3789
▁nasa	-11.3789
▁construct	-11.3791
▁expo	-11.3792
ery	-11.3796
▁ongc	-11.3796
▁countrymen	-11.3797
ster	-11.3798
adi	-11.3801
▁compound	-11.3806
house	-11.3807
▁2013,	-11.3809
▁vir	-11.3812
june	-11.3812
▁naturally	-11.3813
▁appellate	-11.3823
▁pricing	-11.3823
▁mauritius	-11.3823
▁sewage	-11.3823
▁2012-13	-11.3823
▁rupani	-11.3823
▁7:	-11.3824
▁rajkot	-11.3824
▁iconic	-11.3824
▁ashish	-11.3826
▁devoted	-11.3827
pping	-11.3829
▁deleted	-11.383
▁shinde	-11.3833
▁applicant	-11.3835
▁administrator	-11.3836
para	-11.3839
▁incentives	-11.384
▁applying	-11.3844
▁pillars	-11.3844
▁agri	-11.3849
▁proceeding	-11.3855
04	-11.386
▁oman	-11.3866
▁coupled	-11.3871
series	-11.3878
▁fodder	-11.3879
▁haridwar	-11.3879
▁villiers	-11.3879
▁kochhar	-11.3879
▁disability	-11.3879
▁baroda	-11.388
▁aiadmk	-11.388
▁impression	-11.388
▁barrel	-11.388
▁proportion	-11.3881
▁baseless	-11.3883
▁publishing	-11.3887
about	-11.389
▁wire	-11.3891
▁hebrew	-11.3892
▁lawful	-11.3894
▁realized	-11.39
can	-11.3906
mail	-11.3912
▁appointments	-11.3915
val	-11.3924
▁hardly	-11.3927
▁tasks	-11.3928
▁swift	-11.393
▁stick	-11.3933
▁ransom	-11.3935
▁sorry	-11.3935
▁interfere	-11.3935
▁circulation	-11.3935
▁casualty	-11.3935
▁accommodation	-11.3935
▁16-	-11.3935
▁laxman	-11.3935
▁revival	-11.3936
▁dubey	-11.3937
▁translated	-11.3938
such	-11.3939
gan	-11.394
▁derived	-11.3942
var	-11.3943
▁column	-11.3945
▁(5	-11.3945
▁attempted	-11.3948
▁pit	-11.395
march	-11.3952
▁pok	-11.3953
▁flowing	-11.3953
.11	-11.3955
▁essentially	-11.3963
▁spiritually	-11.3964
▁violate	-11.3965
▁ios	-11.397
ck	-11.3972
▁scores	-11.3974
23	-11.3976
▁subjected	-11.3978
www	-11.398
▁printing	-11.3981
▁attacking	-11.3982
▁sung	-11.3983
▁sporting	-11.3983
bhp	-11.3983
▁accuse	-11.3988
▁10%	-11.3988
▁jyoti	-11.3988
▁politically	-11.3989
▁musa	-11.3992
▁wrath	-11.3992
▁suspicion	-11.3992
▁moscow	-11.3992
▁bhat	-11.3993
▁elevated	-11.3994
▁19.	-11.3995
▁procured	-11.3997
▁unlikely	-11.3998
during	-11.4
aka	-11.4
▁virtually	-11.4001
▁mild	-11.4001
▁publicly	-11.4003
▁liked	-11.4006
▁obligation	-11.4006
▁pixel	-11.4007
▁toilet	-11.4009
▁deliberations	-11.401
▁mate	-11.4012
een	-11.4015
▁defending	-11.4017
anand	-11.402
form	-11.4028
▁emotions	-11.4034
▁applicants	-11.4036
external	-11.4036
▁qur	-11.4037
▁occurs	-11.4037
▁hans	-11.4044
▁upgrade	-11.4045
▁nav	-11.4048
▁weakness	-11.4048
▁declaring	-11.4049
▁ntpc	-11.4049
▁acute	-11.4049
▁shilpa	-11.4049
▁salaries	-11.4049
▁allotment	-11.4049
▁authorised	-11.4051
▁dating	-11.4052
cy	-11.4053
▁clusters	-11.4055
▁donated	-11.4058
▁disrupted	-11.4058
▁108	-11.4064
rang	-11.4071
▁sustain	-11.4072
▁nov	-11.4075
▁ve	-11.4076
▁label	-11.4076
▁ra	-11.4079
▁handled	-11.4086
02	-11.409
▁fate	-11.4091
sad	-11.4093
▁sail	-11.4093
▁curse	-11.41
▁apparent	-11.4101
▁babylon	-11.4104
▁starc	-11.4105
▁scenes	-11.4106
▁funeral	-11.4106
▁juvenile	-11.4106
▁holistic	-11.4106
ure	-11.4106
▁himalayan	-11.4108
▁theyre	-11.4108
▁medallist	-11.4109
▁vivekananda	-11.4111
▁tcs	-11.4115
qui	-11.4115
▁theatres	-11.4116
▁meter	-11.4121
▁switch	-11.4129
2019	-11.4129
▁taj	-11.4132
▁imam	-11.4133
mt	-11.414
▁shame	-11.4142
▁wars	-11.4149
79	-11.4151
▁navigation	-11.4163
▁chautala	-11.4163
▁unseen	-11.4163
▁asaduddin	-11.4163
▁ceiling	-11.4163
▁turkish	-11.4163
▁shoaib	-11.4163
▁automatically	-11.4164
▁bhubaneswar	-11.4164
▁gayle	-11.4164
▁kiren	-11.4164
▁projected	-11.4165
▁kotak	-11.4165
▁confessed	-11.4168
▁hinduism	-11.4169
▁southeast	-11.417
▁commemorate	-11.4171
▁controlling	-11.4172
▁colin	-11.4173
▁senate	-11.4173
▁merchant	-11.4179
▁ju	-11.418
▁fleet	-11.4182
▁je	-11.4191
ney	-11.4192
▁sony	-11.4193
▁vis	-11.4198
▁collections	-11.4199
▁inaugurat	-11.4199
▁saha	-11.4202
▁rush	-11.4212
ore	-11.4213
▁mechanical	-11.4218
▁disclose	-11.4219
▁chandrachud	-11.4221
▁facilitating	-11.4221
▁vacation	-11.4221
▁virbhadra	-11.4221
▁conscience	-11.4221
▁zafar	-11.4221
▁2022.	-11.4221
▁structural	-11.4221
▁supervision	-11.4221
▁registrar	-11.4221
▁webinar	-11.4222
▁adventure	-11.4222
▁elect	-11.4222
▁revolutionary	-11.4223
▁biden	-11.4224
▁affiliated	-11.4225
▁husbandry	-11.4226
▁sebi	-11.4226
▁deity	-11.4228
▁string	-11.4228
▁vaccines	-11.423
▁gust	-11.4231
▁commits	-11.4233
▁affecting	-11.4236
rate	-11.4239
▁pics	-11.4257
▁oct	-11.4257
▁satellites	-11.426
▁employ	-11.4262
nia	-11.4262
▁deb	-11.4264
.35	-11.4266
_	-11.4267
▁ignore	-11.4267
▁bash	-11.4269
ama	-11.4274
bb	-11.4277
aap	-11.4277
.12	-11.4278
ajinkya	-11.4279
▁glenn	-11.4279
▁berlin	-11.4279
▁incurred	-11.4279
▁rathore	-11.4279
▁sukhbir	-11.4279
▁organizing	-11.4279
▁chavan	-11.4279
▁physics	-11.428
▁rulers	-11.428
▁pathankot	-11.428
▁1995	-11.4282
▁recharge	-11.4284
▁csk	-11.4286
▁provident	-11.4286
retd	-11.4287
hat	-11.4288
▁breathing	-11.4299
rt	-11.4303
kan	-11.4304
▁29,	-11.4305
▁crashed	-11.4307
▁worthy	-11.431
▁iv	-11.4324
▁115	-11.4328
▁slams	-11.4329
▁jas	-11.4336
▁choksi	-11.4338
▁prophecy	-11.4338
▁pragya	-11.4338
▁chawla	-11.4338
▁mortality	-11.4338
▁krishan	-11.434
▁mon	-11.4341
▁exercises	-11.4342
▁124	-11.4343
▁bedi	-11.4343
▁icon	-11.4347
▁decrease	-11.4348
▁wronged	-11.4352
gal	-11.4353
▁formally	-11.4354
▁18,	-11.4356
▁shadow	-11.4356
▁implications	-11.4363
▁nc	-11.4364
puri	-11.4364
▁insult	-11.4365
▁writ	-11.4367
▁05	-11.4367
▁contacts	-11.4374
point	-11.4376
▁fails	-11.4377
cost	-11.438
cbi	-11.438
▁haven	-11.4382
bit	-11.4382
▁analysts	-11.4388
▁awake	-11.4389
▁decisive	-11.4392
▁bush	-11.4394
ny	-11.4396
▁capacities	-11.4396
▁haasan	-11.4396
▁immigration	-11.4396
▁inconvenience	-11.4396
▁utilization	-11.4396
▁indigo	-11.4396
▁prejudice	-11.4396
▁trapped	-11.4396
▁stern	-11.4396
▁quoting	-11.4398
▁chopped	-11.4398
▁neha	-11.4398
▁1961	-11.4398
▁abvp	-11.4398
▁ugc	-11.4402
rat	-11.4404
▁incorporated	-11.4404
life	-11.4405
▁inhabitants	-11.4406
▁thinks	-11.4406
▁demonstrated	-11.4407
▁var	-11.4409
▁scholar	-11.441
▁wards	-11.4413
ping	-11.4413
▁hardship	-11.4417
▁publicity	-11.4419
▁shell	-11.4421
▁kit	-11.4422
▁wa	-11.4422
▁lesser	-11.4427
▁republican	-11.4428
▁shareholders	-11.4428
scale	-11.443
▁repo	-11.4438
▁wasn	-11.4441
▁excessive	-11.4451
angle	-11.4452
▁trail	-11.4453
▁luck	-11.4455
▁horticulture	-11.4456
▁observing	-11.4456
▁musharraf	-11.4456
▁kharif	-11.4456
▁nawazuddin	-11.4456
▁tahir	-11.4458
▁entrusted	-11.4459
▁elite	-11.4459
▁epic	-11.4462
▁ur	-11.4463
▁awaiting	-11.4465
▁refund	-11.4466
▁ss	-11.4468
vir	-11.4468
▁trusted	-11.4469
▁wider	-11.447
caa	-11.4471
finals	-11.4471
▁5000	-11.4472
▁mentally	-11.4472
▁nurses	-11.4473
▁levelled	-11.4474
▁losers	-11.4475
▁sham	-11.4483
gra	-11.4485
tor	-11.4485
▁lighting	-11.4487
both	-11.4489
med	-11.449
▁mahal	-11.45
▁enters	-11.4502
▁computers	-11.4507
61	-11.4509
▁endure	-11.451
▁evms	-11.4512
▁jordan	-11.4513
▁shield	-11.4515
▁soviet	-11.4515
▁modified	-11.4515
▁prepaid	-11.4515
▁stuff	-11.4515
▁muzaffarpur	-11.4515
▁prosperous	-11.4516
their	-11.4516
▁condoled	-11.4516
▁keshav	-11.4516
▁mayank	-11.4517
▁trs	-11.4518
▁manpower	-11.4518
▁hail	-11.4519
▁30,000	-11.4521
▁comprised	-11.4522
▁orbit	-11.4526
▁manu	-11.4527
▁violat	-11.4528
sur	-11.4529
▁prevented	-11.4535
▁formulation	-11.4536
▁03	-11.4552
▁kam	-11.4552
▁guys	-11.4552
have	-11.4553
citation	-11.456
▁hebrews	-11.4561
▁recompense	-11.4567
▁facilitation	-11.4575
▁immunity	-11.4575
▁sorrow	-11.4575
▁threw	-11.4575
▁rubber	-11.4575
▁chipset	-11.4575
▁kharge	-11.4575
▁pleasant	-11.4575
▁spike	-11.4576
▁ashutosh	-11.4576
▁tolerance	-11.4576
▁magnitude	-11.4576
▁grey	-11.4577
▁partnerships	-11.4577
▁outreach	-11.4577
▁1994	-11.4577
▁kaul	-11.4582
▁1989	-11.4582
▁framed	-11.4589
▁dia	-11.459
▁tu	-11.4591
▁coordinated	-11.4593
▁tense	-11.4595
▁demonstration	-11.4596
▁dividend	-11.4597
▁wings	-11.4598
▁hospitality	-11.4598
▁civilization	-11.4599
bal	-11.4612
52	-11.4621
bl	-11.4622
▁borne	-11.4624
▁vp	-11.4625
▁fm	-11.4629
eg	-11.463
▁spare	-11.463
▁enormous	-11.4635
▁gesture	-11.4635
▁melbourne	-11.4635
▁quantum	-11.4635
▁smoking	-11.4635
▁solidarity	-11.4635
▁sugarcane	-11.4635
▁pursuit	-11.4635
▁suhana	-11.4635
▁expelled	-11.4636
▁andrew	-11.4636
▁unlawful	-11.4636
▁wales	-11.4636
▁amend	-11.4636
▁deepen	-11.4639
▁25,000	-11.4639
▁ce	-11.4641
very	-11.4642
▁15,000	-11.4642
▁lone	-11.4644
▁outlay	-11.4646
▁strain	-11.4646
▁ear	-11.4648
▁define	-11.4649
▁differently	-11.465
▁21,	-11.4653
▁karnal	-11.4653
▁signature	-11.4656
▁finger	-11.4657
▁sword	-11.4658
▁ri	-11.4661
ker	-11.4672
bh	-11.4673
▁urges	-11.4677
▁sl	-11.4678
ep	-11.4678
▁bai	-11.4678
▁truthful	-11.4678
▁casting	-11.4679
ular	-11.468
▁proclaim	-11.4681
▁boycott	-11.4683
▁organise	-11.4684
▁fold	-11.4686
set	-11.4691
▁commanding	-11.4692
▁disc	-11.4692
▁formats	-11.4692
▁territorial	-11.4696
▁hafiz	-11.4696
▁buried	-11.4696
▁gearbox	-11.4696
▁copper	-11.4696
▁factories	-11.4697
▁gavaskar	-11.4697
▁evacuated	-11.4698
▁intensive	-11.4698
▁proposes	-11.4698
▁disabled	-11.4699
▁landed	-11.4699
▁mono	-11.47
▁favourable	-11.47
▁haj	-11.47
two	-11.4702
▁inch	-11.4702
pti	-11.4704
more	-11.4706
▁adil	-11.4706
▁leaked	-11.4706
▁longest	-11.4713
▁sukh	-11.4717
▁colleague	-11.4718
▁prabhas	-11.4727
qua	-11.4736
▁2012,	-11.4738
,900	-11.474
▁forwarded	-11.4742
▁latin	-11.4746
▁instances	-11.4748
▁ip	-11.4749
▁cease	-11.4749
▁afridi	-11.4757
▁indices	-11.4757
▁reliable	-11.4757
▁amenities	-11.4757
▁fifa	-11.4757
▁quintal	-11.4757
▁doers	-11.4758
▁stir	-11.4758
▁labor	-11.4759
▁=	-11.4762
▁metric	-11.4762
▁maurya	-11.4762
-21	-11.4762
ct	-11.4765
wala	-11.4768
▁somewhat	-11.4776
▁husbands	-11.4779
.05	-11.4779
▁112	-11.478
▁hostel	-11.4782
▁guy	-11.4785
▁hunt	-11.4787
mark	-11.4788
▁streaming	-11.4789
light	-11.4796
▁benefited	-11.4796
win	-11.4797
▁bir	-11.4799
▁swear	-11.4801
▁che	-11.4801
▁tam	-11.4803
▁delete	-11.481
▁profound	-11.4814
▁missiles	-11.4815
▁govind	-11.4818
▁saffron	-11.4818
▁pednekar	-11.4818
▁zonal	-11.4818
▁convocation	-11.4819
▁loose	-11.4819
▁saddened	-11.4819
▁1947	-11.482
▁baptized	-11.482
▁recoveries	-11.482
▁puts	-11.4822
▁romans	-11.4822
▁searched	-11.4824
▁hu	-11.4825
▁policeman	-11.4826
▁raping	-11.4829
vo	-11.483
▁josh	-11.4833
▁approaches	-11.4833
▁reminded	-11.4836
▁catering	-11.4836
▁narmada	-11.4842
▁rifle	-11.4842
▁operator	-11.4842
▁cancel	-11.4843
▁serial	-11.4846
▁ngos	-11.4848
pet	-11.4855
rr	-11.4856
▁thin	-11.4863
▁repent	-11.4865
screen	-11.4867
▁occupation	-11.4868
▁eclipse	-11.488
▁mirror	-11.488
▁sanctuary	-11.488
▁engaging	-11.488
▁utility	-11.488
▁aaryan	-11.488
▁removing	-11.488
▁za	-11.488
▁charity	-11.4881
▁vigyan	-11.4881
▁describes	-11.4881
▁nose	-11.4883
▁cwc	-11.4884
▁comply	-11.4884
▁magnetic	-11.4884
▁meena	-11.4886
▁vain	-11.4888
▁ace	-11.4889
▁saul	-11.4889
▁locality	-11.4892
▁24,	-11.4895
▁kkr	-11.4895
▁prefer	-11.4896
ified	-11.4897
▁26,	-11.4898
▁beside	-11.4902
yal	-11.4903
▁installation	-11.4905
▁hp	-11.491
▁fix	-11.4911
▁safely	-11.4913
▁processed	-11.4915
▁transit	-11.492
cho	-11.4922
eer	-11.4928
▁accelerate	-11.4934
▁ppp	-11.4936
▁posters	-11.4936
ned	-11.4937
▁geographical	-11.4938
▁incumbent	-11.4942
▁stomach	-11.4942
▁abrogation	-11.4942
▁ninth	-11.4942
▁mainstream	-11.4942
▁paytm	-11.4943
▁expandable	-11.4945
▁bandra	-11.4946
tion	-11.4948
▁substantially	-11.4951
▁uploaded	-11.4951
▁misleading	-11.4956
hy	-11.4965
▁variable	-11.4967
▁widow	-11.4968
▁relates	-11.4972
▁vendors	-11.4981
▁bars	-11.4988
des	-11.4991
▁euro	-11.4992
▁raid	-11.4992
spinner	-11.4992
november	-11.4992
▁deliberate	-11.4992
sbi	-11.4993
its	-11.4994
▁ul	-11.4999
▁checked	-11.5001
▁multilateral	-11.5004
▁ti	-11.5004
iruvananthapuram	-11.5004
▁radhika	-11.5004
▁dengue	-11.5004
▁applies	-11.5005
▁yeddyurappa	-11.5005
▁hardware	-11.5005
▁nirbhaya	-11.5005
▁classification	-11.5006
▁tara	-11.5009
▁hoping	-11.501
▁2012.	-11.501
ons	-11.5013
cm	-11.5015
▁chakra	-11.5019
than	-11.5021
▁virtue	-11.503
mis	-11.5031
▁studio	-11.5031
▁client	-11.5031
▁pic	-11.5033
▁scrap	-11.5033
▁nag	-11.5034
ification	-11.5036
▁onions	-11.504
▁unusual	-11.5041
▁nationalism	-11.5044
▁kalam	-11.5046
▁linking	-11.505
▁caution	-11.5054
▁04	-11.5054
▁bone	-11.506
▁bacteria	-11.5066
▁filmfare	-11.5067
▁manjrekar	-11.5067
▁negligence	-11.5067
▁irregularities	-11.5067
▁sweden	-11.5068
▁1986	-11.507
▁lmt	-11.507
▁cc	-11.5071
▁clouds	-11.5075
ser	-11.5076
▁settings	-11.5078
▁cloth	-11.5079
well	-11.508
▁volumes	-11.5083
arm	-11.5084
▁outcomes	-11.5085
▁movements	-11.5086
ile	-11.5087
og	-11.5088
▁alternate	-11.5089
▁william	-11.5095
ow	-11.5098
dan	-11.51
▁doubts	-11.5103
▁detect	-11.5109
▁tier	-11.5116
gh	-11.5122
▁bereaved	-11.5131
▁almighty	-11.5131
bel	-11.5133
▁acceptance	-11.5134
▁earning	-11.5134
▁spite	-11.5136
oon	-11.5136
▁pursued	-11.5144
▁cows	-11.515
▁rabi	-11.5154
head	-11.5154
▁unions	-11.5154
nan	-11.5158
▁immigrants	-11.5158
▁assaulted	-11.5168
laughter	-11.5177
▁consult	-11.5182
▁organize	-11.5186
▁bounty	-11.5194
▁lyrics	-11.5194
▁provincial	-11.5194
▁sedition	-11.5194
▁garbage	-11.5194
▁scalp	-11.5194
▁introducing	-11.5195
▁jahan	-11.5196
▁anantapur	-11.5197
▁classified	-11.5198
▁spanish	-11.5199
▁sanju	-11.5199
▁shane	-11.5201
▁organ	-11.5203
▁pose	-11.5204
▁tribunals	-11.5206
▁isis	-11.5208
lay	-11.521
▁brands	-11.5212
▁comprise	-11.5216
▁eggs	-11.5219
▁uday	-11.522
yl	-11.5224
▁corp	-11.5226
▁cruise	-11.5236
▁lion	-11.5237
▁react	-11.5238
▁sana	-11.5239
▁bha	-11.524
▁fishing	-11.5244
▁hang	-11.5247
.65	-11.5247
ula	-11.525
ven	-11.5251
ably	-11.5255
▁hygiene	-11.5258
▁maturity	-11.5258
▁paramilitary	-11.5259
▁abode	-11.5259
▁altogether	-11.5259
▁subramanian	-11.5259
▁maxwell	-11.5259
▁tandon	-11.5259
▁2009-10	-11.5259
▁solicitor	-11.5259
▁departure	-11.5259
▁mira	-11.526
▁bathinda	-11.526
▁eagerly	-11.5262
▁enhancement	-11.5263
▁bc	-11.5263
▁leone	-11.5264
▁unite	-11.5274
▁14:	-11.5275
▁cum	-11.5276
▁voices	-11.5277
▁companions	-11.528
▁mutually	-11.5281
▁probed	-11.5281
lin	-11.5283
gone	-11.5284
▁walks	-11.5284
▁hosting	-11.5287
▁disorder	-11.5288
▁emissions	-11.529
▁16.	-11.5298
▁cab	-11.5299
▁00	-11.53
▁bali	-11.5302
▁hasten	-11.5304
eastern	-11.5305
yam	-11.5307
▁uri	-11.5315
▁tube	-11.532
▁aggarwal	-11.5323
▁jhansi	-11.5323
▁karisma	-11.5323
▁samuel	-11.5323
▁interference	-11.5323
▁jacqueline	-11.5323
▁gaurav	-11.5323
▁fantastic	-11.5324
▁poonam	-11.5324
▁armies	-11.5324
▁ekta	-11.5324
▁nsg	-11.5327
▁upgradation	-11.5327
▁workshops	-11.5328
▁tar	-11.5328
▁speakers	-11.5329
▁mha	-11.5334
▁departed	-11.5334
▁donate	-11.5336
▁execute	-11.5336
▁expects	-11.5341
▁sexually	-11.5349
▁kom	-11.535
lia	-11.5353
▁wrestler	-11.5353
▁vijaya	-11.5355
ff	-11.5366
▁halt	-11.5367
▁kat	-11.5367
▁pump	-11.5368
▁foster	-11.5369
▁diploma	-11.5373
south	-11.5375
▁repeal	-11.5375
▁ranji	-11.5381
▁sr	-11.5387
▁outrage	-11.5388
▁assemblies	-11.5388
▁jubilee	-11.5388
▁khurrana	-11.5388
▁majesty	-11.5388
▁struggling	-11.5388
▁cancellation	-11.5388
▁grass	-11.5388
▁robbery	-11.5388
▁steady	-11.5389
▁trafficking	-11.5389
▁redressal	-11.5389
▁1956	-11.539
▁therapy	-11.5391
▁photography	-11.5395
▁2030	-11.5396
versus	-11.5397
▁login	-11.5398
band	-11.54
▁ek	-11.5401
▁nano	-11.5404
▁jumped	-11.5407
.14	-11.5408
ef	-11.5409
▁sonu	-11.5412
▁slaves	-11.5413
born	-11.5422
▁sang	-11.5425
▁dm	-11.5428
▁2011.	-11.5429
▁dd	-11.5429
dhan	-11.5436
▁fours	-11.5437
▁vij	-11.5438
▁classic	-11.544
▁cyclon	-11.5451
▁atrocities	-11.5453
▁befitting	-11.5453
▁dikshit	-11.5453
▁emperor	-11.5453
▁leather	-11.5453
▁refrain	-11.5453
▁statistical	-11.5453
▁ukraine	-11.5453
▁landscape	-11.5453
▁pramod	-11.5453
▁samiti	-11.5453
▁bobby	-11.5454
▁inheritance	-11.5454
▁jackie	-11.5454
▁103	-11.5455
▁bidding	-11.5455
▁levied	-11.5457
▁drowned	-11.5463
▁ranjit	-11.5463
midst	-11.547
▁trigger	-11.5471
sat	-11.5472
▁kick	-11.5477
▁tanks	-11.5482
▁sentiment	-11.5486
▁container	-11.5494
▁lovely	-11.5496
▁atul	-11.5502
▁obligations	-11.5503
▁designer	-11.5503
affected	-11.5505
▁afterwards	-11.5505
▁streams	-11.5508
▁hails	-11.5517
▁northwest	-11.5518
▁advertising	-11.5519
▁sudhir	-11.5519
▁intermediate	-11.5519
▁mood	-11.5519
▁jayant	-11.5519
▁ages	-11.5519
▁exploitation	-11.552
▁cellular	-11.552
▁announcing	-11.552
.85	-11.552
▁hybrid	-11.552
▁goswami	-11.5521
▁captaincy	-11.5521
▁liable	-11.5521
city	-11.5521
▁burst	-11.5522
▁deprived	-11.5522
▁2010.	-11.5523
fr	-11.5525
▁interactions	-11.553
▁07	-11.5532
▁ross	-11.5537
matic	-11.5538
▁restaurants	-11.5539
▁meaningful	-11.5539
sit	-11.5545
▁wasim	-11.5546
▁surfaced	-11.5551
▁advertisement	-11.5552
▁grievance	-11.5552
any	-11.5553
your	-11.5558
▁motorcycles	-11.5561
▁treating	-11.5564
tur	-11.5566
▁ash	-11.557
largest	-11.5573
water	-11.5573
▁filling	-11.5577
terrorism	-11.5578
nation	-11.5579
▁founding	-11.558
▁min	-11.5584
▁lasting	-11.5585
▁savarkar	-11.5585
▁steadfast	-11.5585
▁stuart	-11.5585
▁scandal	-11.5585
▁verify	-11.5585
▁bhattacharya	-11.5585
▁zimbabwe	-11.5586
▁unaware	-11.5586
▁consequently	-11.5587
fold	-11.5588
▁consolidated	-11.5588
▁attributed	-11.5589
▁thoroughly	-11.559
▁gazette	-11.5592
▁arya	-11.5593
ben	-11.5598
home	-11.5598
▁paintings	-11.5599
▁rawal	-11.5602
▁oral	-11.5603
▁felicitations	-11.5604
▁hiked	-11.5607
▁shyam	-11.5615
▁23.	-11.5618
▁filter	-11.562
▁emission	-11.5621
covid	-11.564
▁misuse	-11.5645
those	-11.5648
bed	-11.5649
▁immune	-11.5652
▁surplus	-11.5652
▁varied	-11.5652
▁flagged	-11.5652
▁meerut	-11.5655
▁underground	-11.5656
▁pairs	-11.5658
▁jyotir	-11.5658
▁gita	-11.5659
▁bhim	-11.5661
ched	-11.5664
ila	-11.5669
mor	-11.567
imd	-11.567
▁rendering	-11.567
▁cater	-11.5671
▁trap	-11.5676
▁bharati	-11.5685
▁constituent	-11.5686
▁scooter	-11.5686
▁sounds	-11.5686
▁mrs	-11.5687
▁poem	-11.5687
▁employer	-11.569
je	-11.5694
▁ngo	-11.5697
far	-11.57
▁wellness	-11.5701
▁ncc	-11.5701
▁2021.	-11.5702
▁kashmiris	-11.5706
ties	-11.5709
▁thorough	-11.5714
▁bitter	-11.5715
▁rough	-11.5715
▁13-	-11.5715
▁preach	-11.5716
▁crystal	-11.5718
▁curriculum	-11.5719
▁remembrance	-11.5719
▁suspicious	-11.5719
▁waqf	-11.5719
▁rajouri	-11.5719
▁ajmer	-11.5719
▁liberation	-11.5719
▁biotechnology	-11.5719
▁diljit	-11.5719
▁irrespective	-11.5719
▁sandhu	-11.5721
▁te	-11.5721
▁workforce	-11.5722
▁coaching	-11.5723
▁cng	-11.5723
▁yemen	-11.5724
▁honourable	-11.5725
▁clubs	-11.5729
▁vat	-11.5734
▁neighbour	-11.5736
▁draws	-11.5738
▁phd	-11.5739
▁ku	-11.5739
▁dcp	-11.574
▁ideals	-11.5742
.18	-11.5742
bc	-11.5743
▁icu	-11.5744
▁attracted	-11.575
gm	-11.5753
▁warrior	-11.5755
▁enables	-11.5756
yu	-11.5757
▁render	-11.5757
▁obtaining	-11.5757
▁hassan	-11.5759
asked	-11.5762
▁atm	-11.5764
▁audiences	-11.5766
▁slot	-11.5767
▁bur	-11.5769
▁mentor	-11.5772
▁advantages	-11.5774
▁pitt	-11.5775
▁waves	-11.5778
▁oberoi	-11.5787
▁velocity	-11.5787
▁dancing	-11.5787
▁bopanna	-11.5787
▁kabul	-11.5787
▁disclosure	-11.5788
▁1971	-11.5789
urban	-11.5791
▁frontline	-11.5792
▁quake	-11.5792
▁145	-11.5796
▁sanjiv	-11.5798
▁mig	-11.5798
▁lg	-11.5798
▁forty	-11.5807
▁sood	-11.581
▁cure	-11.5816
▁prompt	-11.5818
▁decides	-11.582
▁kid	-11.5821
▁genetic	-11.5823
▁mechanisms	-11.5826
▁chander	-11.5827
▁liver	-11.5831
ees	-11.5835
▁18.	-11.5835
▁dancer	-11.5835
former	-11.5838
▁taluk	-11.584
▁developers	-11.5846
▁tabu	-11.5847
▁patrol	-11.5854
▁aurangabad	-11.5855
▁kajol	-11.5855
▁merkel	-11.5855
▁sustenance	-11.5855
▁varieties	-11.5855
▁taiwan	-11.5855
▁adarsh	-11.5855
▁harry	-11.5856
▁rajinder	-11.5857
▁stance	-11.5857
▁marking	-11.5858
ira	-11.5859
▁urea	-11.586
▁upheld	-11.5861
▁partial	-11.5863
▁informal	-11.5867
*	-11.5869
▁sher	-11.5869
other	-11.5874
fe	-11.5877
▁nu	-11.5882
▁argue	-11.5884
▁fulfilling	-11.5887
hl	-11.5889
▁tips	-11.589
▁motive	-11.5893
▁rocket	-11.5896
ture	-11.5905
▁ob	-11.5906
▁utter	-11.5908
▁donation	-11.591
chancellor	-11.5911
anna	-11.5915
eu	-11.5917
▁exhort	-11.5922
▁scrutiny	-11.5923
▁tejashwi	-11.5923
▁anchor	-11.5923
▁marcus	-11.5924
▁frequency	-11.5924
▁unesco	-11.5924
▁1-0	-11.5924
▁lyon	-11.5925
▁maa	-11.5925
▁cameron	-11.5927
▁erupted	-11.5927
▁crafts	-11.5928
▁upgraded	-11.5932
appa	-11.5933
▁prospects	-11.5933
▁cor	-11.5934
▁woe	-11.5935
▁poly	-11.5937
▁lovers	-11.5941
▁shu	-11.5942
▁traveling	-11.5942
▁onto	-11.5943
▁hospitalised	-11.5944
mit	-11.5949
.55	-11.5952
▁avoided	-11.5957
▁ril	-11.5959
▁6-	-11.596
▁9:	-11.5961
▁infant	-11.5962
sam	-11.5962
▁5%	-11.5963
▁boats	-11.5963
▁extends	-11.5968
▁designs	-11.5972
▁discover	-11.5976
pacific	-11.598
december	-11.598
uc	-11.5981
puram	-11.5982
hour	-11.5984
▁seize	-11.5985
chairman	-11.5986
▁302	-11.5986
▁interacting	-11.5986
dom	-11.5988
▁1,500	-11.5991
▁composite	-11.5992
▁intensified	-11.5992
▁kanhaiya	-11.5992
▁luxury	-11.5992
▁narrative	-11.5992
reliant	-11.5992
▁respite	-11.5992
▁siddaramaiah	-11.5992
▁livestock	-11.5992
▁cried	-11.5993
▁repentance	-11.5993
▁coconut	-11.5993
▁ballot	-11.5993
▁sakshi	-11.5994
▁aug	-11.5994
▁blaze	-11.5995
▁enrolled	-11.5996
▁cultures	-11.5996
▁pg	-11.6
▁overnight	-11.6004
▁guess	-11.6004
▁shirt	-11.6005
▁ny	-11.6006
▁peacefully	-11.601
▁kr	-11.6013
▁deeper	-11.6013
▁512	-11.6019
▁stored	-11.6022
▁pauls	-11.6025
▁employers	-11.6027
▁outlets	-11.6027
▁aggregate	-11.6028
▁plunge	-11.6031
▁speculation	-11.6031
▁slogan	-11.6032
▁surendra	-11.6033
rich	-11.6036
▁shooter	-11.6039
▁shells	-11.604
min	-11.6043
▁siva	-11.6044
▁107	-11.6045
▁conceal	-11.6048
origin	-11.6049
october	-11.6049
founder	-11.605
asi	-11.605
called	-11.6053
▁typical	-11.6058
mas	-11.6059
order	-11.6061
▁convenience	-11.6062
▁nervous	-11.6062
▁striking	-11.6062
▁refinery	-11.6062
▁exemplary	-11.6062
▁ravinder	-11.6062
▁functionaries	-11.6062
▁dealers	-11.6062
▁medicinal	-11.6062
▁lashkar	-11.6063
▁darshan	-11.6064
lam	-11.6064
▁penned	-11.6065
▁uma	-11.6066
▁diverted	-11.6069
gp	-11.6069
▁restraint	-11.607
▁decreased	-11.6071
▁bore	-11.6071
▁vide	-11.6073
shu	-11.6079
winning	-11.6081
▁madhu	-11.6082
erial	-11.6084
graph	-11.6086
▁114	-11.6088
▁habits	-11.6089
▁fairly	-11.6092
▁demonstrate	-11.6097
bank	-11.6098
nda	-11.61
▁plate	-11.6103
elections	-11.6105
▁feeding	-11.6108
▁summons	-11.611
▁intra	-11.612
▁cb	-11.6126
▁slip	-11.6127
night	-11.6128
▁bairstow	-11.6131
▁cantonment	-11.6131
▁influential	-11.6131
▁poonch	-11.6131
▁ahuja	-11.6132
▁persecution	-11.6132
▁watched	-11.6132
▁jute	-11.6132
▁manchester	-11.6132
▁roadmap	-11.6132
▁chemistry	-11.6133
gl	-11.6134
▁unanimously	-11.6134
▁deities	-11.6134
▁teeth	-11.6134
▁optical	-11.6135
▁shivpal	-11.6135
▁chains	-11.6137
▁identifying	-11.6139
▁differ	-11.614
▁bids	-11.6141
▁ge	-11.6144
▁protested	-11.6144
▁chartered	-11.6144
eb	-11.6145
▁commuters	-11.6148
▁lic	-11.6152
▁ysr	-11.6159
▁cag	-11.6161
▁ashes	-11.6165
today	-11.6166
ok	-11.6168
▁procession	-11.6172
▁rumour	-11.6173
▁guns	-11.6176
▁tall	-11.6176
[	-11.6177
▁indicators	-11.6179
▁subhas	-11.618
▁proven	-11.6181
▁flags	-11.6187
▁rivals	-11.6187
▁stray	-11.619
▁175	-11.6193
▁monuments	-11.6197
▁fierce	-11.6197
.39	-11.6198
▁capita	-11.6201
▁arriving	-11.6202
▁calamity	-11.6202
▁harbour	-11.6202
▁illicit	-11.6202
▁lunch	-11.6202
▁zeal	-11.6202
▁balbir	-11.6202
▁inmates	-11.6204
▁untoward	-11.6204
.01	-11.6204
▁(4	-11.6204
▁calculated	-11.6206
tv	-11.6206
▁successive	-11.6207
▁convened	-11.6207
▁sch	-11.6209
▁yo	-11.6209
▁inducted	-11.6209
▁divisions	-11.6212
anti	-11.6213
▁accomplished	-11.6213
▁pathan	-11.6217
▁psus	-11.6218
▁pp	-11.6218
▁gm	-11.6219
▁vijayan	-11.6219
▁tries	-11.6225
▁congregations	-11.6227
▁ruin	-11.6229
▁deed	-11.6231
▁waterways	-11.6233
oda	-11.6234
▁rightly	-11.6235
▁provinces	-11.6236
▁arises	-11.6237
▁grabb	-11.6237
▁ud	-11.6237
▁pr	-11.6238
▁prohibit	-11.624
▁habit	-11.6241
▁kota	-11.6242
▁supplement	-11.6243
▁kitchen	-11.6244
▁stem	-11.6244
▁preference	-11.6244
▁destroying	-11.6246
▁lawmakers	-11.6246
▁seasons	-11.6249
▁hemant	-11.625
▁cylinder	-11.6251
▁sep	-11.6253
▁paras	-11.6259
▁adjust	-11.6259
mohammed	-11.626
▁consume	-11.6261
▁lit	-11.6261
▁petitioners	-11.6262
▁sw	-11.6262
cent	-11.6265
▁dues	-11.6266
▁startup	-11.6268
▁colors	-11.6271
▁complicated	-11.6273
▁doctrine	-11.6273
▁humanitarian	-11.6273
▁sabarimala	-11.6273
▁inviting	-11.6273
▁preservation	-11.6273
▁biological	-11.6273
▁loyalty	-11.6273
▁dramatic	-11.6273
▁1,0	-11.6274
▁kunal	-11.6275
▁bbc	-11.6277
▁controller	-11.6278
▁merged	-11.6279
▁circulated	-11.628
▁basu	-11.6282
▁1987	-11.6284
▁considers	-11.629
main	-11.6291
▁steven	-11.6291
▁kashi	-11.6292
dp	-11.6294
kot	-11.6297
▁bas	-11.6307
▁choices	-11.6309
▁unveil	-11.6312
▁councillor	-11.6316
yo	-11.632
▁mala	-11.6322
▁dismiss	-11.6323
spirational	-11.6331
starrer	-11.6332
▁shine	-11.6336
▁arrange	-11.6336
▁intervene	-11.6337
▁ham	-11.634
only	-11.6341
▁sindh	-11.6341
▁vihar	-11.6343
▁dwelling	-11.6343
▁intelligent	-11.6344
▁beneath	-11.6344
▁notwithstanding	-11.6344
▁saxena	-11.6344
▁scotland	-11.6344
▁gracious	-11.6344
▁irfan	-11.6344
▁denmark	-11.6344
▁patron	-11.6344
▁ananya	-11.6344
▁khalid	-11.6345
▁lemon	-11.6345
▁ashraf	-11.6345
▁altitude	-11.6345
▁jindal	-11.6346
▁1988	-11.6346
▁1970	-11.6347
▁disposed	-11.6351
▁directorial	-11.6352
▁beloved	-11.6352
▁sanon	-11.6352
dia	-11.6353
▁kumbh	-11.6355
▁advances	-11.6356
▁gs	-11.6364
▁credited	-11.6369
▁aide	-11.6369
▁socialist	-11.6371
"")	-11.6372
▁atms	-11.6373
cil	-11.6374
▁ratings	-11.6375
▁measured	-11.6376
muslim	-11.6376
▁retire	-11.638
▁advertisements	-11.638
▁comp	-11.6382
▁funded	-11.6383
power	-11.6385
▁hap	-11.6385
nes	-11.6387
300	-11.6387
▁meals	-11.6387
▁tabled	-11.6388
▁dh	-11.6389
▁strip	-11.6389
▁hectare	-11.639
▁adopting	-11.639
▁pillar	-11.6391
lon	-11.6395
▁pour	-11.6397
▁nam	-11.6399
▁gau	-11.64
generation	-11.6402
▁hasina	-11.6404
rank	-11.6404
▁iffi	-11.6405
▁specialist	-11.6405
▁fortune	-11.6406
▁egg	-11.6408
▁alike	-11.6415
▁wholesale	-11.6416
ml	-11.6416
▁mag	-11.6416
▁belgium	-11.6416
▁configuration	-11.6416
▁mallikarjun	-11.6416
▁confederation	-11.6416
▁bamboo	-11.6416
▁shardul	-11.6416
▁imitate	-11.6416
▁respiratory	-11.6416
▁vocational	-11.6416
▁aggression	-11.6417
▁characteristics	-11.6418
▁hina	-11.642
▁assembled	-11.6421
▁rohan	-11.6423
▁pwd	-11.6424
vice	-11.6427
▁marsh	-11.643
▁switched	-11.6433
▁taxi	-11.6434
▁regards	-11.6434
▁''	-11.6436
▁disk	-11.644
ata	-11.644
▁loud	-11.6441
▁neutral	-11.6442
▁rational	-11.6447
▁tejas	-11.6448
unconstitutional	-11.6452
▁notably	-11.6453
▁specs	-11.6458
ws	-11.6458
▁elephant	-11.6462
▁rome	-11.6464
isa	-11.6465
▁drone	-11.6476
▁sleeping	-11.6481
▁pleas	-11.6482
▁pharmaceuticals	-11.6484
▁kulkarni	-11.6489
▁psychological	-11.6489
▁rebellion	-11.6489
▁elevation	-11.6489
▁autopsy	-11.6489
▁mbbs	-11.6489
▁expedition	-11.6489
▁subscription	-11.6489
▁brotherhood	-11.6489
▁kidnapping	-11.649
▁kabaddi	-11.649
▁126	-11.649
▁deaf	-11.649
▁municipality	-11.6492
▁laden	-11.6492
▁bell	-11.6494
▁formulated	-11.6494
▁mustard	-11.6494
▁2025	-11.6494
dhi	-11.6494
▁evolved	-11.6496
▁references	-11.6498
ea	-11.6501
▁mosques	-11.6505
▁param	-11.6505
▁females	-11.6507
▁900	-11.6508
▁mur	-11.6508
▁reactions	-11.6509
part	-11.651
▁clothing	-11.651
▁sita	-11.651
yes	-11.6512
▁sportspersons	-11.6519
▁ashwini	-11.6519
▁reader	-11.6524
▁laugh	-11.6531
▁tail	-11.6531
▁rd	-11.6533
▁provider	-11.6534
▁pushing	-11.6534
▁imf	-11.6535
weight	-11.6536
▁fertilizer	-11.6536
border	-11.6541
▁requesting	-11.6541
▁decent	-11.6544
.16	-11.6545
▁adapt	-11.6546
▁arena	-11.6547
▁reduces	-11.6548
▁knower	-11.6548
rahul	-11.655
▁impacted	-11.6551
▁fatal	-11.6552
▁grievous	-11.6557
▁ib	-11.6558
▁vocal	-11.656
▁bhardwaj	-11.6562
▁electrification	-11.6562
▁tushar	-11.6562
▁humility	-11.6562
▁emirates	-11.6562
▁maratha	-11.6562
▁mysore	-11.6562
▁shivakumar	-11.6562
▁pole	-11.6563
▁saarc	-11.6563
▁purity	-11.6564
▁saraswati	-11.6564
▁computed	-11.6565
central	-11.6565
▁fiber	-11.6565
▁kur	-11.6566
▁lynching	-11.6566
mun	-11.6567
▁krishi	-11.6567
▁titles	-11.657
▁intend	-11.657
wing	-11.6571
▁hopefully	-11.6571
▁wholly	-11.6571
▁prevailed	-11.6574
▁compact	-11.658
▁dhar	-11.6581
▁graduates	-11.6582
▁illegally	-11.6589
▁opinions	-11.659
ori	-11.6594
▁plains	-11.6599
▁jk	-11.66
bai	-11.6603
▁qu	-11.6604
▁karti	-11.6605
ena	-11.6605
▁prosecutor	-11.6609
▁neighbor	-11.6609
▁linkages	-11.6609
▁flower	-11.6616
▁inland	-11.6621
`	-11.6623
▁prima	-11.6624
▁opponents	-11.6625
▁ultimate	-11.6633
▁calcium	-11.6635
▁obedient	-11.6635
▁parineeti	-11.6635
▁vladimir	-11.6635
▁purported	-11.6635
▁muzaffarnagar	-11.6635
▁examining	-11.6635
▁coordinator	-11.6635
▁backdrop	-11.6636
▁parliamentarian	-11.6636
▁wifi	-11.6637
▁paresh	-11.6637
▁fined	-11.6637
▁heroes	-11.6641
▁disturbed	-11.6641
▁shouted	-11.6642
▁secur	-11.6645
▁businessmen	-11.6646
▁gem	-11.6646
.09	-11.6647
▁tvs	-11.6648
ao	-11.665
hs	-11.665
ender	-11.6651
down	-11.6652
▁duly	-11.6653
▁50-	-11.6656
▁helper	-11.6658
dri	-11.6659
▁undertakings	-11.6664
wari	-11.6671
▁contents	-11.6672
▁sn	-11.6677
▁halls	-11.6683
▁170	-11.6683
▁handloom	-11.6683
▁excuse	-11.6684
▁companion	-11.6684
where	-11.6691
ush	-11.6693
▁maharaja	-11.6699
stone	-11.6701
▁coin	-11.6702
▁communicate	-11.6702
▁surprising	-11.6704
tes	-11.6705
▁kot	-11.6706
▁ramp	-11.6706
▁argentina	-11.6709
▁chatterjee	-11.6709
▁quantities	-11.6709
▁vasundhara	-11.6709
▁sonowal	-11.6709
▁moeen	-11.6709
▁pursuan	-11.6709
▁fortnight	-11.671
▁poland	-11.671
▁liquidity	-11.671
▁unlock	-11.6711
▁pannu	-11.6711
▁rituals	-11.6714
▁thrashed	-11.6714
▁turnout	-11.6714
▁roughly	-11.6716
▁envisaged	-11.6718
ium	-11.6718
▁disciplinary	-11.6718
▁sant	-11.6721
▁exempted	-11.6721
▁iits	-11.6722
▁tit	-11.6725
▁reacted	-11.6725
▁ramdev	-11.6727
▁chanda	-11.6731
▁barriers	-11.6733
oor	-11.6733
▁rom	-11.6733
▁safer	-11.6734
▁lag	-11.6734
▁intends	-11.6737
▁pocket	-11.6738
▁freely	-11.674
▁onboard	-11.6742
▁refuse	-11.6751
▁earthly	-11.6752
▁alarm	-11.6753
ological	-11.6754
▁gene	-11.6757
tis	-11.6758
▁shepherd	-11.6759
▁drain	-11.676
char	-11.676
▁dogs	-11.6762
▁varma	-11.6763
▁plantation	-11.6764
▁exploit	-11.677
▁augment	-11.677
▁neglect	-11.677
▁admissions	-11.6773
▁cess	-11.6775
▁torture	-11.6776
▁distribute	-11.6778
▁shots	-11.6781
▁arrogant	-11.6784
▁beneficiary	-11.6784
▁dosanjh	-11.6784
▁propaganda	-11.6784
▁vadodara	-11.6784
▁swiss	-11.6784
▁tyagi	-11.6784
▁issuance	-11.6784
▁valuation	-11.6784
▁vigilant	-11.6784
▁imposition	-11.6784
▁naught	-11.6784
▁unfair	-11.6784
▁junction	-11.6785
▁sudan	-11.6787
▁saheb	-11.6787
▁assign	-11.6788
▁bhatia	-11.6789
▁sab	-11.6794
▁collectively	-11.6794
▁25,	-11.6796
▁handset	-11.6799
▁alarming	-11.6802
hm	-11.6804
▁del	-11.6806
▁wheels	-11.6806
loc	-11.6807
▁screened	-11.6814
▁qualifying	-11.6815
lok	-11.6815
▁traditionally	-11.6815
ide	-11.6819
▁ig	-11.6822
▁objected	-11.6824
▁230	-11.6828
iel	-11.6833
▁tenders	-11.6833
▁precaution	-11.6835
▁barrier	-11.6835
▁versions	-11.6835
▁vegetable	-11.6835
▁richard	-11.6835
▁lists	-11.6837
▁specify	-11.684
turned	-11.6842
▁menon	-11.6842
▁450	-11.6844
▁commissions	-11.6847
first	-11.6848
▁centrally	-11.6851
▁meritorious	-11.6859
▁portugal	-11.6859
▁vijayvargiya	-11.6859
▁warfare	-11.6859
▁kuwait	-11.6859
▁dissent	-11.6859
▁gwalior	-11.686
▁trent	-11.686
▁encouragement	-11.6861
▁volte	-11.6861
▁fitting	-11.6861
▁teaches	-11.6865
▁heed	-11.6866
▁rely	-11.6868
▁richest	-11.6871
▁extensively	-11.6871
▁binding	-11.6872
▁notable	-11.6873
@	-11.688
dd	-11.6882
mann	-11.6883
poll	-11.6885
▁handicrafts	-11.6888
▁bro	-11.6889
▁din	-11.6889
▁basin	-11.6893
shan	-11.6897
▁bangladeshi	-11.6902
▁suppliers	-11.6907
▁incentive	-11.6911
▁consequence	-11.6911
▁availed	-11.6919
▁invalid	-11.692
1,	-11.6925
▁hind	-11.6926
▁brutal	-11.6931
▁pms	-11.6933
▁epidemic	-11.6935
▁offspring	-11.6935
▁residing	-11.6935
▁fraternity	-11.6935
▁underlined	-11.6935
▁distant	-11.6935
▁charles	-11.6935
▁unemployed	-11.6935
▁constructive	-11.6935
▁intensity	-11.6936
▁jeevan	-11.6937
▁bears	-11.6937
▁harness	-11.6938
▁mehul	-11.6938
▁literally	-11.6938
▁booths	-11.694
wat	-11.6943
▁creed	-11.6943
▁wrongdoers	-11.6945
ola	-11.6946
▁immensely	-11.6948
▁mandated	-11.6952
▁assailants	-11.6954
▁damages	-11.6955
▁upright	-11.6956
test	-11.6957
▁accountable	-11.6957
▁directives	-11.6958
2018	-11.6969
lee	-11.6969
▁baat	-11.697
cp	-11.6974
▁printer	-11.6976
ane	-11.6977
▁furnish	-11.6979
▁rath	-11.6979
▁insight	-11.6979
▁118	-11.6979
▁clip	-11.698
▁restaurant	-11.6988
▁xii	-11.6988
▁margins	-11.699
▁directive	-11.6992
operative	-11.6997
▁node	-11.6998
kashmir	-11.6999
governance	-11.6999
three	-11.6999
2020	-11.6999
moses	-11.7001
veer	-11.7001
▁grieve	-11.7003
▁kir	-11.7005
▁nigeria	-11.7008
▁admonition	-11.7011
▁anganwadi	-11.7011
▁dynasty	-11.7011
▁jagdish	-11.7011
▁tribune	-11.7011
▁adorable	-11.7011
oh	-11.7011
▁antony	-11.7011
▁jonny	-11.7011
▁broadband	-11.7011
▁radiation	-11.7012
▁contestants	-11.7013
▁tiny	-11.7014
dra	-11.7015
▁pocso	-11.7015
▁justified	-11.7017
▁revoked	-11.7017
▁envisage	-11.7019
▁insisted	-11.702
▁wheel	-11.7021
▁resumed	-11.7023
▁warns	-11.7024
▁sharply	-11.7025
▁keys	-11.7026
▁relate	-11.7027
▁tur	-11.7027
bat	-11.7029
▁brahma	-11.703
▁regiment	-11.7031
chal	-11.7033
.70	-11.7034
▁116	-11.704
pak	-11.7044
▁resigns	-11.7052
▁backing	-11.7053
ora	-11.7061
▁limitations	-11.7062
▁kenya	-11.7062
▁nurse	-11.7063
▁equation	-11.7065
▁er	-11.7071
▁jihad	-11.7073
▁harass	-11.7075
camera	-11.7076
▁subdivision	-11.708
▁scc	-11.708
bharat	-11.708
▁lodge	-11.708
▁eager	-11.7083
▁abe	-11.7084
ticipatory	-11.7088
▁chowdhury	-11.7088
▁riteish	-11.7088
▁swimming	-11.7088
▁yusuf	-11.7088
▁discourse	-11.7088
▁victorious	-11.7088
▁yashwant	-11.7088
▁asthana	-11.7088
▁dawood	-11.7088
▁romance	-11.7089
▁balakot	-11.709
▁senator	-11.709
▁40,000	-11.7091
▁dabangg	-11.7091
▁charter	-11.7093
▁inspiring	-11.7095
▁102	-11.7096
999	-11.7097
▁nana	-11.7098
ob	-11.7106
▁spell	-11.7111
▁0.5	-11.7112
▁refuses	-11.7114
gr	-11.7116
▁fearing	-11.7117
▁listing	-11.712
eng	-11.7121
lc	-11.7128
▁treasure	-11.7132
iit	-11.7137
▁cmd	-11.7139
▁kidney	-11.7143
▁cousin	-11.7143
▁shoes	-11.7145
▁vip	-11.7146
▁leak	-11.715
▁mathur	-11.7151
▁deploy	-11.7151
▁clinch	-11.7152
cheteshwar	-11.7154
director	-11.7156
▁motivate	-11.7158
▁nps	-11.7159
▁cheap	-11.7163
▁indulging	-11.7166
▁urging	-11.7166
▁giriraj	-11.7166
ese	-11.7166
▁leaf	-11.7166
▁verified	-11.7166
▁floral	-11.7166
▁reconstruction	-11.7166
▁offensive	-11.7167
▁111	-11.7167
▁prohibition	-11.7168
▁1976	-11.7168
▁nishank	-11.7169
fp	-11.7169
▁workplace	-11.717
▁collectors	-11.7171
▁respondents	-11.7171
▁contention	-11.7173
▁kutch	-11.7178
top	-11.7178
▁oriented	-11.7179
▁traced	-11.718
▁amir	-11.718
▁cu	-11.7185
▁ethics	-11.7185
nar	-11.7186
▁trucks	-11.7195
him	-11.7195
▁loses	-11.72
▁190	-11.7206
▁williams	-11.7208
▁cp	-11.7216
▁readers	-11.722
▁oscar	-11.7222
▁relaxation	-11.7222
▁insects	-11.7224
▁bala	-11.7224
▁objections	-11.7229
▁honours	-11.7231
venkaiah	-11.7231
▁4000	-11.7236
▁conflicts	-11.7239
.32	-11.7239
▁generous	-11.7239
alia	-11.7241
▁responses	-11.7243
▁naxals	-11.7244
▁2008-09	-11.7244
▁abilities	-11.7244
▁russell	-11.7244
▁squadron	-11.7244
▁agrawal	-11.7245
▁certified	-11.7245
▁consuming	-11.7245
▁graduation	-11.7246
▁suburban	-11.7246
▁benefitted	-11.7247
▁deteriorated	-11.7247
▁approaching	-11.7249
list	-11.7249
▁gauge	-11.725
▁jong	-11.7251
▁oli	-11.7253
▁exchanged	-11.7257
▁21.	-11.7258
▁landslides	-11.7261
▁archer	-11.7261
▁showcased	-11.7269
▁prevail	-11.7269
▁burns	-11.7272
bad	-11.7275
▁mk	-11.7277
▁washed	-11.7278
▁sumit	-11.7278
-15	-11.7279
▁crying	-11.7282
▁gad	-11.729
▁resist	-11.729
▁doubled	-11.7295
▁visas	-11.7298
▁1.2	-11.7301
▁marriages	-11.731
icmr	-11.7312
▁101	-11.7316
▁pran	-11.7318
▁semifinals	-11.732
▁extremism	-11.7322
▁fernandez	-11.7322
▁legitimate	-11.7322
▁inception	-11.7322
▁memories	-11.7323
▁dhumal	-11.7323
▁mughal	-11.7323
▁declining	-11.7323
▁aziz	-11.7323
▁conservative	-11.7323
▁amarnath	-11.7323
▁herald	-11.7323
▁barred	-11.7324
▁browser	-11.7324
▁dharna	-11.7324
▁praying	-11.7324
▁dwellers	-11.7324
▁stipulated	-11.7324
▁compassionate	-11.7324
▁1962	-11.7325
inter	-11.7326
▁narrated	-11.7326
union	-11.7326
▁resurrected	-11.7327
▁lander	-11.7329
▁renewed	-11.733
▁sonali	-11.7331
▁dominated	-11.7332
▁rites	-11.7332
▁crushed	-11.7333
▁governed	-11.7333
)]	-11.7341
gy	-11.7342
▁timing	-11.7347
▁ys	-11.7347
▁coins	-11.735
▁sacrificed	-11.7351
▁kilometers	-11.7352
nce	-11.736
mos	-11.7362
▁assisted	-11.7365
▁poses	-11.7367
▁loading	-11.737
▁depart	-11.737
high	-11.7376
elect	-11.7377
▁incomplete	-11.7383
▁expectation	-11.7385
▁beta	-11.7393
good	-11.7394
▁evolve	-11.7394
▁mud	-11.7399
▁potato	-11.74
▁diaspora	-11.7402
▁welcoming	-11.7402
▁anantnag	-11.7402
▁saurabh	-11.7402
▁assuming	-11.7402
▁array	-11.7402
▁fatality	-11.7403
▁sajid	-11.7403
▁idbi	-11.7403
▁boyfriend	-11.7403
▁resolutions	-11.7404
▁pact	-11.7406
▁furthermore	-11.7406
.33	-11.7407
▁goodwill	-11.741
▁broader	-11.7412
▁regardless	-11.7415
▁12-	-11.7424
▁incorrect	-11.7425
▁precautions	-11.7427
▁transformed	-11.7427
▁nir	-11.7429
erst	-11.743
▁inx	-11.743
app	-11.743
▁bra	-11.7434
▁empowering	-11.7437
▁kh	-11.7438
▁shouldnt	-11.7444
▁shaped	-11.7445
▁networking	-11.7447
▁corridors	-11.7453
▁drops	-11.7456
ria	-11.7456
note	-11.7463
▁mod	-11.7466
▁nr	-11.7466
vin	-11.7468
▁abandon	-11.7468
▁runner	-11.7469
century	-11.7469
▁alter	-11.7472
▁dw	-11.7472
▁locate	-11.7475
.69	-11.7475
▁fifteen	-11.7476
▁com	-11.7477
▁enmity	-11.7482
▁evolving	-11.7482
▁kaushik	-11.7482
▁phenomenon	-11.7482
▁presiding	-11.7482
▁knife	-11.7482
▁balochistan	-11.7482
▁dictionary	-11.7482
▁separation	-11.7482
▁sustainability	-11.7482
▁8:	-11.7482
▁genesis	-11.7483
▁parkash	-11.7483
▁vary	-11.7483
▁panipat	-11.7483
iah	-11.7483
▁density	-11.7484
▁grandson	-11.7484
▁neetu	-11.7485
▁spinners	-11.7485
▁vande	-11.7485
▁ark	-11.7487
▁posing	-11.7489
▁effectiveness	-11.749
▁sparked	-11.7492
▁spared	-11.7492
▁eden	-11.7493
▁missionary	-11.7496
▁packs	-11.7498
berg	-11.7498
▁syrian	-11.7499
▁seconds	-11.7499
▁rampal	-11.75
hor	-11.7502
jai	-11.7504
▁sheets	-11.7504
sub	-11.7505
▁touching	-11.7509
active	-11.7512
▁spy	-11.7513
▁headlines	-11.7519
▁menu	-11.752
▁commenting	-11.752
▁planted	-11.7521
▁reap	-11.7523
ans	-11.7524
▁equals	-11.7525
▁nod	-11.7537
hana	-11.754
▁protocols	-11.7544
▁bu	-11.7545
ole	-11.7546
▁attach	-11.7548
▁disrupt	-11.7548
vinder	-11.755
world	-11.755
.19	-11.7552
▁arent	-11.7561
mad	-11.7562
▁cholesterol	-11.7562
▁computing	-11.7562
▁greece	-11.7562
▁lakshadweep	-11.7562
▁ounce	-11.7562
▁preceding	-11.7562
▁entries	-11.7563
▁buzz	-11.7563
▁navdeep	-11.7563
▁ginger	-11.7563
▁nigam	-11.7563
▁prostrate	-11.7563
▁unrest	-11.7563
▁ethanol	-11.7563
▁slipped	-11.7564
▁radhakrishnan	-11.7564
▁adani	-11.7564
▁adaptation	-11.7564
.30	-11.7566
2012	-11.7567
bul	-11.7569
▁pious	-11.757
▁npr	-11.7572
▁blog	-11.7575
▁icmr	-11.7575
▁anthem	-11.7576
▁travellers	-11.758
▁newborn	-11.758
▁naming	-11.7583
.43	-11.7584
lakh	-11.7584
▁consulting	-11.7586
▁bassi	-11.7591
▁hisar	-11.7592
▁reads	-11.7593
▁naga	-11.7601
▁modes	-11.7603
▁contributes	-11.7604
▁existed	-11.7605
▁washing	-11.7609
▁rage	-11.7609
▁satans	-11.7612
▁daman	-11.7612
▁cl	-11.7613
▁horses	-11.7615
-2018	-11.7623
▁behave	-11.7623
▁landslide	-11.7626
▁bless	-11.7628
▁authors	-11.7628
▁pumps	-11.7631
.22	-11.7631
▁determin	-11.7633
▁nirmal	-11.7635
▁slaughter	-11.7636
▁concentrate	-11.7636
▁tibet	-11.7641
▁benjamin	-11.7644
▁candidature	-11.7644
▁magnificent	-11.7644
▁survival	-11.7644
▁withdrew	-11.7644
▁mercedes	-11.7644
▁murli	-11.7644
▁biotech	-11.7644
▁crpc	-11.7645
▁dominant	-11.7645
▁mukul	-11.7645
▁bmw	-11.7645
▁adhere	-11.7645
▁considerably	-11.7645
▁requisite	-11.7645
▁mediatek	-11.7646
.77	-11.7648
▁vested	-11.7651
▁soni	-11.7652
▁pun	-11.7653
▁anymore	-11.7656
▁eliminated	-11.7657
▁saith	-11.7659
▁pearl	-11.7667
▁litres	-11.7668
▁qualifications	-11.767
-10	-11.7674
▁heated	-11.7675
sim	-11.7675
▁recite	-11.7676
▁foodgrains	-11.7682
▁lions	-11.769
▁controls	-11.7697
▁109	-11.7697
▁viewers	-11.7697
▁awardees	-11.7699
▁smile	-11.7701
▁indication	-11.7709
bur	-11.7709
▁spoil	-11.771
▁um	-11.771
▁subscriber	-11.771
▁http	-11.7712
▁kendra	-11.7714
▁odd	-11.7714
▁tip	-11.7721
wood	-11.7724
▁mortal	-11.7725
▁archaeological	-11.7726
▁extradition	-11.7726
▁insolvency	-11.7726
▁shashank	-11.7726
▁throat	-11.7726
▁treasury	-11.7726
▁clarity	-11.7726
▁journalism	-11.7728
▁altar	-11.7728
▁fu	-11.7728
▁1974	-11.7729
▁1985	-11.7729
▁cms	-11.773
▁hover	-11.7731
▁operates	-11.7731
▁scattered	-11.7733
▁inserted	-11.7735
▁nest	-11.7738
▁dot	-11.774
▁ict	-11.7744
▁priya	-11.775
▁nm	-11.7751
rf	-11.7759
▁navi	-11.7761
bil	-11.7764
▁6.3	-11.7765
▁councils	-11.7768
▁bombs	-11.7783
▁congratulat	-11.7787
isha	-11.7787
▁2010,	-11.7788
▁administrators	-11.779
▁attraction	-11.7793
▁extract	-11.7795
aw	-11.7798
▁itc	-11.78
▁spaces	-11.7806
▁automotive	-11.7808
▁essence	-11.7808
▁maternal	-11.7808
▁oxford	-11.7808
▁chicken	-11.7808
▁mukhtar	-11.7808
▁slapped	-11.7808
▁enrolment	-11.7808
▁buddhism	-11.7809
▁resentment	-11.7809
▁scanner	-11.7809
▁gorgeous	-11.7809
▁patriotism	-11.7809
▁jinnah	-11.7809
▁desktop	-11.7809
▁educate	-11.7809
▁attachment	-11.7809
▁jabalpur	-11.7809
▁slight	-11.781
▁baghel	-11.7812
▁jamaat	-11.7813
standing	-11.7814
▁usman	-11.7816
(1)	-11.7817
▁1951	-11.7817
▁miscreants	-11.7818
▁scan	-11.7818
▁excluded	-11.782
▁tsp	-11.7823
.83	-11.7824
▁kho	-11.7825
▁spray	-11.7827
▁commitments	-11.7829
▁golf	-11.783
▁commands	-11.7835
▁attained	-11.7838
▁harvesting	-11.7838
▁bandh	-11.7842
▁kali	-11.7843
▁dying	-11.7843
▁directing	-11.7844
▁climb	-11.7844
▁pave	-11.7844
▁aicc	-11.7844
book	-11.7844
▁startups	-11.7845
▁harder	-11.7851
▁grip	-11.7858
▁accomplish	-11.7859
▁lad	-11.7859
▁bikes	-11.7861
▁heres	-11.7867
▁themes	-11.7868
▁lean	-11.7871
ino	-11.7873
▁$2	-11.7874
▁dimensions	-11.7875
▁economist	-11.7876
▁advancement	-11.7877
▁offerings	-11.7877
here	-11.7878
actress	-11.7879
corruption	-11.7879
▁il	-11.7883
doers	-11.7884
▁expedite	-11.7885
▁counterparts	-11.7887
▁invites	-11.7887
▁sensors	-11.7889
▁poets	-11.7889
gat	-11.789
▁concluding	-11.7892
▁despair	-11.7892
▁liabilities	-11.7892
▁nawab	-11.7892
▁shiromani	-11.7892
▁steadily	-11.7892
▁dowry	-11.7892
▁persistent	-11.7892
▁colonel	-11.7892
▁mixture	-11.7892
▁cardiac	-11.7892
▁ashton	-11.7892
▁wireless	-11.7892
▁voltage	-11.7893
▁fulfillment	-11.7893
▁richardson	-11.7893
▁unhappy	-11.7893
▁cake	-11.7894
▁1972	-11.7895
ou	-11.7895
▁clay	-11.7896
▁bjd	-11.7897
▁tolerated	-11.7899
▁outgoing	-11.79
range	-11.7904
▁descendants	-11.7912
▁partly	-11.7917
fire	-11.7917
▁dressed	-11.7918
hir	-11.7921
▁122	-11.7924
▁ver	-11.7926
▁3000	-11.7926
▁recovering	-11.7931
▁nic	-11.7934
,400	-11.7935
ene	-11.794
spec	-11.7953
▁internationally	-11.7954
▁mous	-11.7957
▁ser	-11.7957
▁offenders	-11.7959
ick	-11.7961
▁tissue	-11.7962
▁exempt	-11.7962
office	-11.7964
▁procure	-11.7968
yn	-11.7968
,200	-11.7971
ida	-11.7972
.17	-11.7972
▁prisoner	-11.7973
▁overwhelming	-11.7974
▁prosper	-11.7975
▁brethren	-11.7976
▁charitable	-11.7976
▁exploring	-11.7976
▁fugitive	-11.7976
▁shanghai	-11.7976
▁temporarily	-11.7976
▁tsunami	-11.7976
▁thread	-11.7976
▁unnecessary	-11.7976
▁colonies	-11.7976
▁grandfather	-11.7976
▁tha	-11.7976
▁repay	-11.7976
▁adjourned	-11.7978
▁stalin	-11.7978
▁interactive	-11.7978
▁protective	-11.7979
▁rr	-11.7979
▁prabhakar	-11.798
▁uidai	-11.7981
▁babri	-11.7982
▁adversely	-11.7984
▁batra	-11.7985
▁churches	-11.7985
▁utilised	-11.7985
▁tired	-11.7986
▁setback	-11.7986
▁tract	-11.7988
▁(4)	-11.799
▁divorced	-11.7995
▁siblings	-11.8004
▁doom	-11.8005
wadi	-11.801
nrc	-11.8011
▁avenues	-11.8015
wani	-11.8019
nal	-11.8019
▁pla	-11.8021
▁math	-11.8022
.04	-11.803
▁wound	-11.8033
▁kul	-11.8034
ify	-11.8038
▁departmental	-11.8038
hindi	-11.8041
aba	-11.8041
tel	-11.8042
rin	-11.8045
▁concert	-11.8047
▁commanders	-11.8048
▁islamist	-11.8048
▁15:	-11.8049
group	-11.8049
▁stroke	-11.8049
kam	-11.8056
dg	-11.8058
▁continuation	-11.806
▁seizure	-11.806
▁taapsee	-11.806
▁unchanged	-11.806
▁consultancy	-11.8061
▁aerospace	-11.8061
▁scuffle	-11.8061
▁garlic	-11.8061
.5%	-11.8061
▁godavari	-11.8061
▁perfection	-11.8062
▁teaser	-11.8062
▁successor	-11.8063
▁inclined	-11.8063
▁lays	-11.8064
▁norway	-11.8065
ub	-11.8067
▁linguistic	-11.8068
▁robbers	-11.8073
iti	-11.8075
▁chased	-11.8075
▁poured	-11.8077
▁rover	-11.8079
▁indu	-11.808
ose	-11.8081
▁yuva	-11.8083
iff	-11.8083
▁anyway	-11.8086
▁auctions	-11.8086
▁chin	-11.8087
▁hs	-11.8092
▁abs	-11.8094
▁alam	-11.8094
▁shaw	-11.8096
▁15-	-11.8101
.37	-11.8104
▁25%	-11.8107
ew	-11.8107
uv	-11.8109
▁lung	-11.8111
shankar	-11.8111
▁olive	-11.8114
▁portray	-11.8116
▁substances	-11.8117
▁mock	-11.8119
▁117	-11.8121
ica	-11.8121
vas	-11.8121
▁alerted	-11.8124
▁acknowledge	-11.8127
▁legally	-11.8127
.95	-11.8128
▁regulate	-11.8128
.47	-11.813
▁killings	-11.8132
▁lane	-11.8133
dl	-11.8135
▁21-	-11.8135
▁2009.	-11.8136
▁rt	-11.8136
▁mislead	-11.8137
▁tolerate	-11.8138
▁mature	-11.8139
din	-11.8139
▁cur	-11.8141
eri	-11.8142
▁harris	-11.8145
▁demolition	-11.8146
▁imperative	-11.8146
▁necessarily	-11.8146
▁wayanad	-11.8146
▁migration	-11.8146
▁bhaskar	-11.8146
▁absent	-11.8146
▁festive	-11.8146
▁tomb	-11.8146
▁midnight	-11.8146
▁harsimrat	-11.8147
▁chaos	-11.8147
▁lightning	-11.8148
▁manpreet	-11.8149
▁shaheen	-11.8151
▁standoff	-11.8151
ghat	-11.8154
▁gym	-11.8154
▁dav	-11.8154
▁val	-11.8155
▁riches	-11.8156
▁saints	-11.8158
▁deo	-11.8158
▁improves	-11.8161
▁somehow	-11.8162
▁malaysian	-11.8162
▁2007,	-11.8163
▁mitra	-11.8166
▁males	-11.8171
▁neil	-11.8171
▁chambers	-11.8172
mate	-11.8176
oop	-11.8177
▁troubled	-11.818
▁writings	-11.8181
▁errors	-11.8182
▁119	-11.8182
▁2021:	-11.8183
▁experiments	-11.8183
▁hema	-11.8184
laws	-11.8185
▁rocks	-11.8189
vallabhbhai	-11.819
▁stephen	-11.8191
.88	-11.8192
▁14-	-11.8193
▁directory	-11.8194
▁circles	-11.8195
▁outfits	-11.8199
▁dean	-11.8203
▁sahu	-11.8206
▁reviewing	-11.8208
ach	-11.821
▁tonight	-11.8214
▁envoy	-11.8219
security	-11.822
inspector	-11.822
▁exercised	-11.822
women	-11.822
ened	-11.8221
▁ventures	-11.8221
▁info	-11.8226
▁replying	-11.8226
▁prospect	-11.8227
▁sarpanch	-11.823
▁leverage	-11.823
▁135	-11.8232
▁abundance	-11.8232
▁collaborative	-11.8232
▁smuggling	-11.8232
.90	-11.8232
atta	-11.8232
▁assassination	-11.8233
▁commendable	-11.8233
▁patriotic	-11.8233
▁kirti	-11.8233
▁earmarked	-11.8235
▁pathak	-11.8235
▁prolonged	-11.8236
▁viable	-11.8237
five	-11.8237
▁apprehended	-11.8237
▁url	-11.8238
asa	-11.8238
▁deliberately	-11.8239
▁honesty	-11.8239
▁js	-11.8241
▁prone	-11.8243
▁bulletin	-11.8243
▁offline	-11.8244
▁grows	-11.8245
▁lasted	-11.8245
▁1080	-11.8248
▁magistrates	-11.8249
▁tro	-11.8252
isro	-11.826
.21	-11.826
avi	-11.8263
▁disciplines	-11.8269
▁predict	-11.8271
▁cal	-11.8275
▁deve	-11.8278
▁mai	-11.8281
▁studios	-11.8283
▁2016)	-11.8283
▁bis	-11.8283
▁presents	-11.8283
▁expose	-11.8284
sai	-11.8285
▁goodness	-11.8287
▁periods	-11.8292
▁tenth	-11.8293
▁stationed	-11.8294
▁instituted	-11.8297
,600	-11.8299
▁slum	-11.83
yr	-11.83
hc	-11.8301
aan	-11.8302
pin	-11.8302
▁denying	-11.8306
april	-11.8307
▁fool	-11.8309
gun	-11.831
▁hasn	-11.831
▁tribals	-11.8314
▁tariffs	-11.8314
▁protector	-11.8317
▁rewarded	-11.8318
▁netanyahu	-11.8319
▁purchasing	-11.8319
▁revenge	-11.8319
▁turmeric	-11.8319
▁bahrain	-11.8319
▁toyota	-11.8319
▁debris	-11.8319
▁levy	-11.8319
▁hungry	-11.8319
▁isaac	-11.832
▁hamirpur	-11.832
▁seamless	-11.832
▁fielding	-11.832
▁queues	-11.8321
▁cream	-11.8321
▁1948	-11.8322
▁spearhead	-11.8322
▁knot	-11.8326
▁garnered	-11.8326
▁chilli	-11.8327
tti	-11.8329
▁hiding	-11.8329
▁sheila	-11.833
▁nights	-11.8335
pers	-11.8337
▁jailed	-11.8337
▁halted	-11.8338
▁perfectly	-11.8339
▁pressed	-11.8341
.23	-11.8342
vat	-11.8345
▁bor	-11.8345
▁106	-11.8346
▁moh	-11.8346
▁owe	-11.8346
▁defended	-11.8347
ami	-11.8349
cut	-11.8351
▁preet	-11.8355
▁retailers	-11.8355
ich	-11.8355
▁550	-11.8357
▁transforming	-11.8357
udi	-11.8359
▁sinners	-11.8361
▁flats	-11.8365
▁gw	-11.8366
▁counted	-11.8367
▁organs	-11.8372
bse	-11.8376
leg	-11.8377
box	-11.838
ota	-11.8384
door	-11.8386
press	-11.8388
>	-11.8394
august	-11.8394
previous	-11.8394
sharing	-11.8396
▁flock	-11.8396
▁paragraph	-11.8398
rjd	-11.8399
▁abundant	-11.8402
▁indulge	-11.8402
rai	-11.8405
▁psu	-11.8407
▁exercising	-11.8407
▁glimpse	-11.8407
▁guiding	-11.8407
▁matrix	-11.8407
▁praveen	-11.8407
▁replacing	-11.8407
▁watson	-11.8407
▁wilderness	-11.8407
requiring	-11.8407
▁convergence	-11.8407
▁scriptural	-11.8407
▁deliveries	-11.8409
▁wore	-11.8409
.42	-11.8409
▁hillary	-11.841
▁1914	-11.841
▁geeta	-11.841
▁jar	-11.841
hole	-11.8411
▁gangster	-11.8411
▁tbsp	-11.8412
▁ceos	-11.8412
▁succession	-11.8415
▁wicketkeeper	-11.8416
▁shameful	-11.8418
▁ethical	-11.8419
▁correction	-11.842
▁angles	-11.8423
▁pcb	-11.8424
▁delays	-11.8425
best	-11.843
ill	-11.8431
.67	-11.8434
▁expresses	-11.8435
▁magazines	-11.8437
yar	-11.844
▁quarterly	-11.8441
▁karma	-11.8442
▁patterns	-11.8443
▁panch	-11.8448
▁metre	-11.8449
▁mounted	-11.8451
▁drives	-11.8456
▁des	-11.8457
bas	-11.8461
▁spices	-11.8465
ui	-11.8467
pati	-11.8475
▁approve	-11.8476
,800	-11.8476
▁conductor	-11.8478
▁maoists	-11.8479
▁quote	-11.848
▁merge	-11.848
▁upadhyay	-11.848
▁signals	-11.8483
ral	-11.8484
▁kilogram	-11.8484
▁separatist	-11.8485
ments	-11.8487
▁153	-11.8489
human	-11.8492
▁observers	-11.8495
▁adelaide	-11.8495
▁baptism	-11.8495
▁chaudhry	-11.8495
▁dushyant	-11.8495
▁palestine	-11.8495
▁plessis	-11.8495
▁relevance	-11.8495
▁chicago	-11.8495
▁biodiversity	-11.8495
▁utilisation	-11.8496
▁messiah	-11.8496
▁credentials	-11.8496
▁hypocrites	-11.8496
▁hirani	-11.8496
take	-11.8496
▁obedience	-11.8496
▁jury	-11.8496
▁kedar	-11.8496
▁maidan	-11.8497
▁panjab	-11.8497
ruled	-11.8497
▁haul	-11.8498
▁ljp	-11.8498
nate	-11.8502
▁derive	-11.8502
▁perceived	-11.8503
▁surgeon	-11.8504
▁complimented	-11.8505
▁aimim	-11.8505
▁consumed	-11.8505
▁mourning	-11.8507
▁cape	-11.8517
200	-11.8519
▁logo	-11.8519
▁debates	-11.852
pg	-11.8521
aar	-11.8522
▁remarked	-11.8524
▁accusations	-11.853
▁flooding	-11.8531
▁174	-11.8531
▁151	-11.8533
▁mba	-11.8537
▁usher	-11.8538
ess	-11.855
▁potentially	-11.8552
▁3-	-11.8554
▁maria	-11.8555
▁127	-11.8559
▁indicat	-11.856
▁fr	-11.856
ius	-11.8561
▁dances	-11.8562
▁csr	-11.8563
▁upload	-11.8563
▁jem	-11.8564
▁dedicate	-11.8568
▁gaya	-11.8571
special	-11.8572
health	-11.8572
published	-11.8573
:30	-11.8573
▁diplomat	-11.8575
page	-11.8575
▁muscle	-11.8575
▁consultant	-11.8575
▁whip	-11.8577
▁teenager	-11.8577
▁chronic	-11.8584
▁endeavor	-11.8585
▁equitable	-11.8585
▁khawaja	-11.8585
▁shekhawat	-11.8585
▁dioxide	-11.8585
▁flew	-11.8585
▁kathua	-11.8585
▁uncertainty	-11.8585
▁discretion	-11.8585
▁gateway	-11.8586
▁invention	-11.8586
▁rejection	-11.8587
▁1973	-11.8587
▁dubbed	-11.8589
▁warnings	-11.8589
▁graph	-11.8589
▁mouni	-11.8589
▁sil	-11.859
▁nhai	-11.859
▁authorized	-11.8591
▁bypolls	-11.8592
aya	-11.8592
▁floating	-11.8593
▁renamed	-11.8594
▁bmc	-11.8595
▁logic	-11.8596
▁360	-11.8598
ians	-11.8601
.24	-11.8601
▁correctly	-11.8606
▁constraints	-11.8612
▁logical	-11.8617
pt	-11.8619
.54	-11.8623
eo	-11.863
▁kk	-11.8634
▁ski	-11.8636
▁beef	-11.8639
nta	-11.8648
mel	-11.8651
building	-11.8653
▁advise	-11.8654
▁1,3	-11.8657
oil	-11.866
▁thi	-11.8661
▁disruption	-11.8666
lah	-11.8666
▁invoke	-11.8667
north	-11.8667
▁khu	-11.8668
▁shower	-11.8668
▁auditor	-11.8669
▁ev	-11.8672
▁tanker	-11.8672
▁simon	-11.8672
.63	-11.8673
▁20-	-11.8674
▁dutch	-11.8675
▁harvard	-11.8675
▁huawei	-11.8675
▁necessity	-11.8675
▁stubble	-11.8675
▁mystery	-11.8675
▁facie	-11.8675
▁avatar	-11.8675
▁vijender	-11.8675
▁babbar	-11.8675
▁retreat	-11.8675
▁kazakhstan	-11.8675
▁abhay	-11.8676
rum	-11.8678
▁cultivate	-11.8678
▁fuels	-11.8679
▁sacked	-11.8681
▁manali	-11.8685
▁promoters	-11.8685
rm	-11.8686
july	-11.8686
▁lin	-11.869
gonna	-11.8691
▁equipments	-11.8691
▁cpses	-11.8693
▁121	-11.8693
▁ros	-11.8694
▁reporter	-11.8695
▁instrumental	-11.8701
▁fd	-11.8705
base	-11.8706
▁possessed	-11.8706
town	-11.8708
▁nand	-11.8712
divisional	-11.8713
▁loaded	-11.8715
uru	-11.8715
▁planes	-11.8716
▁maneka	-11.8724
▁113	-11.8726
▁coordinate	-11.8731
▁mile	-11.8732
tam	-11.8733
▁poison	-11.8733
▁maps	-11.8734
ua	-11.8734
consultative	-11.8743
▁clarify	-11.8747
▁cough	-11.8749
▁ds	-11.8749
ati	-11.875
▁disasters	-11.8751
clause	-11.8753
▁portrait	-11.8757
▁embrace	-11.8758
▁connects	-11.8761
▁random	-11.8761
▁fiction	-11.8763
2)	-11.8763
▁sameer	-11.8765
▁florida	-11.8766
▁autonomy	-11.8766
▁ceremonial	-11.8766
▁chaturvedi	-11.8766
▁furniture	-11.8766
▁ideological	-11.8766
▁infinite	-11.8766
▁presidency	-11.8766
▁boult	-11.8766
▁finland	-11.8766
▁pollard	-11.8767
▁dirty	-11.8767
▁sentences	-11.8768
▁2-0	-11.8768
▁airspace	-11.8768
zar	-11.8768
▁laxmi	-11.8768
khan	-11.8769
▁750	-11.8769
▁reflection	-11.8771
▁alwar	-11.8771
▁deva	-11.8772
cor	-11.8774
▁22.	-11.8774
▁captains	-11.8775
▁sincerely	-11.8775
▁joke	-11.8775
▁douse	-11.878
▁climbed	-11.8781
▁modest	-11.8785
▁(10	-11.8786
▁charan	-11.8797
▁ras	-11.88
eoin	-11.8805
▁licences	-11.8806
▁650	-11.8807
dor	-11.8808
▁220	-11.8816
log	-11.8816
▁widows	-11.8819
▁shifting	-11.8821
▁enforce	-11.8822
▁apte	-11.8824
▁holidays	-11.8832
▁brass	-11.8834
▁pk	-11.8838
political	-11.8845
|	-11.8845
▁proceeds	-11.8845
police	-11.8846
▁dozens	-11.8847
md	-11.8847
▁perceive	-11.885
▁clarification	-11.885
▁relieve	-11.8852
▁athlete	-11.8853
▁munde	-11.8853
▁lender	-11.8853
▁rob	-11.8855
▁accommodate	-11.8855
▁bonus	-11.8856
▁anonymity	-11.8857
▁credibility	-11.8857
▁currencies	-11.8857
▁destiny	-11.8857
▁endurance	-11.8857
▁gambling	-11.8857
▁imagination	-11.8857
▁impetus	-11.8857
▁phrase	-11.8857
▁undoubtedly	-11.8857
▁evacuation	-11.8857
▁shaikh	-11.8857
▁foremost	-11.8858
▁denial	-11.8858
▁breakthrough	-11.8858
▁font	-11.8858
▁ashamed	-11.8858
▁curran	-11.8858
▁colonial	-11.8859
▁kullu	-11.8859
ld	-11.8859
▁objectionable	-11.8859
▁ladies	-11.886
▁1983	-11.886
▁1965	-11.8861
▁racing	-11.8861
▁maryam	-11.8861
▁documentary	-11.8861
▁1960	-11.8862
-6	-11.8863
▁surinder	-11.8864
▁shake	-11.8867
▁warming	-11.8867
▁disturbing	-11.8868
-14	-11.8868
▁casual	-11.8873
▁nta	-11.8874
▁boney	-11.8874
▁bhandari	-11.8878
▁bride	-11.8879
▁phased	-11.8882
▁surrendered	-11.8883
make	-11.8886
lar	-11.8888
▁packed	-11.889
▁praises	-11.8891
▁laud	-11.8896
▁texts	-11.8901
▁miller	-11.8902
fo	-11.8903
▁himalayas	-11.8904
▁lectures	-11.8905
▁kc	-11.8911
row	-11.8912
▁swara	-11.8914
▁restrict	-11.8917
hri	-11.8918
▁tone	-11.8922
▁selectors	-11.8923
ats	-11.8924
▁alleges	-11.8924
▁picking	-11.8926
▁jud	-11.893
▁rolling	-11.8933
▁dayal	-11.8936
▁distinguish	-11.8936
▁bottles	-11.8937
prevention	-11.8938
▁pertain	-11.8941
sheet	-11.8943
▁vidyalaya	-11.8943
▁snake	-11.8943
▁radar	-11.8944
▁palestinian	-11.8944
▁restriction	-11.8944
▁respondent	-11.8944
▁polish	-11.8948
breaking	-11.8949
▁identical	-11.895
▁imposing	-11.895
▁nazeer	-11.895
▁prevalent	-11.895
▁stoinis	-11.895
▁vector	-11.895
▁vidarbha	-11.895
▁lewis	-11.895
▁measuring	-11.895
▁solanki	-11.895
▁grandmother	-11.895
▁chadha	-11.8951
▁jersey	-11.8951
▁judgments	-11.8951
▁comedian	-11.8951
khi	-11.8955
▁babul	-11.8955
▁possesses	-11.8955
▁christianity	-11.8956
▁recited	-11.8961
▁thine	-11.8962
▁9,000	-11.8962
▁drag	-11.8965
▁hanged	-11.897
▁interestingly	-11.8973
▁wouldn	-11.8981
odi	-11.8983
▁mehra	-11.8984
▁actresses	-11.899
▁collecting	-11.8994
▁bypass	-11.8995
▁rat	-11.8995
▁reasoning	-11.8998
rey	-11.8999
▁singhvi	-11.8999
low	-11.9007
:00	-11.901
doner	-11.9011
joy	-11.9012
▁soc	-11.9012
▁backs	-11.902
▁27.	-11.9021
round	-11.9023
sinh	-11.9024
▁steep	-11.903
▁administer	-11.903
mohammad	-11.9031
▁recipient	-11.9038
▁egyptian	-11.9039
▁flames	-11.9039
▁bri	-11.904
▁trauma	-11.9043
disqualification	-11.9043
▁bikaner	-11.9043
▁bungalow	-11.9043
▁mahmood	-11.9043
▁pavilion	-11.9043
▁turbine	-11.9043
▁umbrella	-11.9043
▁unauthorised	-11.9043
▁visibility	-11.9043
▁wherefore	-11.9043
▁refusing	-11.9044
▁unconscious	-11.9044
elected	-11.9044
▁dependence	-11.9044
▁bapu	-11.9044
▁mangal	-11.9045
▁delta	-11.9045
▁confused	-11.9045
-400	-11.9046
▁unified	-11.9046
▁submitting	-11.9046
▁promising	-11.9048
▁justify	-11.9048
▁oval	-11.905
▁patra	-11.9051
▁ritual	-11.9053
kulbhushan	-11.9056
▁ly	-11.9057
▁perpetrators	-11.9057
▁7,000	-11.9059
▁symbols	-11.9061
▁evidences	-11.9064
▁raided	-11.9064
▁tarn	-11.9066
▁mars	-11.9066
oriented	-11.9068
▁surveys	-11.907
fully	-11.9073
gate	-11.9078
▁dk	-11.9081
▁boosting	-11.9084
▁dham	-11.9086
.36	-11.9087
▁bel	-11.9089
▁han	-11.909
▁cas	-11.9091
▁manisha	-11.9091
▁cooling	-11.9092
name	-11.9092
▁cadets	-11.9095
.62	-11.9097
cher	-11.9099
▁focuss	-11.91
pass	-11.9102
ions	-11.9106
ht	-11.9106
▁publishers	-11.9106
▁sometime	-11.911
▁48-	-11.9112
▁mentioning	-11.9113
bus	-11.9114
▁loot	-11.9115
lip	-11.912
▁shar	-11.9121
▁scholarships	-11.9121
▁kas	-11.9123
▁fo	-11.9124
bt	-11.9125
social	-11.9126
(2)	-11.9128
aid	-11.9128
▁curve	-11.9131
▁survivor	-11.9133
▁downloaded	-11.9133
▁ze	-11.9135
▁drunk	-11.9137
▁acquiring	-11.9138
▁diagnosis	-11.9138
▁pinarayi	-11.9138
▁probability	-11.9138
▁satisfactory	-11.9138
▁meditation	-11.9138
▁sikri	-11.9138
▁madurai	-11.9138
▁multitude	-11.9138
▁chandrasekhar	-11.9138
▁kevin	-11.9138
▁diwas	-11.9138
▁unacceptable	-11.9139
▁missionaries	-11.9139
▁bethel	-11.9139
▁maize	-11.9139
▁renewal	-11.9139
▁girish	-11.9141
▁tropical	-11.9141
▁steam	-11.9141
▁partially	-11.9144
▁receipts	-11.9146
▁forged	-11.9148
▁cope	-11.915
▁busted	-11.9151
▁worshipers	-11.9152
▁screens	-11.9153
▁dharam	-11.9154
▁preserved	-11.9154
▁furnished	-11.9155
py	-11.9157
vy	-11.9159
kat	-11.9165
▁eci	-11.9165
place	-11.9167
▁abused	-11.9168
▁lamb	-11.9169
▁improvements	-11.9174
saying	-11.9185
turn	-11.9186
▁ah	-11.9186
▁financially	-11.9191
▁sinful	-11.9191
cin	-11.9192
nish	-11.9199
care	-11.9201
▁pipes	-11.9202
▁locally	-11.9202
.38	-11.9203
.59	-11.9209
▁believer	-11.9211
▁kindly	-11.9215
▁owns	-11.9217
▁stall	-11.922
krishna	-11.9221
▁propose	-11.9222
▁bajrang	-11.9224
▁allowances	-11.9225
wara	-11.9226
2,000	-11.9226
▁victoria	-11.9228
▁diagnostic	-11.9228
▁miracle	-11.9229
type	-11.9231
▁imperfect	-11.9233
▁hazlewood	-11.9233
▁kurukshetra	-11.9233
▁syndrome	-11.9233
▁boeing	-11.9233
▁sarbanand	-11.9233
▁gulzar	-11.9233
▁zampa	-11.9233
▁hydrogen	-11.9233
▁gurpreet	-11.9233
preet	-11.9233
▁wrongdoing	-11.9234
▁compelled	-11.9234
▁oriental	-11.9234
▁kangra	-11.9234
▁gospel	-11.9235
▁diagnosed	-11.9235
▁nabard	-11.9235
▁1982	-11.9236
▁willingness	-11.9236
▁modernization	-11.9237
▁turner	-11.9239
▁roger	-11.9239
▁crashes	-11.924
▁parable	-11.9241
▁confirms	-11.9241
▁sarkar	-11.9241
▁originated	-11.9242
▁peer	-11.9245
▁gr	-11.9248
▁buyer	-11.9248
▁vc	-11.9249
▁mohd	-11.925
▁hired	-11.9251
▁regulated	-11.9253
▁zo	-11.9255
▁soren	-11.9256
▁icar	-11.9257
▁mus	-11.9257
▁crowds	-11.9259
▁organisers	-11.926
hel	-11.9261
▁sitaram	-11.9263
.13	-11.9264
▁burned	-11.9264
▁jagannath	-11.9267
▁(6	-11.9269
▁cylinders	-11.9271
▁drinks	-11.9285
▁lamps	-11.9285
aji	-11.929
▁dun	-11.9293
▁carey	-11.93
▁restrain	-11.9307
▁packages	-11.9309
▁20%	-11.9309
▁intensify	-11.931
▁helio	-11.9313
▁ranges	-11.9314
centric	-11.9317
▁foundations	-11.9317
▁bias	-11.9324
▁fortunate	-11.9324
▁proactive	-11.9326
▁explosives	-11.9327
und	-11.9328
▁solemn	-11.9329
▁cognizance	-11.9329
▁consolidation	-11.9329
▁deciding	-11.9329
▁elizabeth	-11.9329
▁ignorance	-11.9329
▁incidence	-11.9329
▁janmabhoomi	-11.9329
▁jeremiah	-11.9329
▁kathmandu	-11.9329
▁texas	-11.9329
▁incessant	-11.9329
▁abhinav	-11.9329
▁disbelief	-11.9329
▁packaging	-11.9329
▁throwback	-11.933
▁whomsoever	-11.933
▁leap	-11.9331
▁dental	-11.9331
▁mujahideen	-11.9332
▁metals	-11.9332
▁fewer	-11.9332
▁roadshow	-11.9332
▁howrah	-11.9337
▁widening	-11.9339
▁disappeared	-11.934
▁muscles	-11.934
▁et	-11.9341
▁breeding	-11.9345
▁exporter	-11.9349
▁jr	-11.9349
▁1979	-11.935
▁cpm	-11.935
▁rebels	-11.9351
▁holdings	-11.9352
▁guaranteed	-11.9355
uch	-11.9358
▁bibles	-11.9359
▁ingredients	-11.9363
▁entertain	-11.9367
▁gl	-11.9372
▁infants	-11.9372
▁peninsula	-11.9372
▁cii	-11.9373
.27	-11.9375
ppa	-11.9377
load	-11.938
▁condemns	-11.9387
▁243	-11.9393
rl	-11.9396
hur	-11.9397
▁diu	-11.94
▁neo	-11.9403
▁coasts	-11.9405
▁138	-11.9405
▁livelihoods	-11.941
▁enact	-11.9411
▁conversations	-11.9415
▁rash	-11.9418
gue	-11.942
▁convenient	-11.9421
▁srinivas	-11.9421
▁vertical	-11.9421
▁disturbance	-11.9424
▁queue	-11.9425
▁vigil	-11.9425
▁characteristic	-11.9426
▁choosing	-11.9426
▁devastating	-11.9426
▁poultry	-11.9426
▁rajapaksa	-11.9426
▁clerk	-11.9426
▁ndtv	-11.9426
▁telecast	-11.9426
▁ashwani	-11.9426
▁joshua	-11.9426
▁uproar	-11.9427
▁coimbatore	-11.9427
▁negi	-11.9427
,499	-11.9427
▁stopping	-11.9428
▁chile	-11.9428
▁frontier	-11.9429
▁contestant	-11.9429
▁21:	-11.9429
▁solving	-11.943
▁disregard	-11.943
▁rekha	-11.9431
▁chan	-11.9431
▁accessed	-11.9432
▁jungle	-11.9432
pb	-11.9432
▁mediation	-11.9433
▁neuro	-11.9435
▁sunni	-11.9436
▁munda	-11.9439
▁hint	-11.944
▁mea	-11.9441
ssa	-11.9443
▁upward	-11.9449
ae	-11.945
▁https	-11.9451
▁entrepreneur	-11.9452
▁labourer	-11.9453
▁squared	-11.9458
mohan	-11.946
▁cares	-11.9461
system	-11.9462
▁assuredly	-11.9463
pad	-11.9463
▁rak	-11.9464
▁donations	-11.9472
tp	-11.9479
▁balan	-11.9479
▁transported	-11.9482
▁accidental	-11.9483
-11	-11.9486
▁mitigate	-11.9487
▁bima	-11.9487
.52	-11.949
50,000	-11.9492
liam	-11.9497
▁iraqi	-11.9498
▁particles	-11.9499
▁mit	-11.9507
▁tent	-11.9508
bangladesh	-11.9512
▁inherit	-11.9512
bihar	-11.9517
▁robin	-11.9523
▁bug	-11.9523
▁faisal	-11.9524
▁deteriorating	-11.9524
▁dominion	-11.9524
▁glorify	-11.9524
▁houston	-11.9524
▁netflix	-11.9524
▁resilient	-11.9524
▁centenary	-11.9524
▁oilseeds	-11.9524
▁framing	-11.9524
▁jaiswal	-11.9524
▁consortium	-11.9524
▁springs	-11.9524
▁excitement	-11.9524
▁racket	-11.9524
▁massacre	-11.9525
▁disqualified	-11.9525
▁guntur	-11.9525
▁minimal	-11.9525
▁mischief	-11.9525
oi	-11.9525
▁preserving	-11.9525
▁correspondent	-11.9525
▁jeff	-11.9525
▁mapping	-11.9525
▁zakir	-11.9525
▁vedic	-11.9525
▁supplementary	-11.9525
▁smell	-11.9526
▁srikanth	-11.9527
▁credible	-11.9527
▁rakhi	-11.9527
▁raza	-11.9527
▁escalated	-11.9528
▁ramayana	-11.9528
ations	-11.9528
aram	-11.9528
▁traded	-11.9528
▁chopper	-11.9529
▁mess	-11.9529
▁undergraduate	-11.953
▁forbes	-11.953
▁eaten	-11.9533
▁utilized	-11.9534
facing	-11.9536
▁smashed	-11.9536
▁parked	-11.9537
▁teen	-11.9539
▁itbp	-11.9539
▁dp	-11.9541
▁wto	-11.9542
▁faf	-11.9543
▁conventions	-11.9545
gri	-11.9545
-30	-11.9548
▁yu	-11.9549
▁hole	-11.9552
bp	-11.9553
▁resolv	-11.9555
▁practitioners	-11.9557
lat	-11.9557
get	-11.9559
love	-11.956
▁pali	-11.9563
.60	-11.9564
lot	-11.9565
▁132	-11.9568
▁prey	-11.9572
jam	-11.9572
▁disorders	-11.9578
▁dock	-11.9578
.73	-11.9578
▁confer	-11.9581
▁haveli	-11.9581
▁tin	-11.9582
▁soap	-11.9584
wai	-11.9587
▁139	-11.9588
▁intentions	-11.9591
▁govern	-11.9591
▁garments	-11.9594
ice	-11.9595
▁bang	-11.9597
▁6.5	-11.9597
.97	-11.9599
▁paste	-11.9599
▁420	-11.9604
finance	-11.9609
▁twist	-11.961
▁pond	-11.9612
week	-11.9612
▁seth	-11.9612
cbse	-11.9614
▁legends	-11.9618
▁discern	-11.9623
▁adjudged	-11.9623
▁gorilla	-11.9623
▁membrane	-11.9623
▁mukerji	-11.9623
▁shahbaz	-11.9623
▁threshold	-11.9623
▁replies	-11.9623
▁psychology	-11.9623
▁swept	-11.9623
▁tendency	-11.9623
▁defecation	-11.9623
▁murali	-11.9623
▁hazare	-11.9623
▁tilak	-11.9624
▁babies	-11.9624
▁qamar	-11.9624
▁quest	-11.9624
▁bhojpuri	-11.9625
▁impounded	-11.9625
▁kock	-11.9625
▁naxal	-11.9626
▁testify	-11.9627
▁conceded	-11.9629
▁apartment	-11.9629
.64	-11.963
▁sixty	-11.9634
▁sirsa	-11.9634
▁knee	-11.9635
▁strongest	-11.9636
▁inherited	-11.9637
▁borrowing	-11.9639
▁den	-11.964
▁hay	-11.9644
▁modiji	-11.9646
gur	-11.9647
.8%	-11.965
2011	-11.9653
▁ir	-11.9655
▁tide	-11.9656
▁quo	-11.966
▁interpol	-11.9664
path	-11.9665
▁quarterfinals	-11.9665
▁cane	-11.967
.66	-11.9674
▁informing	-11.9682
▁complain	-11.9682
▁variables	-11.9682
tation	-11.9683
cis	-11.9686
rri	-11.9687
▁refresh	-11.9688
▁149	-11.9688
.02	-11.9693
▁conducts	-11.9697
▁accepts	-11.9699
▁gt	-11.9701
▁aero	-11.9703
▁20:	-11.9704
▁constables	-11.9706
talking	-11.9707
▁complement	-11.9709
ching	-11.9709
murder	-11.9711
▁pope	-11.9712
illa	-11.9712
▁finale	-11.9716
united	-11.9717
four	-11.9717
▁edit	-11.9722
len	-11.9723
▁colombo	-11.9723
▁marathon	-11.9723
▁memorable	-11.9723
▁quarrel	-11.9723
▁uzbekistan	-11.9723
▁bankruptcy	-11.9723
▁forefront	-11.9723
▁carved	-11.9723
▁stint	-11.9723
▁hurry	-11.9723
▁generic	-11.9723
▁shakib	-11.9723
▁summary	-11.9723
▁trifed	-11.9724
▁consulate	-11.9724
▁breakfast	-11.9724
▁raghuram	-11.9724
▁shutdown	-11.9724
▁desirable	-11.9724
▁illustration	-11.9724
▁29.	-11.9725
▁bans	-11.9725
▁underlying	-11.9725
▁jana	-11.9725
▁repayment	-11.9726
icc	-11.9726
▁hacked	-11.9728
▁cbdt	-11.9729
▁1978	-11.9729
cos	-11.9729
▁shap	-11.9735
▁aligned	-11.9736
▁19:	-11.9736
▁inadequate	-11.9736
hindu	-11.974
▁4.5	-11.974
▁fruitful	-11.974
▁preached	-11.9744
rn	-11.9745
▁transfers	-11.9745
▁congratulates	-11.9745
▁rod	-11.9745
▁imparted	-11.9749
▁inc	-11.9751
▁liter	-11.9753
rg	-11.9754
▁insulting	-11.9755
▁sowing	-11.9757
▁promoter	-11.9757
table	-11.9757
▁corners	-11.9758
▁drones	-11.9761
-18	-11.9766
lock	-11.9767
▁(18	-11.9769
▁376	-11.977
overs	-11.9771
▁4-	-11.9773
ford	-11.9773
▁ghar	-11.9774
▁clients	-11.9782
uz	-11.9782
▁mans	-11.9789
▁maj	-11.9791
▁ventilators	-11.9792
cb	-11.9793
▁crush	-11.9795
▁cleaner	-11.9795
▁sd	-11.9796
▁rap	-11.9796
▁weaken	-11.9796
▁lords	-11.9803
uff	-11.9806
,300	-11.9807
▁concepts	-11.9813
atory	-11.9814
▁sarah	-11.9815
▁freed	-11.9819
anga	-11.982
▁expel	-11.9824
▁celebrity	-11.9824
▁collegium	-11.9824
▁daredevils	-11.9824
▁experiencing	-11.9824
▁kozhikode	-11.9824
▁prestige	-11.9824
▁resilience	-11.9824
▁saharanpur	-11.9824
▁striving	-11.9824
▁teaspoon	-11.9824
▁proviso	-11.9824
▁guptill	-11.9824
▁throng	-11.9824
▁thrice	-11.9824
[...]
