<unk>	0
<s>	0
</s>	0
▁के	-3.33043
।	-3.55963
▁में	-3.67242
▁है	-3.73986
,	-3.77135
▁की	-3.88531
▁और	-4.05207
▁को	-4.22833
▁से	-4.31312
▁ने	-4.44892
▁का	-4.50563
▁पर	-4.71705
▁हैं	-4.74547
.	-4.81874
▁कि	-4.81904
▁	-4.97726
▁लिए	-5.0536
▁एक	-5.13348
▁भी	-5.20562
)	-5.25508
▁(	-5.25816
▁किया	-5.29001
▁नहीं	-5.30115
▁इस	-5.30991
-	-5.35649
▁कहा	-5.43164
▁कर	-5.43576
▁यह	-5.54938
▁करने	-5.62493
▁गया	-5.65585
▁हो	-5.71413
▁था	-5.77167
▁ही	-5.81822
▁साथ	-5.83599
ों	-5.93748
▁तो	-5.98257
▁भारत	-5.99639
▁जो	-6.00661
▁दिया	-6.09499
▁उन्होंने	-6.13331
▁अपने	-6.17801
▁वह	-6.17893
ी	-6.19209
▁।	-6.23852
▁बाद	-6.25884
▁हुए	-6.29769
▁थे	-6.36055
▁रहे	-6.36138
▁तक	-6.36613
▁पुलिस	-6.36922
▁गई	-6.3863
▁सरकार	-6.40205
▁जा	-6.43502
▁लोगों	-6.45864
▁रहा	-6.49771
▁थी	-6.50115
▁दी	-6.51103
▁कुछ	-6.52353
▁या	-6.53979
▁हम	-6.54633
▁रही	-6.54658
▁कोई	-6.54981
▁करते	-6.55043
:	-6.55516
▁रूप	-6.60106
▁गए	-6.61807
▁द्वारा	-6.62394
▁न	-6.65593
▁इसके	-6.66944
▁उनके	-6.68478
▁सिंह	-6.68936
▁पहले	-6.69436
ा	-6.70556
▁वे	-6.71462
▁भारतीय	-6.72628
▁किसी	-6.7336
?	-6.74741
▁अपनी	-6.76661
▁लेकिन	-6.76978
▁देश	-6.78226
▁वाले	-6.78239
▁‘	-6.78759
▁मैं	-6.79733
▁ये	-6.80314
▁तथा	-6.80389
▁दो	-6.80905
▁एवं	-6.82994
▁होने	-6.85653
▁राज्य	-6.86214
▁क्या	-6.87234
▁बात	-6.87976
▁उन्हें	-6.88161
▁सभी	-6.8853
▁करना	-6.89469
▁मंत्री	-6.89897
े	-6.90152
▁हुआ	-6.9106
▁तरह	-6.92549
▁मामले	-6.92624
▁'	-6.93996
न	-6.94168
▁हुई	-6.95492
▁फिल्म	-6.96009
▁मोदी	-6.9625
▁लोग	-6.96682
▁जब	-6.9764
▁श्री	-6.9796
▁इन	-6.99161
▁काम	-7.00057
▁समय	-7.00537
▁लिया	-7.01461
▁शामिल	-7.01505
▁होगा	-7.01594
▁दिल्ली	-7.01685
▁प्रधानमंत्री	-7.03683
▁सकता	-7.04249
▁चाहिए	-7.0541
▁बहुत	-7.06615
▁कांग्रेस	-7.06943
▁कई	-7.07018
▁किए	-7.089
▁बीच	-7.10031
▁उसके	-7.10165
▁अन्य	-7.10621
▁क्षेत्र	-7.11061
▁दोनों	-7.11378
▁रुपये	-7.11684
▁जाता	-7.12589
▁बताया	-7.12735
▁फिर	-7.14192
▁दौरान	-7.14981
▁आप	-7.15988
▁जाने	-7.17836
▁-	-7.18101
▁करता	-7.18161
▁उनकी	-7.18314
▁सकते	-7.18551
▁बारे	-7.19663
▁खिलाफ	-7.20294
▁उस	-7.20646
▁व	-7.21613
▁पास	-7.22675
▁सबसे	-7.24547
▁उसे	-7.26735
▁अधिक	-7.26797
▁विकास	-7.26934
▁जारी	-7.27768
र	-7.28462
▁प्रदेश	-7.28583
▁कम	-7.30184
▁पूर्व	-7.30706
▁लेकर	-7.31921
▁शुरू	-7.32377
▁दिन	-7.32419
▁होता	-7.33126
▁करोड़	-7.33147
▁बार	-7.33578
’	-7.33707
▁जाएगा	-7.3542
▁जांच	-7.36066
▁भाजपा	-7.36729
▁""	-7.37474
▁तुम	-7.38281
ता	-7.38621
▁देने	-7.39208
'	-7.39351
▁“	-7.39988
▁दर्ज	-7.40295
▁आज	-7.41736
▁हूं	-7.42545
▁टीम	-7.42573
▁इससे	-7.42874
▁आ	-7.43349
▁वाली	-7.43774
्स	-7.44362
▁पार्टी	-7.44595
▁करें	-7.45474
▁कारण	-7.45865
▁"	-7.46624
▁ऐसा	-7.46663
▁उन	-7.46665
▁तीन	-7.46736
▁इसमें	-7.46739
▁नाम	-7.4682
▁मुझे	-7.47483
क	-7.47946
▁मंत्रालय	-7.48956
▁चुनाव	-7.502
▁हमारे	-7.50602
▁प्रतिशत	-7.51024
▁पाकिस्तान	-7.51123
▁अब	-7.51512
ं	-7.51809
ने	-7.53504
▁मुख्यमंत्री	-7.54373
▁जैसे	-7.55431
▁हर	-7.55999
▁दे	-7.56153
▁ऐसे	-7.5626
▁वर्ष	-7.56332
▁ओर	-7.57193
▁प्रति	-7.57524
▁ले	-7.57804
▁इसे	-7.58104
▁यहां	-7.59719
▁होगी	-7.62254
▁हमें	-7.62811
▁अभी	-7.63059
▁राष्ट्रीय	-7.64437
▁जबकि	-7.64594
▁”	-7.64746
▁हालांकि	-7.64916
▁साल	-7.65299
▁मौत	-7.65705
▁अध्यक्ष	-7.66108
▁राष्ट्रपति	-7.66201
▁अपना	-7.67116
ल	-7.67861
म	-7.67884
▁लाख	-7.68024
▁बैंक	-7.6825
▁क्योंकि	-7.69143
▁काफी	-7.69196
▁अगर	-7.70057
▁जिसमें	-7.70343
स	-7.707
▁नई	-7.70974
▁अलावा	-7.71189
▁खान	-7.71599
कर	-7.71601
/	-7.73009
▁प्रमुख	-7.73181
▁योजना	-7.7387
▁सुरक्षा	-7.74087
▁कुमार	-7.74319
▁होती	-7.74344
▁गांधी	-7.75664
▁जानकारी	-7.75855
▁वहीं	-7.76193
▁उसकी	-7.76516
▁तहत	-7.76582
▁आगे	-7.76594
▁:	-7.76801
▁करेंगे	-7.77005
▁10	-7.77137
▁पिछले	-7.77195
ो	-7.77752
▁2	-7.78038
▁पूरी	-7.78238
▁कार्य	-7.78754
▁मुख्य	-7.78964
▁घटना	-7.79513
▁बनाने	-7.80143
त	-7.80425
▁बैठक	-7.80487
▁नेता	-7.8168
ियों	-7.81953
▁अनुसार	-7.82497
▁मदद	-7.82717
▁इंडिया	-7.83595
▁इसका	-7.83803
▁हमने	-7.83824
▁इसलिए	-7.8441
▁कंपनी	-7.84712
▁ज्यादा	-7.84732
▁उनका	-7.84738
▁अधिकारी	-7.84986
ना	-7.85302
▁सब	-7.85485
ए	-7.85821
▁बड़ी	-7.86286
▁दूसरे	-7.87701
▁प्राप्त	-7.88303
▁सकती	-7.88397
▁ख़ुदा	-7.892
▁महिला	-7.89251
▁उत्तर	-7.89916
▁कार्यक्रम	-7.91032
▁घर	-7.91147
।"	-7.91321
▁जहां	-7.9166
▁तौर	-7.91782
▁केंद्रीय	-7.92068
▁मेरे	-7.92286
▁उसने	-7.92475
▁5	-7.92839
▁विभाग	-7.92895
▁दुनिया	-7.93654
▁1	-7.93694
▁केंद्र	-7.93717
▁तब	-7.93826
ई	-7.93971
▁विशेष	-7.94036
▁अस्पताल	-7.94089
▁स्थिति	-7.94617
▁सेवा	-7.94646
▁मामला	-7.94709
▁परिवार	-7.94852
▁लिये	-7.94898
▁3	-7.95307
▁संख्या	-7.95704
▁सूचना	-7.95803
▁दिए	-7.96358
▁अलग	-7.96915
▁जीवन	-7.97054
▁विभिन्न	-7.97258
▁मीडिया	-7.97936
▁आने	-7.98268
▁पहली	-7.98291
▁सामने	-7.98625
▁पूरा	-7.99058
▁चार	-7.99373
▁प्रकार	-7.99393
▁प्रदान	-7.99601
▁आधार	-7.99655
▁मौके	-7.99659
▁बड़ा	-8.0088
▁केवल	-8.01348
▁पता	-8.01398
▁नए	-8.01418
▁होंगे	-8.01676
▁देशों	-8.02048
▁व्यक्ति	-8.02176
▁आरोप	-8.02202
▁निर्माण	-8.02387
▁स्वास्थ्य	-8.02458
▁भाग	-8.02588
▁तैयार	-8.02754
▁वाला	-8.02761
▁जाना	-8.02978
▁आपको	-8.03073
▁इसकी	-8.03818
▁संबंध	-8.03876
▁कोर्ट	-8.0464
▁यहोवा	-8.04992
▁ऑफ	-8.051
▁शिक्षा	-8.05131
▁करती	-8.05343
▁अवसर	-8.05529
▁यदि	-8.05896
▁पंजाब	-8.06006
▁अधिकारियों	-8.06442
▁शर्मा	-8.06493
▁होते	-8.06564
▁जाती	-8.06729
▁अ	-8.06901
▁‘‘	-8.06938
▁नरेंद्र	-8.0788
▁4	-8.07941
▁आई	-8.08154
▁मुंबई	-8.082
ित	-8.08771
▁विश्व	-8.09244
▁कभी	-8.09809
),	-8.10178
▁चल	-8.10483
▁बना	-8.10575
▁मैच	-8.11664
▁मांग	-8.11804
▁राहुल	-8.11958
▁रिपोर्ट	-8.12032
▁उपलब्ध	-8.12416
▁बड़े	-8.12513
के	-8.12665
▁स्थित	-8.12983
▁ऐसी	-8.13494
▁इसी	-8.135
▁गिरफ्तार	-8.13721
▁अमेरिका	-8.13738
▁जी	-8.13798
▁फोन	-8.13832
▁जाए	-8.1443
▁बीजेपी	-8.14797
▁मौजूद	-8.15164
▁नजर	-8.15592
▁12	-8.15926
▁विचार	-8.16279
▁कुल	-8.16395
▁कपूर	-8.1644
ब	-8.16571
▁उपयोग	-8.16664
िंग	-8.16732
▁हमारी	-8.16792
▁स्तर	-8.17225
▁उसका	-8.17724
▁जाएगी	-8.18393
▁प्रदर्शन	-8.18425
▁जिसके	-8.18568
ते	-8.18888
▁हाल	-8.18893
▁मिल	-8.19219
▁बाहर	-8.19353
▁लगा	-8.19556
▁करके	-8.1966
▁पांच	-8.19668
▁ली	-8.19668
▁कैसे	-8.19744
▁वो	-8.19789
▁ताकि	-8.19858
▁देते	-8.19894
▁सचिव	-8.2056
▁क्यों	-8.20865
▁मामलों	-8.21115
▁ध्यान	-8.21538
▁ए	-8.21569
▁करेगा	-8.21712
▁संबंधित	-8.21794
ओं	-8.22553
!	-8.22602
▁क्षेत्रों	-8.22706
▁चीन	-8.22794
▁मैंने	-8.23334
▁बयान	-8.23392
▁वजह	-8.23472
▁आए	-8.23531
▁करीब	-8.23603
ट	-8.23938
▁राज्यों	-8.24066
▁सेना	-8.24212
▁तरफ	-8.24365
▁जिले	-8.247
▁स्थान	-8.25154
▁बंद	-8.25278
▁न्यायालय	-8.25508
▁लगभग	-8.25561
▁होना	-8.25601
▁जिस	-8.25603
▁वीडियो	-8.25948
ज	-8.26004
▁अल्लाह	-8.2603
▁आयोग	-8.26114
▁लेने	-8.26248
▁फैसला	-8.2638
▁महत्वपूर्ण	-8.26597
▁क्रिकेट	-8.26702
▁कार्रवाई	-8.2686
▁सहित	-8.27887
▁8	-8.27987
▁दिनों	-8.28107
▁घायल	-8.28529
▁गयी	-8.28624
▁रहने	-8.28638
▁सी	-8.28688
▁विधानसभा	-8.28789
▁फीसदी	-8.29034
▁रखा	-8.29047
▁6	-8.29351
▁रक्षा	-8.2975
▁कृषि	-8.29805
▁जीत	-8.30042
▁पहुंच	-8.30075
▁सहयोग	-8.30423
▁आर्थिक	-8.30449
▁आरोपी	-8.305
▁बनाया	-8.3063
▁जिसे	-8.30695
▁कानून	-8.30787
▁इस्तेमाल	-8.31229
▁चुके	-8.3171
▁पानी	-8.31711
▁बन	-8.31802
▁मिला	-8.31845
▁उच्च	-8.32097
सी	-8.32111
▁प्रक्रिया	-8.32284
▁पीएम	-8.32614
▁बच्चों	-8.33114
▁हिस्सा	-8.33176
▁सिर्फ	-8.33284
▁जम्मू	-8.33513
▁मिली	-8.33625
▁रुपए	-8.33694
▁20	-8.33745
▁आदेश	-8.33817
▁15	-8.34145
s	-8.34392
▁पेश	-8.34648
▁परमेश्‍वर	-8.35025
▁भूमिका	-8.35204
▁संयुक्त	-8.35644
▁जवाब	-8.3603
▁पद	-8.36159
▁चाहते	-8.36421
▁पूरे	-8.36547
▁लागू	-8.36598
▁धारा	-8.36612
▁लगाया	-8.36639
▁देता	-8.36901
▁जिससे	-8.37134
ें	-8.37246
▁आयोजित	-8.37437
▁वहां	-8.37582
▁टेस्ट	-8.37672
▁कीमत	-8.37893
▁मुताबिक	-8.38118
▁रखने	-8.38164
▁बल्कि	-8.38385
▁सके	-8.38498
▁समिति	-8.38573
▁मेरी	-8.38673
▁कश्मीर	-8.38775
▁जरूरत	-8.38825
▁बस	-8.38848
▁जनता	-8.38886
▁शाह	-8.38889
▁बोर्ड	-8.38943
▁यात्रा	-8.38977
▁जाते	-8.39127
▁डॉ	-8.39302
▁परीक्षा	-8.39434
▁महाराष्ट्र	-8.39685
▁हासिल	-8.3979
▁अदालत	-8.39792
▁शहर	-8.39911
▁थीं	-8.39926
▁तुम्हारे	-8.402
▁अधिनियम	-8.40272
▁जल	-8.40409
▁समर्थन	-8.406
▁अच्छा	-8.40656
▁खेल	-8.41372
▁लोकसभा	-8.41816
ि	-8.41826
▁जगह	-8.41957
▁.	-8.4198
▁रन	-8.4206
▁चर्चा	-8.42114
जी	-8.42159
▁लिखा	-8.42413
▁किसानों	-8.42491
▁कहना	-8.42518
▁दक्षिण	-8.42527
▁वित्त	-8.42883
व	-8.43003
▁आया	-8.43386
▁वरिष्ठ	-8.43683
▁सदस्य	-8.43881
▁सीमा	-8.43973
▁"""	-8.44475
▁हरियाणा	-8.44638
▁पत्र	-8.44786
▁शेयर	-8.44873
▁घोषणा	-8.44898
नी	-8.45167
▁महीने	-8.45213
▁दर	-8.45223
▁बेहतर	-8.45467
▁माध्यम	-8.45798
▁’	-8.45901
़	-8.46152
▁प्रयास	-8.46168
द	-8.46592
▁सहायता	-8.46723
िक	-8.46843
▁सरकारी	-8.47098
▁पिता	-8.47594
""	-8.47602
▁बिहार	-8.47685
▁गुजरात	-8.47711
▁कोशिश	-8.47772
▁एस	-8.48061
▁स्कूल	-8.48193
या	-8.48496
▁कदम	-8.48613
▁जल्द	-8.48904
▁7	-8.49008
▁बाजार	-8.49126
▁खुद	-8.49158
▁शिकायत	-8.49252
▁गये	-8.49587
▁लाभ	-8.49681
ती	-8.49941
▁बनाए	-8.50233
▁सोशल	-8.50292
▁देखा	-8.50536
▁11	-8.50695
▁गंभीर	-8.50838
▁आपके	-8.50925
ीय	-8.51291
▁राम	-8.51323
▁दें	-8.5135
▁दूसरी	-8.51673
▁जिला	-8.51796
▁विरोध	-8.5197
▁उनसे	-8.52045
▁9	-8.52175
प	-8.52372
▁सही	-8.52546
ग	-8.52561
▁कहते	-8.5258
▁कोविड	-8.52636
्	-8.52825
▁विदेश	-8.53349
▁निवेश	-8.53357
▁आम	-8.53637
▁उद्योग	-8.53708
▁ठीक	-8.5408
▁भर	-8.54263
ड	-8.54294
▁रह	-8.54309
▁चुकी	-8.54355
▁गृह	-8.54408
▁पहचान	-8.54603
▁सुधार	-8.54643
▁भारी	-8.54894
▁क्षमता	-8.54913
▁यही	-8.55035
▁हत्या	-8.55133
▁वृद्धि	-8.55345
▁पैदा	-8.55579
▁अच्छी	-8.55794
▁अधिकार	-8.56102
▁बिना	-8.56109
-19	-8.56262
▁देना	-8.56319
▁अमेरिकी	-8.56447
▁करो	-8.5664
▁लगता	-8.56904
▁दल	-8.56987
▁समूह	-8.5733
▁पहला	-8.57645
▁हमेशा	-8.57735
▁हूँ	-8.57816
▁व्यवस्था	-8.57907
▁लगातार	-8.57911
0	-8.58222
▁पी	-8.58252
▁नीति	-8.58288
▁महिलाओं	-8.58368
▁उसी	-8.58834
▁बातचीत	-8.59209
▁हमले	-8.59222
▁ट्वीट	-8.59456
▁जिन	-8.59733
▁राष्ट्र	-8.59869
▁दूर	-8.59947
▁बढ़	-8.60085
▁—	-8.60093
▁प्रौद्योगिकी	-8.60162
▁उससे	-8.60446
▁मध्य	-8.60516
▁संगठन	-8.60547
▁दिशा	-8.60555
▁द	-8.60671
▁किये	-8.60908
▁उप	-8.60955
▁सार्वजनिक	-8.61014
▁पत्नी	-8.61274
▁चुका	-8.6138
▁सुनिश्चित	-8.61533
▁इनमें	-8.61848
▁बंगाल	-8.6204
▁बल	-8.62264
▁ई	-8.62353
▁18	-8.62631
▁रेलवे	-8.62686
▁भाई	-8.62841
▁अगले	-8.62859
▁कराया	-8.62873
...	-8.63059
▁भर्ती	-8.63273
▁ऊर्जा	-8.63434
▁सवाल	-8.6347
ू	-8.63517
▁विधायक	-8.63662
की	-8.63668
▁निर्णय	-8.63674
▁आधारित	-8.63847
▁१	-8.63918
▁अवधि	-8.64006
▁मजबूत	-8.64206
▁वालों	-8.64214
▁लगे	-8.64515
▁उम्मीद	-8.6457
▁प्रणाली	-8.64613
▁शव	-8.6511
▁बॉलीवुड	-8.65467
▁राजनीतिक	-8.65751
▁चाहता	-8.65768
▁13	-8.65776
▁2020	-8.65779
▁डॉलर	-8.6581
री	-8.6615
▁सामाजिक	-8.66341
▁पीछे	-8.66373
▁छात्रों	-8.6646
▁पश्चिम	-8.66655
▁विषय	-8.66667
▁यादव	-8.6685
▁अभियान	-8.67079
▁हजार	-8.67315
▁16	-8.67462
▁स्थानीय	-8.67646
▁हाथ	-8.67803
▁आदि	-8.67868
▁समारोह	-8.68156
▁राजस्थान	-8.68298
▁प्रभावित	-8.68375
▁निजी	-8.68794
▁आग	-8.6897
▁अतिरिक्त	-8.68971
▁मंदिर	-8.69195
▁वर्तमान	-8.69312
▁उम्मीदवार	-8.69753
▁परियोजना	-8.69767
▁कार्ड	-8.69772
▁25	-8.7001
▁कप्तान	-8.70198
▁नगर	-8.70259
▁अंतिम	-8.70429
▁50	-8.70479
▁समाज	-8.70524
▁मेरा	-8.70691
▁30	-8.70718
▁14	-8.70728
का	-8.70813
▁तेजी	-8.71124
▁विज्ञान	-8.71481
▁कोरोना	-8.71514
▁याद	-8.71549
▁वापस	-8.71657
▁कमी	-8.71796
▁2019	-8.71904
▁प्रबंधन	-8.71961
▁धर्म	-8.72549
▁उत्पादन	-8.72902
वीं	-8.73016
▁सड़क	-8.73368
▁नया	-8.73431
▁रसूल	-8.73509
▁फिलहाल	-8.73534
▁बच्चे	-8.73644
▁कोहली	-8.7386
▁मिलने	-8.73861
▁रेल	-8.7401
▁उनमें	-8.74078
▁देख	-8.74096
▁24	-8.74358
▁अमित	-8.74456
▁कह	-8.74826
▁दिवस	-8.75144
▁सीट	-8.75325
और	-8.75671
▁जिसका	-8.7618
▁क	-8.76615
▁प्रत्येक	-8.76653
1	-8.76841
▁जान	-8.77038
(	-8.77054
▁बने	-8.77163
▁100	-8.77191
▁बढ़ाने	-8.77263
▁नेताओं	-8.77312
▁आयोजन	-8.77472
▁तेल	-8.77688
▁सुप्रीम	-8.77715
▁मगर	-8.77902
▁कौन	-8.78124
▁बता	-8.78206
▁सांसद	-8.78424
▁मे	-8.78637
श	-8.78739
▁सामना	-8.78769
से	-8.78875
▁स्पष्ट	-8.78904
▁2017	-8.78909
▁दावा	-8.78949
▁अप्रैल	-8.79118
▁याचिका	-8.79399
▁एंड	-8.79422
▁विकसित	-8.79448
▁संघ	-8.7985
▁संबंधी	-8.79857
▁गांव	-8.79874
ः	-8.79958
▁करेगी	-8.80058
▁बी	-8.80161
▁जाएंगे	-8.8027
▁कंपनियों	-8.80318
▁प्रयोग	-8.80382
▁मन	-8.806
▁पाया	-8.80614
▁सामान्य	-8.8066
▁वही	-8.80952
▁बेटे	-8.81143
▁जरिए	-8.81166
▁पुरस्कार	-8.81173
▁शुरुआत	-8.81278
▁देखते	-8.81607
▁मंजूरी	-8.81632
▁तेज	-8.81637
▁कार	-8.81752
▁सम्मेलन	-8.81765
▁आवश्यकता	-8.81766
▁संसद	-8.81774
▁आवेदन	-8.81802
य	-8.82203
▁कल	-8.82388
▁आरोपियों	-8.82464
▁घोषित	-8.82596
▁मार्च	-8.82642
▁करे	-8.82863
▁विकेट	-8.8297
▁सदस्यों	-8.83196
▁सीटों	-8.83249
▁कर्नाटक	-8.83339
▁तरीके	-8.83408
▁फैसले	-8.83682
▁तय	-8.8389
▁निर्देश	-8.8412
▁स्थापित	-8.8468
▁तुलना	-8.84841
▁विश्वविद्यालय	-8.84862
▁नेतृत्व	-8.84915
ला	-8.84972
▁केस	-8.85121
वी	-8.85388
▁पड़ा	-8.85514
▁भाषा	-8.85592
▁वक्त	-8.85615
▁अनेक	-8.85733
▁रहते	-8.85802
▁ना	-8.85847
▁कैमरा	-8.85894
▁वेबसाइट	-8.85909
▁बारिश	-8.86079
▁प्रस्ताव	-8.86133
▁विश्वास	-8.86316
▁देखने	-8.86478
रा	-8.86527
▁जुड़े	-8.86571
▁तुम्हें	-8.87169
▁अनुमति	-8.87171
▁2018	-8.87179
▁समेत	-8.87193
▁एम	-8.87252
▁मुलाकात	-8.87276
▁छोड़	-8.87312
▁यहाँ	-8.87385
▁विदेशी	-8.87428
▁छह	-8.87433
▁निदेशक	-8.876
▁किस	-8.8762
▁नंबर	-8.87739
▁परिणाम	-8.87972
▁यीशु	-8.88069
यह	-8.88169
▁सुविधा	-8.88199
▁अच्छे	-8.88594
▁शादी	-8.88605
फ	-8.88606
▁ट्रंप	-8.88655
टी	-8.88737
▁मार्ग	-8.88861
▁रखते	-8.88872
पुर	-8.88999
▁लक्ष्य	-8.89335
▁ऊपर	-8.89376
▁व्यापार	-8.89406
▁जिनमें	-8.89429
▁प्रशासन	-8.89443
▁17	-8.89516
▁रात	-8.89527
▁सीबीआई	-8.89575
▁हमारा	-8.89679
▁प्रभाव	-8.89799
▁स्वीकार	-8.89819
को	-8.8983
हम	-8.89957
▁खिलाड़ी	-8.89993
▁समान	-8.90076
▁भविष्य	-8.90201
डी	-8.90205
▁लगाने	-8.90215
▁भेज	-8.90217
▁मिले	-8.90226
ख	-8.90365
▁अली	-8.90367
▁टी	-8.90553
मैं	-8.90649
▁राज	-8.90659
▁मूल्य	-8.90738
▁उनको	-8.90769
▁नुकसान	-8.91015
ऐ	-8.91174
▁आर	-8.91213
▁अनुसंधान	-8.91271
▁बेहद	-8.91283
▁संस्थान	-8.91303
▁ग्रामीण	-8.91373
▁सूची	-8.91381
▁लॉन्च	-8.91452
▁संभावना	-8.91486
▁राशि	-8.91599
▁मां	-8.9174
▁आवश्यक	-8.91775
▁शीर्ष	-8.91842
▁मूल	-8.92352
ओ	-8.92356
▁उपस्थित	-8.92361
एक	-8.92453
▁अंतर्गत	-8.92474
▁बेटी	-8.92512
▁बदलाव	-8.92655
▁वर्ग	-8.92765
▁नियंत्रण	-8.92788
▁नीचे	-8.92888
▁किसान	-8.93059
ह	-8.93193
▁19	-8.93212
2	-8.93311
▁कराने	-8.93565
▁वैश्विक	-8.9371
▁माना	-8.93794
▁मिलेगा	-8.938
▁संविधान	-8.93844
▁कहीं	-8.93852
▁जून	-8.93879
▁जनवरी	-8.93892
▁बनी	-8.93923
ली	-8.93982
▁भेजा	-8.94088
▁चरण	-8.9409
▁जैसी	-8.94107
▁दिल	-8.94185
▁सात	-8.94189
▁लाल	-8.94278
▁सम्मान	-8.94515
▁बिजली	-8.94811
▁परिषद	-8.95067
▁बढ़ावा	-8.95077
▁21	-8.95138
%	-8.95201
▁हों	-8.95248
▁नागरिक	-8.95341
▁हादसे	-8.95378
▁संबोधित	-8.95422
▁चला	-8.95462
▁मानव	-8.95514
िया	-8.95561
बी	-8.95599
▁स	-8.95601
▁जेल	-8.95623
▁इलाज	-8.95659
साथ	-8.95682
▁पति	-8.9573
▁समस्या	-8.95789
▁जानते	-8.95814
▁जैसा	-8.95855
▁विराट	-8.9611
▁अंतरराष्ट्रीय	-8.96157
▁केरल	-8.96318
▁भुगतान	-8.96555
▁शो	-8.96598
▁प्रवेश	-8.96788
▁वायरस	-8.96882
▁छात्र	-8.97008
इस	-8.97033
▁पहुंचे	-8.97081
▁खास	-8.97188
▁चलते	-8.97291
▁बधाई	-8.97505
▁अध्ययन	-8.97513
▁योगदान	-8.97546
▁लोक	-8.97637
ंग	-8.98036
▁दूसरा	-8.9806
▁युवा	-8.98089
▁वर्षों	-8.98174
▁मौजूदा	-8.98251
▁सलमान	-8.98379
▁बाइबल	-8.98558
▁लाने	-8.98588
▁सत्र	-8.98685
▁उसमें	-8.9872
▁उद्देश्य	-8.98807
▁मुद्दे	-8.98877
▁होकर	-8.98936
▁आय	-8.99204
▁–	-8.99305
▁अंक	-8.99324
▁प्रशिक्षण	-8.99348
कश्मीर	-8.99393
वा	-8.99517
▁केन्द्रीय	-8.99648
▁अरब	-8.99725
▁फोटो	-8.99783
वें	-9.00272
▁अपील	-9.00315
▁शांति	-9.00399
▁वित्तीय	-9.00417
▁कप	-9.00435
▁पक्ष	-9.00702
▁अभिनेता	-9.0073
▁हमला	-9.00878
▁सफल	-9.00988
▁एन	-9.00998
▁छोटे	-9.01032
▁जरूरी	-9.01048
▁डी	-9.01166
▁प्रधान	-9.0124
▁शक्ति	-9.01256
▁विमान	-9.01304
▁सुनवाई	-9.01319
▁इतिहास	-9.01408
▁परिवर्तन	-9.01739
▁प्रकाश	-9.02125
ु	-9.02182
▁रोक	-9.02267
▁संपर्क	-9.0234
▁हार	-9.02604
▁अधीन	-9.02631
▁उदाहरण	-9.02654
▁जुलाई	-9.02682
।"""	-9.02782
▁मिलकर	-9.02941
GB	-9.03016
▁खबर	-9.03284
▁विधि	-9.03957
▁धन	-9.04008
▁मोबाइल	-9.04164
▁लगी	-9.04181
▁युद्ध	-9.04183
▁सीरीज	-9.04448
▁इनकार	-9.04595
▁मई	-9.04612
▁स्मार्टफोन	-9.04625
▁अहम	-9.04823
▁साफ	-9.04971
▁कार्यालय	-9.0531
▁व्यक्त	-9.05428
▁बजट	-9.05486
▁जिन्होंने	-9.05972
▁आधिकारिक	-9.06324
▁कल्याण	-9.06429
▁सुरक्षित	-9.06923
▁लिमिटेड	-9.06967
अ	-9.07184
▁तू	-9.07204
▁भूमि	-9.07371
च	-9.07561
▁जमा	-9.07599
▁इलाके	-9.07669
▁22	-9.07774
▁कर्मचारियों	-9.07881
▁प्रवक्ता	-9.07929
▁लागत	-9.08584
▁जिसने	-9.08704
▁गलत	-9.08969
▁बावजूद	-9.09092
▁मुकाबले	-9.09149
▁ऐ	-9.09156
▁उन्‍होंने	-9.0925
▁गैर	-9.09686
▁फरवरी	-9.09733
▁पढ़ें	-9.09789
▁न्याय	-9.09959
▁संशोधन	-9.10036
र्स	-9.10074
▁रहेगा	-9.10148
▁संदेश	-9.10275
▁पहुंची	-9.10315
ये	-9.10464
▁सलाह	-9.10781
▁बनने	-9.10825
पर	-9.10859
एं	-9.11128
▁समुदाय	-9.11174
▁विजय	-9.11264
▁राय	-9.11333
▁गठबंधन	-9.11489
▁शानदार	-9.11539
▁भवन	-9.11569
▁रोजगार	-9.11943
▁ऑनलाइन	-9.12016
ज़	-9.12038
▁अथवा	-9.12226
▁सुबह	-9.12281
▁हालत	-9.12593
▁इंग्लैंड	-9.12666
▁जस्टिस	-9.12912
▁पसंद	-9.13036
▁विवाद	-9.13095
▁शब्द	-9.13467
▁हिरासत	-9.13543
▁जनरल	-9.13672
▁दिखाई	-9.13722
▁समझ	-9.13725
▁रहेंगे	-9.14077
▁जिन्हें	-9.14099
▁ईमान	-9.14147
▁पटेल	-9.14297
▁संजय	-9.1435
▁उद्घाटन	-9.14352
▁हिंसा	-9.14523
▁रोहित	-9.14529
▁जन	-9.14565
▁राजा	-9.14676
▁अंतर्राष्ट्रीय	-9.14688
▁घरेलू	-9.14848
d	-9.14886
▁राजनीति	-9.14894
u	-9.14921
▁विधेयक	-9.1496
▁ऑस्ट्रेलिया	-9.15047
▁साझा	-9.15109
▁ज्ञान	-9.15119
▁मिलेगी	-9.15344
▁लग	-9.15348
▁बढ़ा	-9.1536
▁विस्तार	-9.15367
▁सेवाओं	-9.15526
▁बजे	-9.15548
▁खर्च	-9.15571
▁राहत	-9.15735
▁तलाश	-9.15943
▁गैस	-9.16022
▁सा	-9.16048
▁आता	-9.16499
वे	-9.16732
▁लें	-9.16758
▁40	-9.16932
▁गिरावट	-9.17086
▁पार	-9.17097
▁/	-9.17142
ले	-9.17245
सा	-9.17293
▁परीक्षण	-9.17339
▁किलोमीटर	-9.17425
पी	-9.17455
▁मतलब	-9.17475
▁अंत	-9.17542
▁मतदान	-9.17588
▁समीक्षा	-9.1759
▁सारे	-9.17593
▁प्रियंका	-9.17599
▁मारे	-9.17626
▁निर्धारित	-9.17662
▁नरेन्द्र	-9.177
▁पीठ	-9.17809
▁मिशन	-9.17824
▁परवरदिगार	-9.17977
▁सितंबर	-9.18065
▁मुद्दों	-9.18145
▁खत्म	-9.18146
▁सप्ताह	-9.18182
▁अगस्त	-9.18268
▁नेशनल	-9.18307
▁प्यार	-9.18349
▁पूर्ण	-9.18417
▁महसूस	-9.18427
▁सीएम	-9.18491
▁प्रचार	-9.18512
ण	-9.18513
▁परिवहन	-9.18613
▁न्यायाधीश	-9.18633
▁केन्द्र	-9.18771
▁बाल	-9.18979
▁बदल	-9.19079
▁माता	-9.19118
▁अनुभव	-9.19224
▁सभा	-9.19294
▁मार	-9.19507
▁जीबी	-9.19659
▁सफलता	-9.19666
▁पा	-9.19739
▁नदी	-9.19782
▁वोट	-9.20016
▁इंडियन	-9.20104
▁व्यापक	-9.20135
▁बढ़कर	-9.20151
▁समाप्त	-9.20162
▁दिसंबर	-9.20268
▁ब	-9.20306
▁आपकी	-9.20333
▁संसाधन	-9.20564
▁संरक्षण	-9.20601
▁वास्तव	-9.20645
▁पालन	-9.20685
▁कॉलेज	-9.2073
▁हेतु	-9.20768
▁नियम	-9.2077
अलग	-9.20879
▁मौसम	-9.20911
▁उम्मीदवारों	-9.20967
उन्होंने	-9.21049
▁जोर	-9.21073
▁खाद्य	-9.21138
▁शायद	-9.21235
▁समाधान	-9.21477
▁अभिनेत्री	-9.21639
▁आतंकवाद	-9.21831
▁तीसरे	-9.21983
▁किताब	-9.22088
▁पर्यटन	-9.22162
▁सूत्रों	-9.22179
▁चिकित्सा	-9.22183
आ	-9.22205
▁आदमी	-9.22251
▁हैदराबाद	-9.22458
्य	-9.22526
▁देंगे	-9.22559
▁ऋण	-9.22577
▁अर्थव्यवस्था	-9.22709
▁बातें	-9.2274
▁रंग	-9.22817
▁तमिलनाडु	-9.2287
▁टन	-9.22887
▁28	-9.229
▁31	-9.22904
▁शरीर	-9.22926
▁एयर	-9.22928
में	-9.23056
▁कारोबार	-9.23152
भर	-9.23271
▁देगा	-9.23316
▁23	-9.23356
▁वाहन	-9.23389
3	-9.23471
▁हवाई	-9.2364
▁अपराध	-9.23681
▁परियोजनाओं	-9.23784
▁शासन	-9.23908
▁चुनौती	-9.23972
▁करनी	-9.23983
▁अध्यक्षता	-9.23992
▁मत	-9.24092
▁माल	-9.24211
▁जिसकी	-9.24276
▁सक्रिय	-9.24285
▁एजेंसी	-9.24426
▁म	-9.24429
▁पेट्रोल	-9.24474
▁बरामद	-9.24861
▁सु	-9.25097
▁साबित	-9.25118
▁लेते	-9.25258
▁गाँव	-9.25286
▁उचित	-9.25309
▁प्रेम	-9.25382
ियां	-9.25388
▁राज्‍य	-9.25419
मा	-9.25476
▁प्रगति	-9.25526
▁असम	-9.25596
▁चीज़	-9.25642
▁कथित	-9.25653
▁केजरीवाल	-9.25786
▁चाहे	-9.2593
▁''	-9.25939
▁डिग्री	-9.25962
▁सहायक	-9.26097
▁रख	-9.26144
▁कड़ी	-9.2617
▁अफ्रीका	-9.26218
▁जिलों	-9.26381
▁इतना	-9.2641
▁आठ	-9.26639
▁निगम	-9.26884
▁मृत्यु	-9.2695
▁नवंबर	-9.2696
▁रिलीज	-9.27094
▁पदक	-9.27097
▁पड़	-9.27137
▁खरीद	-9.2716
▁शुल्क	-9.27179
▁अंतर	-9.27249
▁प्रथम	-9.27595
."	-9.27692
▁चयन	-9.27833
▁शहरी	-9.27987
20	-9.28028
यू	-9.28145
▁उपचार	-9.28292
▁स्थापना	-9.28368
▁शिवसेना	-9.28411
5	-9.28491
▁परिजनों	-9.28585
▁मोहम्मद	-9.28602
▁भीतर	-9.28648
▁बिक्री	-9.28736
▁संभव	-9.28758
▁स्वयं	-9.29047
|	-9.29157
▁मेडिकल	-9.29233
▁पर्यावरण	-9.29275
▁प्रस्तुत	-9.29437
”	-9.29528
▁राजधानी	-9.29661
▁बनाई	-9.29664
▁पाकिस्तानी	-9.29686
▁अर्थ	-9.29704
▁प्र	-9.29892
▁जन्म	-9.29983
▁यानी	-9.30138
▁पारी	-9.3018
▁खुशी	-9.3044
▁रहता	-9.30551
▁26	-9.30902
▁कौशल	-9.31078
▁पाने	-9.31094
▁A	-9.31333
▁सं	-9.31439
▁स्वतंत्रता	-9.31509
▁आपूर्ति	-9.31563
▁पोस्ट	-9.31583
▁तुरंत	-9.31631
7	-9.31649
▁खारिज	-9.31825
▁मैदान	-9.31987
▁प्रसाद	-9.32172
▁रखी	-9.32224
▁निगरानी	-9.32278
▁बांग्लादेश	-9.32296
▁लगाए	-9.32557
▁वन	-9.3258
▁पहल	-9.32658
▁नागरिकों	-9.32721
▁पुष्टि	-9.32744
▁रूस	-9.32954
▁करार	-9.33012
▁2016	-9.33175
एस	-9.33323
▁भरोसा	-9.33378
▁संदर्भ	-9.33419
▁चालक	-9.33423
▁अनुमान	-9.33543
▁अंदर	-9.33708
▁घंटे	-9.33714
▁आंध्र	-9.33734
▁ला	-9.33835
▁मुस्लिम	-9.33838
▁गठन	-9.33849
▁प्रेरित	-9.33986
▁सजा	-9.3409
▁संबंधों	-9.34147
▁निधन	-9.34298
एन	-9.34338
गी	-9.34393
▁रिकॉर्ड	-9.34417
▁हिंदी	-9.34559
▁निर्यात	-9.34786
पूर्ण	-9.34853
▁आनंद	-9.34909
▁जानता	-9.35003
▁उसको	-9.35098
▁हाईकोर्ट	-9.35224
▁गति	-9.3542
▁रहती	-9.35536
P	-9.35538
▁देकर	-9.35557
▁जे	-9.35601
▁निश्चित	-9.35602
▁सर	-9.35698
▁स्टेशन	-9.35714
▁खुश	-9.35881
▁मौका	-9.3596
▁मैचों	-9.36
यों	-9.3602
▁टीवी	-9.36076
▁असर	-9.36097
जो	-9.36098
▁राज्यपाल	-9.36107
▁कोलकाता	-9.36115
▁इलाकों	-9.36428
▁स्वागत	-9.36429
▁बल्लेबाज	-9.36473
▁वी	-9.36765
▁ज़्यादा	-9.36772
▁बाकी	-9.36845
▁मात्रा	-9.36953
▁एशिया	-9.36961
▁आते	-9.37024
▁फिल्मों	-9.37054
▁सक्षम	-9.37131
भारत	-9.37132
▁चिंता	-9.37145
▁बैंकों	-9.37173
▁पैसे	-9.37189
▁नेटवर्क	-9.37287
▁देती	-9.37295
▁ओ	-9.3736
▁मॉडल	-9.37388
▁हालात	-9.37462
▁दौरे	-9.37601
▁तीनों	-9.37721
▁राजनाथ	-9.3779
▁उठा	-9.37793
▁आसान	-9.37799
▁समझौता	-9.37852
▁चीनी	-9.37913
▁नि	-9.38027
▁रोकने	-9.38148
▁मेगापिक्सल	-9.38211
▁रब	-9.38275
▁डिजिटल	-9.38367
▁तस्वीर	-9.38466
▁अनुच्छेद	-9.38513
▁पूछताछ	-9.38675
▁बेशक	-9.38813
▁स्टोरेज	-9.39021
▁रखना	-9.39339
▁वायरल	-9.39382
6	-9.3941
▁हिंदू	-9.39466
▁श्रीलंका	-9.39595
▁अल	-9.39638
एल	-9.39641
▁प्रयासों	-9.39758
▁खराब	-9.39817
▁नौ	-9.39892
▁संस्कृति	-9.39937
▁2014	-9.40096
▁’’	-9.40137
▁प्रतिक्रिया	-9.40154
▁देखें	-9.40273
▁विपक्ष	-9.40436
▁शहरों	-9.4064
▁अक्टूबर	-9.40648
▁कहने	-9.4065
▁घायलों	-9.40657
▁वायु	-9.408
▁गतिविधियों	-9.40905
▁किरदार	-9.4092
▁27	-9.40993
▁आतंकी	-9.4101
▁जिनके	-9.41039
8	-9.41068
▁बातों	-9.41107
▁दायर	-9.41243
▁तारीख	-9.41304
▁हाई	-9.41332
▁आशा	-9.41416
▁जीएसटी	-9.41693
\\	-9.41769
▁स्थानों	-9.41886
▁चेन्नई	-9.41923
▁S	-9.41931
▁वि	-9.42148
जा	-9.42203
थ	-9.423
▁सह	-9.42377
▁सीटें	-9.42437
▁पर्याप्त	-9.42619
▁क्षेत्रीय	-9.42779
▁प्रभावी	-9.42833
▁अक्षय	-9.42841
▁जिम्मेदारी	-9.42962
▁दस	-9.43074
▁अनिल	-9.43476
▁संकट	-9.43486
▁व्यक्तियों	-9.43563
▁बराबर	-9.43726
▁उत्पाद	-9.43758
▁अनुरोध	-9.43759
▁फरार	-9.43833
▁मिलता	-9.43973
▁मान	-9.44043
▁पोस्टमार्टम	-9.44122
गा	-9.44412
▁प	-9.44438
▁बुनियादी	-9.44439
▁नियमों	-9.44455
▁डेटा	-9.44549
▁चंडीगढ़	-9.44587
‍	-9.44599
▁प्रकाशित	-9.44662
▁बिल	-9.44711
▁ख	-9.44723
▁पड़े	-9.44792
▁मानना	-9.44816
▁धार्मिक	-9.44819
▁कहानी	-9.4502
▁विकल्प	-9.45041
▁नये	-9.45067
▁डर	-9.45243
०	-9.45252
▁फाइनल	-9.45279
▁ज़मीन	-9.45323
▁जापान	-9.45325
▁इनके	-9.45565
▁प्राकृतिक	-9.4561
▁रैम	-9.45667
▁पाए	-9.45673
▁परन्तु	-9.45713
▁लड़ाई	-9.45752
▁सामग्री	-9.45768
l	-9.45802
▁आपका	-9.45893
▁सत्ता	-9.45991
▁लेना	-9.46142
▁उम्र	-9.46265
▁लंबे	-9.46337
▁ब्रिटेन	-9.46353
▁टिकट	-9.46375
▁संस्थानों	-9.46562
▁तकनीकी	-9.46634
▁लो	-9.46648
▁पूछा	-9.46805
▁60	-9.46831
▁ओवर	-9.46838
▁गुणवत्ता	-9.47007
▁आवास	-9.47075
▁ग्राम	-9.47633
▁औद्योगिक	-9.47765
▁योग	-9.47788
▁जमीन	-9.4786
▁चाहती	-9.48069
▁पड़ता	-9.4808
▁महान	-9.48182
▁वहाँ	-9.48198
▁ट्विटर	-9.48216
▁कार्यों	-9.48277
▁पुरुष	-9.48481
▁नयी	-9.48502
▁रद्द	-9.48583
▁समझौते	-9.48589
▁29	-9.48664
▁पूर्वी	-9.48718
▁तापमान	-9.48734
आर	-9.48739
▁संगठनों	-9.48761
▁सकें	-9.4878
▁सांस्कृतिक	-9.48914
▁होनी	-9.48978
▁नियुक्त	-9.49049
▁उल्लंघन	-9.49191
▁दबाव	-9.49197
▁संचालन	-9.4921
▁कहता	-9.49244
▁सोच	-9.49289
▁सच	-9.49349
▁यात्रियों	-9.49513
▁दौर	-9.49569
▁मुखर्जी	-9.49575
▁छूट	-9.49639
▁रोल	-9.49702
▁तुम्हारी	-9.49773
▁ग	-9.49842
▁दौरा	-9.49888
▁कर्मचारी	-9.49972
▁हिमाचल	-9.49978
▁झारखंड	-9.50132
▁पाई	-9.50457
▁फायदा	-9.505
▁कही	-9.50511
▁हे	-9.50649
▁बनाना	-9.50665
▁लड़की	-9.50678
▁आगामी	-9.50818
▁सरकारों	-9.50854
▁संक्रमण	-9.50966
▁आती	-9.50972
▁श्रेणी	-9.50973
▁शाम	-9.51059
▁मिलियन	-9.51149
▁जाति	-9.51199
▁छत्तीसगढ़	-9.51373
▁वनडे	-9.5144
▁मुश्किल	-9.5156
▁राष्‍ट्रीय	-9.51704
▁छोड़कर	-9.52068
▁चौधरी	-9.52147
▁दोषी	-9.5245
▁अन्तर्गत	-9.52457
▁जवान	-9.52486
▁टिप्पणी	-9.52545
▁ट्रेन	-9.5256
▁योजनाओं	-9.52617
▁संपत्ति	-9.52619
▁वकील	-9.52995
▁मंत्रिमंडल	-9.53001
▁संगीत	-9.5308
▁राव	-9.53181
▁तैनात	-9.53204
▁देर	-9.53288
▁डीजल	-9.53321
▁खिलाड़ियों	-9.53496
▁श्रृंखला	-9.53549
▁दशक	-9.53731
▁धरती	-9.53748
▁सैन्य	-9.53758
▁आतंकवादी	-9.53772
▁in	-9.53792
▁32	-9.5381
▁महामारी	-9.53899
▁मीटर	-9.53908
▁सो	-9.53935
o	-9.53969
▁पहुंचा	-9.54076
▁जाकर	-9.54096
▁एक्ट्रेस	-9.5421
▁सहमति	-9.54219
▁प्रार्थना	-9.54354
▁इस्तीफा	-9.54373
▁चीफ	-9.54481
▁संकेत	-9.54561
▁सारी	-9.54584
▁2015	-9.54746
▁अहमद	-9.54765
▁निपटने	-9.54781
▁B	-9.5484
▁ऐतिहासिक	-9.54948
▁खुदा	-9.55026
▁बे	-9.55032
▁धोनी	-9.55039
▁राजीव	-9.55127
है	-9.55128
"	-9.55239
▁चोपड़ा	-9.55261
▁आग्रह	-9.55266
▁दलों	-9.55318
▁सेंसर	-9.55347
▁जितन	-9.55355
▁बीमा	-9.5537
▁मुकाबला	-9.55434
▁चले	-9.55459
एँ	-9.55625
,000	-9.55857
▁कब्जे	-9.55919
▁दाखिल	-9.55934
दा	-9.56049
▁पाक	-9.56049
▁तनाव	-9.56069
▁युवक	-9.56141
▁छोटी	-9.56194
▁चुनावों	-9.56256
▁रहना	-9.56265
▁उच्चतम	-9.56276
▁कानूनी	-9.56346
▁सारा	-9.56483
▁बच्चन	-9.56487
▁दुर्घटना	-9.56549
ड़	-9.5663
▁युवाओं	-9.56701
▁सेवाएं	-9.56791
▁विशिष्ट	-9.56806
▁उठाए	-9.5687
▁हिस्से	-9.57015
▁जुड़ी	-9.57052
▁राज्यसभा	-9.57084
▁सोमवार	-9.57102
▁घरों	-9.57293
▁आंदोलन	-9.57315
▁खोज	-9.57351
▁एल	-9.57508
▁महत्व	-9.57562
▁बचाव	-9.57603
▁हस्ताक्षर	-9.57615
▁सोनिया	-9.57668
्र	-9.57717
▁डाल	-9.57814
▁अक्सर	-9.5782
▁शपथ	-9.58043
▁उठाया	-9.58256
▁विधायकों	-9.58407
▁सवार	-9.58477
▁इन्हें	-9.58484
▁दीपिका	-9.58567
▁सर्वश्रेष्ठ	-9.58575
▁नौसेना	-9.58666
▁जानी	-9.58694
▁सिस्टम	-9.58704
▁गेंद	-9.58786
▁भगवान	-9.58875
▁कोच	-9.58884
▁पृथ्वी	-9.59007
▁जहाँ	-9.59017
▁उठाने	-9.59144
200	-9.59171
▁आरोपों	-9.59407
▁दोस्त	-9.59414
▁लीटर	-9.59502
▁निर्वाचन	-9.59507
▁नही	-9.59526
▁भोजन	-9.59529
▁नायडू	-9.59579
▁प्रो	-9.59604
▁प्रेस	-9.5965
इन	-9.59656
▁अधिकांश	-9.59684
इ	-9.5976
4	-9.5981
बा	-9.59823
▁वितरण	-9.60004
▁स्टार	-9.60089
▁संघर्ष	-9.60177
▁नियमित	-9.6022
▁भाव	-9.60233
▁सम्मानित	-9.60234
▁भागीदारी	-9.60234
▁आरंभ	-9.60262
▁यू	-9.6035
▁डाला	-9.60398
▁द्विपक्षीय	-9.60524
▁35	-9.6056
▁कीमतों	-9.60562
▁सुझाव	-9.6062
▁तस्वीरें	-9.60717
िन	-9.6075
▁व्यवहार	-9.60772
▁बाढ़	-9.60776
▁बलों	-9.60795
▁बहन	-9.60857
▁खाते	-9.60963
▁ईरान	-9.61027
▁अशोक	-9.61032
▁मै	-9.61063
▁प्रश्न	-9.61067
▁समाचार	-9.61067
▁तेलंगाना	-9.61145
▁ग्रुप	-9.61146
▁नोटिस	-9.61209
▁फ़िल्म	-9.61274
▁कला	-9.61299
▁तुम्हारा	-9.61323
▁बढ़ोतरी	-9.61377
▁इकाई	-9.61716
▁शख्स	-9.61722
▁टाटा	-9.61744
राज	-9.61817
▁टूर्नामेंट	-9.61983
▁तैयारी	-9.62033
▁निशाना	-9.62048
▁शूटिंग	-9.62075
▁लेंगे	-9.62102
▁आखिरी	-9.62137
▁बीमारी	-9.62177
▁रखता	-9.62246
▁आसपास	-9.62246
▁कार्यकर्ताओं	-9.62279
▁तत्काल	-9.62338
▁सुपर	-9.62402
▁खुलासा	-9.62511
▁रि	-9.62521
▁भाषण	-9.62592
▁न्यायमूर्ति	-9.62695
▁लोकतंत्र	-9.62711
▁मुक्त	-9.62822
▁खड़े	-9.6286
▁आएंगे	-9.62879
▁भावना	-9.63016
▁मंच	-9.63051
▁चोट	-9.6308
▁फ्रांस	-9.63158
▁अधिकतम	-9.63256
▁सेंटर	-9.63267
▁कराई	-9.6329
▁रोड	-9.63325
▁नज़र	-9.63393
▁देव	-9.63556
रे	-9.63634
in	-9.63648
▁शुक्रवार	-9.63869
▁सराहना	-9.64004
▁लीग	-9.64012
▁दिये	-9.6402
▁अफगानिस्तान	-9.64024
G	-9.64039
▁गोवा	-9.6409
▁जीता	-9.64226
▁200	-9.64233
▁सका	-9.64418
▁पूजा	-9.64479
▁वैज्ञानिक	-9.645
▁फल	-9.6461
▁बताते	-9.64691
▁नोट	-9.64743
▁स्थल	-9.6475
▁बजाय	-9.6478
▁खूब	-9.64809
▁वार्ता	-9.6491
▁वाहनों	-9.64935
▁कार्यक्रमों	-9.6496
▁सेक्टर	-9.64998
▁मनुष्य	-9.65105
▁प्रतिबंध	-9.65242
▁सिविल	-9.65286
▁नेपाल	-9.65294
▁इमरान	-9.65446
▁यूपी	-9.65521
▁वार्षिक	-9.65538
▁अजय	-9.6562
▁सौ	-9.65657
▁परमाणु	-9.65722
▁सलाहकार	-9.65732
▁मिलती	-9.6579
▁कैबिनेट	-9.65793
▁|	-9.65886
▁विश्‍वास	-9.6598
▁खंड	-9.66038
▁सोने	-9.66082
▁ज	-9.66097
▁अनिवार्य	-9.66291
कि	-9.66356
▁भ्रष्टाचार	-9.66538
▁ठाकुर	-9.66608
▁मिलते	-9.66638
▁पश्चिमी	-9.66654
▁चेयरमैन	-9.66791
▁मूसा	-9.66843
▁जेटली	-9.66886
▁इंटरनेट	-9.66901
▁चलता	-9.66903
राम	-9.66905
▁माह	-9.6699
▁दाम	-9.67115
▁रहेगी	-9.67133
▁सख्त	-9.67173
▁होंगी	-9.67202
▁जताई	-9.67256
▁उत्पादों	-9.67306
▁हल	-9.67315
MP	-9.67332
▁सीधे	-9.67368
▁शब्दों	-9.67424
▁विद्यार्थियों	-9.67431
कार	-9.67519
▁व्यक्तिगत	-9.6757
▁प्रतियोगिता	-9.67577
▁लाया	-9.67646
▁दृष्टि	-9.67684
S	-9.67732
▁अरविंद	-9.67735
▁70	-9.67795
▁गईं	-9.67798
▁उत्पन्न	-9.67809
▁गंगा	-9.67971
▁संसदीय	-9.68045
▁रैली	-9.68078
▁न्यूनतम	-9.68094
▁उपकरण	-9.68101
▁इ	-9.68175
▁यूनिवर्सिटी	-9.68183
▁जर्मनी	-9.6821
▁आधुनिक	-9.6831
▁आपने	-9.6839
▁महासचिव	-9.68446
▁निर्माता	-9.68454
जे	-9.68504
▁उल्लेख	-9.68527
उ	-9.68531
▁बढ़ती	-9.68592
▁डॉक्टर	-9.68622
▁शुभकामनाएं	-9.68725
▁वर्षीय	-9.68735
्ड	-9.68925
▁समक्ष	-9.69006
▁मंगलवार	-9.69118
▁वास्तविक	-9.69193
▁आईपीएल	-9.69384
▁भीड़	-9.69395
▁प्रावधान	-9.69489
▁सीमित	-9.69493
▁उपाध्यक्ष	-9.69566
▁अंतरिक्ष	-9.69578
▁विरुद्ध	-9.69582
▁न्यूजीलैंड	-9.69593
▁फ्रंट	-9.69636
▁s	-9.69697
▁डे	-9.69703
▁अज़ाब	-9.69724
▁परेशान	-9.69837
▁दिखाया	-9.69865
▁इंस्टाग्राम	-9.69941
▁योग्य	-9.69993
▁२	-9.70002
▁गिरफ्तारी	-9.7007
g	-9.70107
▁कारणों	-9.7016
▁योगी	-9.70293
वर	-9.70347
▁रखे	-9.70365
▁शाहरुख	-9.70409
▁नागरिकता	-9.70448
▁हाउस	-9.70454
▁स्कूलों	-9.70456
▁शासित	-9.7054
▁जीतने	-9.70666
▁शिखर	-9.70697
▁विशाल	-9.707
▁तकनीक	-9.70862
▁ज़रूरत	-9.70913
▁राह	-9.70918
xa	-9.70949
▁प्रबंध	-9.71033
प्र	-9.71141
▁ओडिशा	-9.71194
e	-9.71219
▁पारित	-9.71414
▁जरिये	-9.71554
▁जमानत	-9.71581
▁चलने	-9.71739
ियाँ	-9.71757
▁विवरण	-9.71885
▁80	-9.71895
▁परिवारों	-9.71948
▁बुधवार	-9.71955
▁विवाह	-9.72146
▁न्यायिक	-9.72202
▁श्रीमती	-9.72246
▁रहें	-9.72275
ंस	-9.72298
▁500	-9.72336
▁मिश्रा	-9.72353
▁यात्री	-9.72369
▁सिर	-9.72458
▁हिस्सों	-9.72515
▁थाना	-9.72655
▁जाया	-9.72712
▁इच्छा	-9.7297
▁लिखित	-9.72994
वह	-9.73027
▁कोरिया	-9.73169
▁अर्जुन	-9.73226
▁निवासी	-9.73295
A	-9.73348
▁कमजोर	-9.73398
▁रिजर्व	-9.73486
▁कब	-9.73554
▁सदन	-9.73602
▁रखें	-9.73655
▁उपराष्ट्रपति	-9.73705
▁कार्यकारी	-9.73731
▁सिवा	-9.73781
▁ब्याज	-9.73796
▁विरोधी	-9.73808
y	-9.74043
▁रोग	-9.74089
9	-9.74154
▁फंड	-9.74164
भ	-9.74246
▁दृष्टिकोण	-9.74269
▁गोयल	-9.74368
▁आबादी	-9.74383
▁दूसरों	-9.7439
▁शोध	-9.74444
मुझे	-9.74464
▁देवी	-9.74474
▁शहीद	-9.74509
▁अंग्रेजी	-9.74547
▁चेतावनी	-9.74563
▁महानिदेशक	-9.7458
▁नौकरी	-9.74586
▁लंदन	-9.74685
▁सकेगा	-9.74693
▁लाइन	-9.74746
▁निकल	-9.74766
▁गुप्ता	-9.74797
▁सिन्हा	-9.7486
▁वेरिएंट	-9.74862
▁बुरी	-9.7499
▁बोल	-9.75035
▁शुरूआत	-9.7505
a	-9.75085
▁इतनी	-9.75175
▁बनाकर	-9.75191
▁मिनट	-9.7526
▁समस्याओं	-9.75315
▁इंजन	-9.75381
▁मंत्रियों	-9.754
▁आकार	-9.75604
▁पवित्र	-9.75623
▁मान्यता	-9.75623
मी	-9.75628
▁लंबी	-9.75673
▁वापसी	-9.75735
▁राजमार्ग	-9.75891
▁आयात	-9.75965
▁पीड़ित	-9.76026
▁निकाल	-9.76065
▁हफ्ते	-9.76087
दार	-9.76087
▁दूरी	-9.7611
वार	-9.76332
फ़	-9.76347
▁अवैध	-9.76379
▁पुराने	-9.76458
▁इंतजार	-9.76555
▁2013	-9.76713
▁गेंदबाज	-9.76723
▁जाएं	-9.76814
▁खो	-9.7711
तो	-9.77192
▁लगने	-9.77291
▁करा	-9.77359
▁किन्तु	-9.77439
▁ग्रहण	-9.77465
▁प्राचीन	-9.7752
al	-9.77687
▁डिजाइन	-9.77744
▁अमिताभ	-9.77872
▁लड़	-9.77902
डा	-9.77918
▁बढ़ने	-9.77942
▁विस्तृत	-9.77983
▁प्राधिकरण	-9.78014
▁मुहैया	-9.78075
▁सहयोगी	-9.78154
▁खतरा	-9.78179
▁चारों	-9.78322
▁चौहान	-9.78381
▁बनर्जी	-9.78383
▁डा	-9.78471
▁रिजल्ट	-9.78586
▁चेक	-9.78607
▁64	-9.78723
▁ताकत	-9.78754
▁स्टेट	-9.78789
▁सत्य	-9.78847
▁पावर	-9.78856
▁बदला	-9.7887
▁आत्मा	-9.78972
▁औसत	-9.79018
▁संचार	-9.7907
▁लॉकडाउन	-9.79101
▁आयुक्त	-9.79162
▁ह	-9.79193
▁पहुंचने	-9.79197
▁फेसबुक	-9.79226
▁आकाश	-9.79243
▁मनाया	-9.79332
▁बिल्कुल	-9.79432
▁मानते	-9.7945
▁आसमान	-9.79674
▁48	-9.7969
▁रणवीर	-9.79741
▁संस्था	-9.79768
▁शनिवार	-9.79956
▁जिम्मेदार	-9.80036
▁कक्षा	-9.80107
▁ब्रिटिश	-9.80158
▁धन्यवाद	-9.80243
▁मनमोहन	-9.80248
▁प्रतिनिधि	-9.80378
▁दास	-9.80423
▁खेला	-9.80426
▁दिल्‍ली	-9.8045
▁संहिता	-9.80464
▁चुना	-9.80483
ंट	-9.80495
▁वर्ल्ड	-9.80576
▁त	-9.80714
▁परिसर	-9.80714
▁1,	-9.80865
▁जोखिम	-9.8087
▁सचिन	-9.80902
▁आलोचना	-9.80974
▁महीनों	-9.81093
▁इंसान	-9.81126
िका	-9.81137
C	-9.81149
▁2012	-9.81179
▁साझेदारी	-9.81235
▁मु	-9.81242
▁मुकदमा	-9.8129
▁अगली	-9.8131
▁कु	-9.81369
▁खड़ा	-9.81402
▁राजस्व	-9.8143
▁लगाई	-9.81478
▁स्वस्थ	-9.81478
▁भट्ट	-9.81542
▁गरीब	-9.81624
▁जल्दी	-9.81748
दी	-9.8175
ँ	-9.81762
▁एफ	-9.81852
▁एक्स	-9.81862
▁कर्ज	-9.81874
▁बल्लेबाजी	-9.82036
▁डि	-9.82043
B	-9.82044
▁पेट्रोलियम	-9.82056
▁बढ़त	-9.82057
▁सेल	-9.82092
▁वेतन	-9.82102
▁आउट	-9.82115
शन	-9.82216
▁न्यू	-9.8224
▁कमेटी	-9.82244
▁जायेगा	-9.82251
▁मर	-9.82294
▁गोली	-9.82307
▁फ	-9.82391
▁बीसीसीआई	-9.82455
▁बुरा	-9.82476
▁मसीही	-9.8252
▁निश्चय	-9.82523
▁बैटरी	-9.82565
▁बचा	-9.82572
▁मृत	-9.82676
▁पेंशन	-9.82804
ीकरण	-9.82832
▁मुद्दा	-9.82885
▁ढंग	-9.82887
▁सामान	-9.82994
िल	-9.83027
▁C	-9.83079
▁तुमसे	-9.83168
▁कहां	-9.83188
एम	-9.83294
▁एक्टर	-9.83299
▁मरीजों	-9.83494
▁उत्तरी	-9.83721
▁मुद्रा	-9.83759
िए	-9.83781
▁ट्रक	-9.83846
▁देखभाल	-9.83854
▁सैनिकों	-9.83858
रो	-9.83872
वाद	-9.83903
ीन	-9.83979
▁रास्ते	-9.83996
▁क्लिक	-9.84077
▁हवा	-9.8411
जब	-9.84142
▁पड़ी	-9.84166
▁प्राथमिकता	-9.84197
▁विजेता	-9.8427
▁नियुक्ति	-9.84329
▁बोले	-9.84386
▁पूर्वोत्तर	-9.8442
▁दुख	-9.84466
i	-9.84486
▁ऐलान	-9.84615
▁आपदा	-9.84688
सर	-9.84693
▁थाने	-9.84704
बार	-9.84704
▁दोबारा	-9.84744
▁प्रकट	-9.84828
▁सुशांत	-9.84832
▁पदों	-9.84905
▁गेंदबाजी	-9.85055
▁प्रमाण	-9.8509
▁ग्राहकों	-9.85116
ंड	-9.85176
▁पवार	-9.85278
▁प्रदूषण	-9.85284
▁समुद्र	-9.8535
स्थल	-9.85361
▁पकड़	-9.85441
▁रविवार	-9.85517
▁अरुण	-9.85539
▁45	-9.85572
▁""""	-9.8561
▁सकारात्मक	-9.8561
▁P	-9.85632
वि	-9.85649
▁आंकड़ों	-9.85709
ंत	-9.85751
▁अकाउंट	-9.85759
▁कहती	-9.85881
▁तोड़	-9.86033
निस	-9.86219
▁माहौल	-9.86263
▁ममता	-9.86289
▁निर्भर	-9.86458
▁हित	-9.86459
▁मालिक	-9.86477
▁सूचकांक	-9.86484
▁वास्ते	-9.86485
▁ज्यादातर	-9.86507
▁रेड्डी	-9.86527
▁रियर	-9.86532
▁ओलंपिक	-9.86595
▁राजपूत	-9.86595
▁जमकर	-9.86602
▁सिफारिश	-9.86652
▁श	-9.86657
▁शेष	-9.86671
▁उपाय	-9.86677
▁कठिन	-9.86719
ेशन	-9.86776
▁गो	-9.86806
▁बेहतरीन	-9.86965
▁समर्पित	-9.8704
▁जलवायु	-9.87043
▁शीघ्र	-9.87049
दूसरे	-9.87132
दो	-9.87207
▁मना	-9.87209
ति	-9.87383
▁शिव	-9.87387
हर	-9.87395
▁खाने	-9.87409
▁हुक्म	-9.87412
▁रूपये	-9.87621
▁घटनाओं	-9.87704
▁शराब	-9.87856
▁गिर	-9.87881
▁सुनील	-9.87975
▁बनाम	-9.88137
▁भेजे	-9.8815
▁निकट	-9.88208
▁धवन	-9.88278
▁टीमों	-9.88297
▁सड़कों	-9.88317
▁श्रम	-9.88364
▁अप	-9.88445
▁प्रभार	-9.88559
▁निम्नलिखित	-9.8873
▁कपिल	-9.88761
▁वचन	-9.8877
▁महिलाएं	-9.8881
▁डाउनलोड	-9.88843
▁प्लान	-9.88912
▁स्वतंत्र	-9.88919
▁सुविधाओं	-9.89031
▁पुस्तक	-9.8905
▁अतः	-9.8912
▁अमरीकी	-9.89217
▁प्रतिनिधित्व	-9.89316
▁जवानों	-9.89337
▁खेलने	-9.89348
▁हथियार	-9.89494
▁शोक	-9.89515
▁मा	-9.89534
▁लाए	-9.89574
▁लेख	-9.89634
▁मेट्रो	-9.89648
▁स्वामी	-9.89675
▁पक्षों	-9.89711
▁विद्युत	-9.89736
▁करीना	-9.89764
▁उत्तराखंड	-9.89778
▁दम	-9.8981
▁टैक्स	-9.89821
t	-9.89853
▁विचारों	-9.89874
▁वर्मा	-9.89881
▁दिखा	-9.89945
▁मेहनत	-9.90002
▁दंड	-9.90015
▁पुत्र	-9.9004
▁निर्देशन	-9.90182
▁पेज	-9.90323
▁सुना	-9.90374
▁हटा	-9.90475
▁तुमने	-9.90534
▁आसानी	-9.90567
▁वैसे	-9.90597
▁पुणे	-9.90602
▁अन्‍य	-9.90682
▁अनुष्का	-9.90697
▁ऑफिस	-9.90742
▁लघु	-9.90818
I	-9.90819
▁आखिर	-9.90854
▁गठित	-9.90858
▁लौट	-9.90867
▁बैठे	-9.9097
अपने	-9.91074
▁कटौती	-9.91144
▁प्रकृति	-9.91172
▁स्वर्ण	-9.91241
▁नीतीश	-9.9126
िस	-9.91276
▁अभ्यास	-9.91376
▁तुमको	-9.91483
▁खेलों	-9.91512
▁ल	-9.91701
▁सन्	-9.91722
▁मालूम	-9.91728
▁कितना	-9.9173
▁सौंप	-9.91764
आई	-9.91793
▁महा	-9.91795
▁डोनाल्ड	-9.91844
▁काबू	-9.91862
▁मनोहर	-9.91863
▁तंत्र	-9.91886
▁डिस्प्ले	-9.9189
▁करण	-9.91906
▁प्रशासनिक	-9.9202
▁बाइक	-9.92103
पन	-9.92134
▁इंच	-9.92144
▁चुनावी	-9.9216
्‍स	-9.92334
▁शतक	-9.92362
▁प्राथमिक	-9.9242
▁शक	-9.92457
▁बीते	-9.92539
▁75	-9.92678
▁सर्वोच्च	-9.92803
▁अन	-9.92898
▁ठाकरे	-9.92904
▁देखकर	-9.92931
▁संस्करण	-9.93043
▁वस्तुओं	-9.93049
▁पौलुस	-9.93141
▁अनुरूप	-9.93151
डे	-9.93163
▁लोकप्रिय	-9.932
▁कार्यकर्ता	-9.93264
▁90	-9.93336
▁होटल	-9.93436
▁सर्वेक्षण	-9.93499
▁स्रोत	-9.93538
▁लेखक	-9.93541
▁कायम	-9.9369
▁पूंजी	-9.93701
▁इनकी	-9.93716
▁कार्यवाही	-9.9374
▁निर्मित	-9.9383
▁पार्क	-9.93854
▁प्रोत्साहित	-9.93856
▁थोड़ा	-9.93883
ेड	-9.9396
▁बहस	-9.93977
▁ढांचे	-9.93981
▁करवाया	-9.94051
▁हाथों	-9.94068
हा	-9.94087
▁अपेक्षा	-9.94191
▁सिद्धांत	-9.94209
▁बदले	-9.94256
▁चोरी	-9.94315
▁तरीका	-9.94335
▁इतने	-9.94352
▁चली	-9.94476
▁समूहों	-9.94532
ेज	-9.94574
▁परामर्श	-9.94603
▁लि	-9.94623
▁सपोर्ट	-9.947
वाला	-9.94827
मन	-9.94832
▁कौर	-9.94874
▁काल	-9.9492
▁...	-9.94956
▁चलाने	-9.94977
er	-9.95111
▁जिनका	-9.95123
▁प्रदर्शित	-9.95182
कारी	-9.95253
▁मोहन	-9.95294
▁लखनऊ	-9.9534
▁हद	-9.95344
▁तीसरा	-9.95426
▁हिस्सेदारी	-9.95434
▁370	-9.95451
▁फसल	-9.95503
▁यौन	-9.95544
▁प्रसिद्ध	-9.95585
सन	-9.95664
▁सच्चाई	-9.95685
▁तिथि	-9.95709
ाई	-9.95721
▁वस्तु	-9.95736
▁2011	-9.95763
▁समझा	-9.95873
▁जाओ	-9.95908
▁जिंदगी	-9.95909
▁कैंसर	-9.95915
▁बिग	-9.95968
नि	-9.95994
▁अधिकारों	-9.96
▁स्थायी	-9.96086
▁कोविंद	-9.96154
▁आंतरिक	-9.96176
’’	-9.96214
स्ट	-9.96276
▁प्रदेशों	-9.96675
▁रास्ता	-9.9668
▁अहमदाबाद	-9.96711
वालों	-9.96783
▁शैतान	-9.96801
▁यूरोपीय	-9.96813
▁निर्देशक	-9.96877
▁लिंक	-9.96945
▁तभी	-9.97019
▁मानक	-9.97055
▁जोड़ी	-9.97062
▁स्थिर	-9.97064
▁एशियाई	-9.97078
▁लड़ने	-9.97081
▁निरंतर	-9.9721
▁पड़ेगा	-9.97282
▁प्रसारण	-9.97393
▁नेहरू	-9.974
▁क्रेडिट	-9.9741
ेंगे	-9.97438
▁सकेंगे	-9.97449
▁टक्कर	-9.97508
▁आलिया	-9.97535
▁जयंती	-9.97569
क्या	-9.97574
▁पैसा	-9.97795
ेट	-9.97851
▁आतंकवादियों	-9.97967
▁एक्सप्रेस	-9.98018
▁बचाने	-9.98047
▁दर्शन	-9.98098
पाल	-9.98142
▁33	-9.98145
▁परेशानी	-9.98153
T	-9.98232
ै	-9.98257
ऊ	-9.98431
बे	-9.98454
वां	-9.98458
▁कर्मियों	-9.98493
▁प्रणब	-9.98508
▁अनुकूल	-9.98523
▁परंतु	-9.98525
▁मण्डल	-9.98628
▁वक्‍त	-9.9876
▁संग्रह	-9.98855
▁रणनीति	-9.98864
▁बदलने	-9.98916
▁कैमरे	-9.98917
▁माँ	-9.98965
▁एसोसिएशन	-9.99133
▁रु	-9.99145
▁क़ौम	-9.99179
▁आएगा	-9.99194
▁खुले	-9.99215
▁बढ़ाया	-9.99315
c	-9.99328
हो	-9.99328
▁उपभोक्ता	-9.99376
▁हार्दिक	-9.99396
▁संकल्प	-9.99512
▁मुख्यालय	-9.99524
सं	-9.99555
▁सेट	-9.99558
▁पे	-9.99656
▁केंद्रित	-9.99667
▁करियर	-9.99674
भी	-9.99825
▁आध्यात्मिक	-9.99841
▁संचालित	-9.99893
▁36	-9.9991
क्स	-9.99958
▁किमी	-9.99965
▁जय	-9.99983
▁डॉक्टरों	-9.99999
▁राष्‍ट्रपति	-10.0003
▁सिटी	-10.001
▁विषयों	-10.0013
▁एजेंसियों	-10.0015
▁तिमाही	-10.0015
▁कीजिए	-10.0015
▁गर्व	-10.0015
▁मरने	-10.0016
▁निंदा	-10.0016
▁F	-10.0039
▁यातायात	-10.004
▁गौरतल	-10.0053
▁गृहमंत्री	-10.0054
▁सीजन	-10.0056
ात्मक	-10.0057
▁चिदंबरम	-10.0067
▁तट	-10.0067
▁कितनी	-10.0079
▁मसीह	-10.0082
▁अधिकतर	-10.0083
▁ज्ञापन	-10.0084
▁शिकार	-10.0085
▁सर्वाधिक	-10.0086
▁चुनौतियों	-10.0091
▁चैनल	-10.0094
▁मि	-10.0098
▁वादा	-10.0098
▁प्रस्तावित	-10.0101
▁गाने	-10.0103
▁साक्षी	-10.0104
▁तीसरी	-10.0105
▁ऐप	-10.0107
▁आमिर	-10.0107
▁आत्महत्या	-10.0117
▁घाटी	-10.0126
▁उड़ान	-10.013
▁सैनिक	-10.0139
▁जानें	-10.014
▁खतरे	-10.0143
▁सपा	-10.0147
▁इंजीनियरिंग	-10.0157
▁एकता	-10.0161
मान	-10.0161
▁हटाने	-10.0162
▁मनोज	-10.017
मैन	-10.0174
▁नामक	-10.0174
▁जिनकी	-10.0176
▁गडकरी	-10.0182
▁पादुकोण	-10.0182
▁आकर	-10.0186
▁प्रभु	-10.019
▁मित्र	-10.0193
▁एच	-10.0199
▁आयु	-10.02
▁इसको	-10.0201
▁माफी	-10.0206
्‍	-10.0209
▁लिखे	-10.0216
▁चीज	-10.0216
▁मांगी	-10.0218
▁सबूत	-10.0222
▁स्वच्छता	-10.0229
▁सालों	-10.0229
पिता	-10.0233
▁श्रद्धांजलि	-10.0233
▁शुरुआती	-10.0237
▁कारोबारी	-10.024
▁पैमाने	-10.0248
▁रेखा	-10.0252
ॉ	-10.0259
▁इंटरनेशनल	-10.0261
▁वायुसेना	-10.0273
तमाम	-10.0278
▁वाणिज्य	-10.0281
▁T	-10.0283
▁ठोस	-10.0286
▁आदर्श	-10.0288
▁संरचना	-10.03
▁स्क्रीन	-10.0301
नगर	-10.0303
▁हिसाब	-10.0312
▁विभागों	-10.0312
▁छोटा	-10.0314
▁कोयला	-10.0314
▁लिस्ट	-10.0318
▁फीसद	-10.0319
▁2010	-10.0323
▁एफआईआर	-10.0325
▁दस्तावेज	-10.0338
▁प्रोफेसर	-10.0339
▁कार्यकाल	-10.0341
p	-10.0348
▁विभिन्‍न	-10.0364
गो	-10.0367
▁सहमत	-10.0368
▁रहीं	-10.0371
▁ओपन	-10.0393
▁रहो	-10.0393
▁गौर	-10.0403
▁शरीफ	-10.0406
▁पोर्टल	-10.0406
▁मृतक	-10.0406
▁उ	-10.0423
▁रुख	-10.043
▁प्रारंभ	-10.043
▁लाखों	-10.0432
▁2009	-10.0438
▁तमिल	-10.0444
▁क्रिकेटर	-10.0449
ing	-10.045
लो	-10.0452
▁दीपक	-10.0452
▁नव	-10.0455
▁प्रोत्साहन	-10.0458
▁दूध	-10.0459
▁महात्मा	-10.046
▁शाखा	-10.0483
▁सर्व	-10.0485
▁कॉल	-10.0491
▁सुरेश	-10.0492
जन	-10.0496
▁उल्लेखनीय	-10.0497
▁रिलायंस	-10.0498
▁खाली	-10.0501
िश	-10.0502
यर	-10.053
▁निधि	-10.0536
▁मात्र	-10.0538
▁कंप्यूटर	-10.0539
▁पूछे	-10.055
▁प्रभारी	-10.0551
▁अमरीका	-10.0567
▁फॉर	-10.0571
▁स्व	-10.0577
▁घंटों	-10.0578
▁देखना	-10.0578
▁शारीरिक	-10.058
▁दर्शकों	-10.0586
▁पीड़िता	-10.059
▁150	-10.059
▁स्टेडियम	-10.0591
वादी	-10.0594
▁एकमात्र	-10.0596
▁जताया	-10.0605
▁विधान	-10.0611
▁परिचालन	-10.0619
▁यूरोप	-10.0623
-2	-10.0628
▁वेस्टइंडीज	-10.0633
▁खाना	-10.0637
▁मानसिक	-10.0639
▁वर्षा	-10.064
▁कलाकार	-10.0642
▁आदित्यनाथ	-10.0645
▁आपराधिक	-10.0651
▁बहुमत	-10.0673
▁यूजर्स	-10.0675
▁अयोध्या	-10.0688
▁खेले	-10.0691
▁साथी	-10.0691
▁मिसाल	-10.0698
▁अंग	-10.0698
नाज़िल	-10.07
▁प्रोसेसर	-10.0701
▁पंचायत	-10.071
▁रणबीर	-10.0713
▁श्रीनगर	-10.0717
▁अदा	-10.0721
▁अज्ञात	-10.0727
▁परिस्थितियों	-10.0727
▁स्कोर	-10.0727
▁फीचर्स	-10.0731
▁34	-10.0736
L	-10.0737
विमर्श	-10.074
▁अधिसूचना	-10.0741
▁प्रत्याशी	-10.0741
▁भू	-10.0743
▁कृष्ण	-10.0746
▁बादल	-10.0754
▁चालू	-10.0755
▁कर्म	-10.0757
▁अंकों	-10.0764
▁बढ़ते	-10.0766
▁गांवों	-10.0767
▁आमंत्रित	-10.0768
▁रकम	-10.0769
▁बलात्कार	-10.077
▁बॉस	-10.0781
▁सीसीटीवी	-10.0782
▁धमकी	-10.0782
▁मंडल	-10.0786
▁केन्‍द्रीय	-10.0799
टा	-10.0803
▁एयरपोर्ट	-10.081
▁चौथे	-10.081
▁G	-10.0811
▁खाता	-10.0815
▁0	-10.0824
▁M	-10.0824
▁अनु	-10.0825
▁ऑटो	-10.0827
ेश	-10.083
दर	-10.0834
▁सृजन	-10.0838
वन	-10.0838
हमने	-10.0841
▁विश्‍व	-10.0845
ार	-10.0848
▁बच	-10.0854
▁संभावित	-10.0867
ठ	-10.0872
▁समुद्री	-10.0874
▁देखी	-10.0878
पूर्व	-10.0881
▁सरदार	-10.0884
▁आवाज	-10.089
▁पटना	-10.0897
पा	-10.0902
▁दिवसीय	-10.0904
▁प्रांत	-10.0908
▁डेविड	-10.0909
ेगा	-10.0917
▁जिक्र	-10.092
K	-10.0921
▁जानिए	-10.0922
▁भाषाओं	-10.0929
▁चुने	-10.093
▁संक्रमित	-10.0936
▁मेल	-10.0947
▁आइए	-10.0951
▁क्रम	-10.0951
▁सूचित	-10.0952
▁निभा	-10.0952
▁जुड़ा	-10.0954
▁जगत	-10.096
गत	-10.096
▁दिग्गज	-10.0964
▁चीजें	-10.0965
▁पत्रकार	-10.0968
▁कंपनियां	-10.0976
▁नतीजे	-10.099
▁स्वच्छ	-10.1004
▁तेरे	-10.1004
▁प्रशंसा	-10.1005
▁भूल	-10.1007
ष	-10.1018
▁तर्क	-10.1026
▁हाँ	-10.103
▁ज़िंदगी	-10.1033
▁बढ़ाकर	-10.1044
▁बताई	-10.1046
▁आस्ट्रेलिया	-10.1047
▁झूठ	-10.1051
▁गोल	-10.1055
▁सागर	-10.1058
▁लाइसेंस	-10.1073
▁कितने	-10.1075
▁कनाडा	-10.1075
▁बेटा	-10.1076
▁सीईओ	-10.108
छ	-10.1092
▁शिक्षक	-10.1094
▁अनुसूचित	-10.1095
▁जाहिर	-10.1105
▁विस्फोट	-10.1107
घ	-10.1113
ौ	-10.1116
▁नितिन	-10.1117
▁आईसीसी	-10.1121
▁दक्षिणी	-10.1128
▁मुठभेड़	-10.1132
▁ज़रूरी	-10.1137
▁सम	-10.1139
▁300	-10.1142
मेंट	-10.1145
नाथ	-10.1153
▁पढ़ाई	-10.1162
▁मो	-10.1173
▁आह्वान	-10.1174
▁परमेश्वर	-10.1174
▁साहित्य	-10.1177
▁बॉक्स	-10.1178
▁गाड़ी	-10.118
स्	-10.1186
▁रमेश	-10.1189
▁कच्चे	-10.1189
▁गुण	-10.119
▁बैरल	-10.119
▁घटक	-10.1192
ध	-10.1201
▁संदिग्ध	-10.1205
▁भूकंप	-10.1217
गे	-10.1222
▁भरा	-10.1223
▁बैंकिंग	-10.1228
▁युग	-10.1229
▁अग्रवाल	-10.1232
"""	-10.1233
▁हवाले	-10.1233
▁?	-10.1238
▁दिख	-10.1244
▁हालाँकि	-10.1249
ही	-10.1251
▁N	-10.1253
▁ज़रूर	-10.1265
▁राज्‍यों	-10.1266
▁उद्यम	-10.127
▁अति	-10.1271
▁मुझ	-10.1278
▁सौर	-10.1285
▁डायरेक्टर	-10.1287
▁आंकड़े	-10.1304
▁खा	-10.1304
▁पुल	-10.1307
▁योग्यता	-10.1314
▁संवाद	-10.1314
▁2021	-10.132
▁जोशी	-10.133
▁हितों	-10.1338
▁गुना	-10.134
पत्र	-10.1348
▁मलिक	-10.1368
▁कोष	-10.1378
मो	-10.1378
ियो	-10.1379
▁इसने	-10.1382
▁द्वीप	-10.1384
▁जियो	-10.1387
▁गूगल	-10.1395
▁एक्ट	-10.1396
ुल	-10.1397
▁स्पेशल	-10.1398
▁विशेषज्ञ	-10.1404
▁भेजने	-10.1418
▁तिवारी	-10.142
▁अध्‍यक्ष	-10.142
▁उपायों	-10.1426
ड़ी	-10.1426
▁भय	-10.1426
▁यूनियन	-10.1435
▁बि	-10.1436
▁रनों	-10.1436
▁शरद	-10.1437
▁मशीन	-10.1437
▁स्टॉक	-10.1437
▁दिखाने	-10.1439
ेन	-10.1448
▁पुरानी	-10.145
▁नियंत्रित	-10.1452
▁दोपहर	-10.1464
आप	-10.147
-1	-10.1472
▁बरकरार	-10.1479
▁लड़कियों	-10.1481
▁स्मृति	-10.1481
▁संशोधित	-10.1482
▁व्यवसाय	-10.1491
▁रवाना	-10.1494
▁दरअसल	-10.1496
▁पायलट	-10.1502
▁भारतीयों	-10.1504
▁मद्देनजर	-10.1523
▁संसार	-10.1524
▁रेड	-10.1528
वाले	-10.1532
▁खेती	-10.1533
b	-10.1534
कप्तान	-10.1541
▁अस्पतालों	-10.1542
▁निकाला	-10.1545
▁हुईं	-10.1552
▁सीतारमण	-10.1553
▁खिताब	-10.1553
▁सुन	-10.1555
▁जागरूकता	-10.1556
▁सुविधाएं	-10.1557
बल	-10.1557
▁प्रतिबद्ध	-10.1565
▁डाटा	-10.1568
▁उतर	-10.1579
▁नामांकन	-10.1584
10	-10.1591
▁दौड़	-10.1598
▁पंजीकरण	-10.1598
▁कमाई	-10.1607
▁अचानक	-10.1613
▁साउथ	-10.1614
▁केंद्रों	-10.1617
▁जानने	-10.162
▁संसाधनों	-10.1621
▁गहरा	-10.1626
▁विपरीत	-10.1627
▁रुप	-10.1639
▁कुलदीप	-10.1644
▁बसपा	-10.1647
▁ब्लैक	-10.1647
▁चाहिये	-10.1658
▁मस्जिद	-10.1661
बर	-10.1662
▁पहुंचाने	-10.1669
▁पेशकश	-10.1673
▁Pro	-10.1673
▁इनका	-10.1676
▁पड़ोसी	-10.1677
शा	-10.1689
▁जीवित	-10.1697
▁आशंका	-10.17
▁भारती	-10.1706
▁धीरे	-10.1712
D	-10.1713
जीत	-10.1713
▁विरासत	-10.1718
▁सच्चे	-10.1718
पिछली	-10.1718
▁शाहिद	-10.1718
▁बाहरी	-10.1721
▁उपस्थिति	-10.1727
मत	-10.1727
▁उपकरणों	-10.1731
▁R	-10.1732
▁जगहों	-10.1734
an	-10.1734
▁अकेले	-10.1738
▁बहु	-10.1749
▁सेल्फी	-10.175
▁रॉय	-10.1752
▁रिसर्च	-10.1763
▁लॉ	-10.1771
▁बनाये	-10.1772
ड़ा	-10.1774
▁कार्यान्वयन	-10.1778
▁प्रतिनिधियों	-10.178
▁सदी	-10.1794
▁प्रत्यक्ष	-10.1794
▁जज	-10.1798
▁र	-10.1805
▁निवेशकों	-10.1807
▁कैप्टन	-10.1811
▁हराया	-10.1813
▁समझते	-10.1817
▁कलर	-10.1827
▁जोड़ने	-10.1836
▁समझने	-10.1837
▁लिखी	-10.185
उस	-10.1851
▁आपस	-10.1852
▁खरीदने	-10.1852
th	-10.1856
▁तूफान	-10.1859
▁पैनल	-10.1859
▁पहुंचाया	-10.186
▁गीत	-10.186
▁37	-10.1865
▁खासकर	-10.1869
▁सैफ	-10.187
▁बोली	-10.1879
▁हजारों	-10.1882
▁अखिल	-10.1885
▁मशहूर	-10.1885
▁अभि	-10.1886
रों	-10.19
▁समग्र	-10.1901
▁निर्मला	-10.1903
▁ईंधन	-10.1903
▁चंद्र	-10.1906
vs	-10.1911
वाल	-10.193
▁आये	-10.1932
▁पारंपरिक	-10.1934
▁मुसलमानों	-10.1937
▁इस्लाम	-10.1946
▁प्राप्‍त	-10.1947
▁आकलन	-10.1948
▁खुल	-10.1949
▁प्राइवेट	-10.1964
▁रे	-10.1976
▁आयकर	-10.1977
▁च	-10.1977
▁उपयुक्त	-10.1978
▁अटल	-10.1979
▁सर्विस	-10.1983
▁जयपुर	-10.1984
▁स्वराज	-10.199
▁आस	-10.1992
ानी	-10.1997
अप	-10.1999
▁फाइल	-10.2002
▁देगी	-10.2007
▁यातना	-10.2009
▁ज़िले	-10.2009
▁मुझसे	-10.201
▁प्रतिबद्धता	-10.2012
▁इंदिरा	-10.2027
▁संदेह	-10.203
ात	-10.2033
▁टीमें	-10.2034
▁बाप	-10.2036
▁वित्‍त	-10.204
N	-10.204
▁भेंट	-10.204
▁मृतकों	-10.204
▁उन्हीं	-10.2043
▁प्रसार	-10.2044
▁आएगी	-10.2062
▁तथ्य	-10.2064
m	-10.2066
यां	-10.2087
▁रैंकिंग	-10.2088
▁सुख	-10.2088
▁करूंगा	-10.2093
▁मणिपुर	-10.2103
▁दवा	-10.211
▁शेयरों	-10.2115
▁मरीज	-10.2122
▁सबको	-10.213
▁प्रदर्शनकारियों	-10.2134
वान	-10.2141
▁भले	-10.2153
▁42	-10.2156
▁ठहराया	-10.2166
▁बाजारों	-10.2171
▁सकी	-10.2178
▁एक्सचेंज	-10.2181
▁आंकड़ा	-10.2197
▁वायदा	-10.2197
▁गुरुवार	-10.22
▁यकीन	-10.2203
▁ऑपरेशन	-10.2204
▁हृदय	-10.2217
▁मध्यम	-10.2218
▁शुद्ध	-10.2229
▁तेंदुलकर	-10.223
▁अभिषेक	-10.223
▁एकल	-10.2236
▁टॉप	-10.2241
,999	-10.2243
▁गर्म	-10.2247
ेस	-10.2247
▁बम	-10.2253
▁सिनेमा	-10.226
▁लद्दाख	-10.2263
▁स्‍वास्‍थ्‍य	-10.2263
▁स्मार्ट	-10.2267
▁एसपी	-10.2267
▁सुषमा	-10.2278
▁आना	-10.2279
▁गवर्नर	-10.228
▁सुभाष	-10.2292
▁विनिर्माण	-10.2293
▁शुभ	-10.2293
▁आजाद	-10.2298
कर्ता	-10.2303
▁128	-10.2308
▁संग	-10.2309
▁दान	-10.2316
▁सफाई	-10.232
▁मोटर	-10.2323
नो	-10.2331
▁जीतकर	-10.2339
▁प्रेरणा	-10.2341
▁दूरसंचार	-10.2341
▁कानूनों	-10.2345
▁स्त्री	-10.2349
▁दोस्तों	-10.2358
▁सिंगापुर	-10.2359
▁उपबंध	-10.2359
▁स्टाफ	-10.2361
▁नीतियों	-10.2362
रू	-10.2364
▁हिन्दी	-10.2365
▁हक़	-10.2369
▁फ़ाइल	-10.2376
▁भाइयों	-10.2376
▁एप	-10.238
▁शुरु	-10.2389
▁कवर	-10.239
▁मिट्टी	-10.2391
▁सरल	-10.2393
▁नवीन	-10.2409
▁दर्द	-10.2412
▁बनाते	-10.2413
▁आभार	-10.2413
▁पत्रकारों	-10.242
मैंने	-10.2421
▁शैक्षणिक	-10.2422
▁डाक	-10.2431
▁सि	-10.2433
▁रामनाथ	-10.2433
▁तत्व	-10.2434
▁विशेषज्ञों	-10.2434
▁झटका	-10.2438
▁संग्रहण	-10.244
▁एकीकृत	-10.2453
▁विश्लेषण	-10.2455
करण	-10.2467
▁फीस	-10.2468
▁महेंद्र	-10.247
▁हड़ताल	-10.2472
▁जोड़ा	-10.2473
▁उतार	-10.2483
▁हस्तक्षेप	-10.2486
▁कैसा	-10.2487
▁निर्धारण	-10.2492
▁निकाय	-10.2493
▁क्लब	-10.2496
▁चांदी	-10.2499
▁मिलाकर	-10.2501
▁फैंस	-10.2503
▁प्रतीक	-10.2513
▁उद्योगों	-10.2518
▁सऊदी	-10.2521
▁वाणिज्यिक	-10.2529
▁छानबीन	-10.2535
▁होम	-10.255
▁शेट्टी	-10.2551
▁जाये	-10.2554
▁आज्ञा	-10.2555
▁जॉन	-10.2557
▁उधर	-10.2559
▁हां	-10.2562
▁गोलीबारी	-10.2568
▁ईश्वर	-10.2569
ान	-10.2571
▁शुभारंभ	-10.2584
▁कल्पना	-10.2585
▁कमान	-10.259
▁ग्राहक	-10.2597
▁2008	-10.2597
▁मार्गदर्शन	-10.2601
क़	-10.2616
▁भोपाल	-10.2617
▁स्वरूप	-10.2629
▁पाठ	-10.2629
▁आमतौर	-10.2638
▁स्मिथ	-10.2639
▁एनसीपी	-10.2642
काल	-10.2648
n	-10.265
▁जनसंख्या	-10.2653
▁उत्‍पादन	-10.2654
▁देखिए	-10.2656
▁निर्देशित	-10.2663
▁किशोर	-10.2664
▁सुंदर	-10.2666
▁बच्ची	-10.2667
▁जब्त	-10.2681
▁पल	-10.2682
▁पांडे	-10.2682
▁बिजनेस	-10.2683
▁थोड़ी	-10.2684
▁चीजों	-10.2684
▁अत्यधिक	-10.2685
▁जहाज	-10.2689
▁बह	-10.2693
▁65	-10.2698
▁शिक्षकों	-10.2698
▁सामूहिक	-10.2701
▁आतंकियों	-10.2702
▁38	-10.2704
▁सांसदों	-10.2717
▁ज़ाहिर	-10.272
▁दायरे	-10.2724
▁लालू	-10.2724
▁प्रतिभा	-10.2727
▁आईटी	-10.2727
▁इंस्टीट्यूट	-10.2734
▁अंजाम	-10.2734
▁आजादी	-10.2738
▁करेंगी	-10.2741
टर	-10.2742
▁भिन्न	-10.2742
▁लुक	-10.2746
▁राजकुमार	-10.2747
H	-10.2748
▁मूल्यांकन	-10.2751
▁जरूर	-10.2756
▁पुरुषों	-10.2758
M	-10.2762
ऋ	-10.2767
▁44	-10.2768
लाल	-10.2781
ar	-10.2784
▁उक्त	-10.2787
▁सिख	-10.279
▁वैज्ञानिकों	-10.28
ेल	-10.2807
ियन	-10.2809
रूप	-10.2822
▁तरीकों	-10.2826
▁I	-10.2827
▁बेस्ट	-10.2827
▁फॉर्म	-10.2829
▁ब्यूरो	-10.2835
▁लेता	-10.2842
▁\""	-10.2842
▁किलो	-10.285
▁आपसी	-10.2862
▁वातावरण	-10.2868
▁सीनियर	-10.2869
▁प्रारंभिक	-10.2875
▁आकर्षित	-10.2885
▁संबोधन	-10.2885
▁अधीक्षक	-10.2886
▁वेब	-10.2891
▁कैद	-10.2895
▁महिंद्रा	-10.2902
▁अंबानी	-10.2902
▁सुश्री	-10.2903
▁रेप	-10.2904
F	-10.2907
▁पोर्ट	-10.2911
▁प्रोजेक्ट	-10.2915
▁आरएसएस	-10.2932
▁सोचा	-10.2932
▁मकसद	-10.2936
▁किलोग्राम	-10.2936
▁India	-10.2938
▁लेन	-10.2938
▁मुफ्त	-10.295
▁औ	-10.2951
▁अध्याय	-10.2955
▁स्‍तर	-10.2965
रेन्‍द्र	-10.2968
भाजपा	-10.297
on	-10.297
ed	-10.2972
▁त्रिपुरा	-10.2973
▁बढ़ी	-10.2974
▁विद्यालय	-10.2983
▁सदस्यीय	-10.2983
▁लीड	-10.2983
१	-10.2988
▁गंभीरता	-10.2992
वाई	-10.2992
शी	-10.3001
▁दु	-10.3007
▁यक़ीनन	-10.3009
▁संस्थाओं	-10.3009
▁पेट	-10.3013
▁उपलब्‍ध	-10.3016
▁निशान	-10.3016
▁जाएँगे	-10.3021
▁करीबी	-10.3029
W	-10.3038
▁पुनः	-10.304
मे	-10.3041
▁लगाते	-10.3045
्ट	-10.3046
▁व्यय	-10.3054
▁दैनिक	-10.3058
▁बेंगलुरु	-10.3059
▁मजबूती	-10.3061
▁संयंत्र	-10.3064
▁री	-10.3069
▁प्रावधानों	-10.307
▁सिद्धार्थ	-10.3074
▁बोला	-10.3083
▁सिद्ध	-10.3083
▁सफर	-10.3087
▁वारदात	-10.3091
▁पैकेज	-10.3092
फिर	-10.3094
▁बा	-10.3103
▁बचत	-10.3106
▁बो	-10.3106
▁संदीप	-10.3109
▁मनीष	-10.3113
▁गौतम	-10.3126
▁गलती	-10.3126
चा	-10.3128
खा	-10.313
▁पाते	-10.3134
▁पेड़	-10.3139
▁गोल्ड	-10.3141
▁मारा	-10.3141
▁आश्वासन	-10.3143
▁मिलेंगे	-10.3148
▁39	-10.3156
▁दर्जा	-10.3161
▁दत्त	-10.3163
▁छोड़ने	-10.3163
▁लड़के	-10.3168
▁जुटी	-10.318
▁पहुँचा	-10.3181
र्	-10.3191
▁बाबा	-10.3191
▁दाऊद	-10.3197
▁हिन्दू	-10.3199
▁आदान	-10.32
▁ब्रांड	-10.3203
▁मकान	-10.3204
▁खोल	-10.321
▁भ	-10.3213
▁ड्राइवर	-10.3213
▁खतरनाक	-10.3215
▁सूत्र	-10.3218
▁भरी	-10.3226
▁अतिथि	-10.323
▁संतोष	-10.323
ां	-10.3234
▁य	-10.3234
▁संस्थापक	-10.3238
▁आफ	-10.3247
▁औपचारिक	-10.3249
▁कंट्रोल	-10.326
▁यूनिट	-10.327
▁रानी	-10.3272
▁उपधारा	-10.3272
था	-10.3273
▁जीते	-10.3275
R	-10.3276
▁जुर्माना	-10.3283
▁राजदूत	-10.3283
▁उमर	-10.3292
▁अर्थात्	-10.3294
▁रीति	-10.3299
▁ता	-10.3304
▁रावत	-10.3307
▁आरोपित	-10.3314
19	-10.3316
▁राकेश	-10.3318
▁अवगत	-10.3319
▁कमांडर	-10.3319
▁शेख	-10.332
▁रेडियो	-10.332
▁तारीफ	-10.3334
▁रिश्ते	-10.3335
▁नवाचार	-10.3347
िम	-10.3352
▁मुकेश	-10.3372
▁जन्मदिन	-10.3372
▁बोझ	-10.3374
कों	-10.3384
▁पत्थर	-10.3385
एफ	-10.3387
▁जाएंगी	-10.3393
▁पदार्थ	-10.3396
▁चलाया	-10.34
▁भरने	-10.3403
रिया	-10.3406
▁वाराणसी	-10.341
▁ऑफर	-10.341
अगर	-10.3411
▁शैली	-10.3421
▁कैफ	-10.3423
f	-10.3432
▁नष्ट	-10.3432
▁अत्यं	-10.3443
▁सीधा	-10.3444
▁बीज	-10.3448
▁गुरु	-10.3449
तम	-10.3455
▁आरबीआई	-10.3456
▁पीढ़ी	-10.3462
ख़ुदा	-10.3464
▁रा	-10.3467
▁ईडी	-10.347
V	-10.3471
कभी	-10.3472
ाना	-10.3475
▁Redmi	-10.3479
▁हुसैन	-10.3479
▁समृद्ध	-10.3491
▁राजेश	-10.3499
▁55	-10.3503
▁आयी	-10.3523
▁प्रवासी	-10.3527
▁न्यूज	-10.3527
r	-10.3528
▁संवाददाताओं	-10.3535
11	-10.3555
▁सज़ा	-10.3556
▁ग्रीन	-10.3559
▁स्वीकृति	-10.3559
▁अमर	-10.3561
▁श्रद्धा	-10.3569
▁अगुवाई	-10.357
▁उन्‍हें	-10.3571
▁प्रतिष्ठित	-10.3571
▁51	-10.3571
▁किंग्स	-10.3573
."""	-10.358
टे	-10.3582
क्ष	-10.3587
ेंट	-10.3589
▁पुलवामा	-10.3589
▁व्हाइट	-10.3591
▁आत्म	-10.3599
कल	-10.36
▁कामयाब	-10.3604
▁प्रतिनिधिमंडल	-10.3606
▁चर्च	-10.3608
▁(1)	-10.3609
▁आरक्षण	-10.3625
▁सम्मिलित	-10.3625
▁बुलाया	-10.3626
▁सिद्धू	-10.3626
▁फ़	-10.3627
▁400	-10.3629
▁शिवराज	-10.363
▁गवाह	-10.3633
चर	-10.3638
देश	-10.3643
▁जैव	-10.3644
▁निम्न	-10.3644
फा	-10.3646
ास	-10.3647
▁खबरों	-10.3651
▁प्रतिदिन	-10.3651
▁सम्बन्ध	-10.3658
▁खूबसूरत	-10.3659
कम	-10.3659
▁K	-10.366
▁वरुण	-10.3661
▁इटली	-10.3664
र्ट	-10.3665
▁सेहत	-10.3669
▁नाथ	-10.3675
▁अभिनय	-10.3679
▁राफेल	-10.3679
▁सुनने	-10.3683
▁वाई	-10.3692
▁गु	-10.3694
▁निलंबित	-10.3698
▁इलाहाबाद	-10.3699
▁जाँच	-10.37
▁प्रवर्तन	-10.3702
▁सालाना	-10.3703
▁निभाई	-10.3703
▁साथियों	-10.3703
▁V	-10.3706
▁उपलब्धि	-10.3712
▁फिल्में	-10.3712
▁फ्री	-10.3715
▁मध्यप्रदेश	-10.3718
भाषा	-10.3719
▁रंजन	-10.372
▁भरे	-10.3723
▁करवा	-10.374
हमें	-10.3753
▁व्यावसायिक	-10.3755
▁मिसाइल	-10.3761
▁मुंह	-10.3763
▁लक्षण	-10.3769
▁तहसील	-10.377
▁सेंसेक्स	-10.3771
▁कृपया	-10.3781
▁52	-10.3781
र्क	-10.3783
▁पाठ्यक्रम	-10.3783
▁चेहरे	-10.379
▁हिंदुस्तान	-10.3793
▁महज	-10.3794
▁निकालने	-10.3797
▁उनपर	-10.38
▁दृश्य	-10.3804
▁इकाइयों	-10.3809
▁देरी	-10.3812
▁पढ़ने	-10.3812
▁वर्णन	-10.3815
▁इमारत	-10.3817
▁इस्पात	-10.3827
▁सेमीफाइनल	-10.3827
▁समाजवादी	-10.3832
▁पहुँच	-10.3832
▁घोटाले	-10.3846
▁परि	-10.385
ख़	-10.3855
▁रोज	-10.3855
▁पो	-10.386
▁पोषण	-10.3863
▁जौहर	-10.3863
▁हुये	-10.3865
▁सौंपा	-10.3866
▁यद्यपि	-10.3868
▁खोलने	-10.3873
▁सिलसिले	-10.3883
▁रो	-10.389
हमारे	-10.389
▁43	-10.389
▁सीख	-10.3891
लैंड	-10.39
▁छवि	-10.3902
▁वीजा	-10.3904
ंद	-10.3905
▁धोखाधड़ी	-10.3905
▁हमलों	-10.3908
▁रक्त	-10.391
▁पवन	-10.3922
▁सोना	-10.3927
तर	-10.3933
अब	-10.3933
यदि	-10.3936
▁गरीबी	-10.3938
▁मजबूर	-10.3939
▁खुफिया	-10.394
▁क्रिस	-10.394
ण्ड	-10.3942
''	-10.3947
▁निक	-10.3949
▁विशेषकर	-10.3954
▁अवस्था	-10.3955
▁प्लेटफॉर्म	-10.3959
▁ऑल	-10.3967
▁फीचर	-10.3972
▁ट्रेलर	-10.3978
▁अकादमी	-10.3979
▁पशु	-10.3979
▁रेट	-10.398
▁पहलू	-10.3983
▁खुला	-10.3996
▁किनारे	-10.3996
▁परिणामस्वरूप	-10.3997
▁शताब्दी	-10.3997
▁प्लस	-10.401
▁अमल	-10.4013
▁रिकार्ड	-10.4016
▁तुर्की	-10.4018
▁ट	-10.402
▁व्यस्त	-10.402
▁बंदरगाह	-10.4029
▁क्रमश	-10.4035
▁देवेंद्र	-10.4035
्या	-10.4047
ण्	-10.4051
▁टॉस	-10.4057
एच	-10.4057
▁माने	-10.407
▁हरा	-10.4072
▁साजिश	-10.4073
▁कामना	-10.4075
▁जर्मन	-10.4076
▁मुँह	-10.4096
प्रदान	-10.41
▁डालने	-10.4101
▁न्यायालयों	-10.4108
रि	-10.411
▁रफ्तार	-10.4111
▁लंबित	-10.4111
▁सिंचाई	-10.4111
र्इ	-10.4113
▁इं	-10.4116
▁बिंदु	-10.4126
▁पश्चात	-10.4126
▁लोकतांत्रिक	-10.413
गढ़	-10.4131
▁पाएंगे	-10.4132
यी	-10.4132
▁लगाकर	-10.4132
▁फिल्‍म	-10.414
▁अनुपात	-10.4149
▁प्रोग्राम	-10.4166
▁पु	-10.4168
▁आदित्य	-10.417
▁संपूर्ण	-10.4171
▁काट	-10.4175
▁पृष्ठ	-10.4176
▁स्कीम	-10.4181
हे	-10.4189
म्प	-10.419
▁सुनाई	-10.4194
▁विफल	-10.4201
िट	-10.4202
▁स्टील	-10.4207
▁गहरी	-10.4207
▁आएंगी	-10.4209
▁संवैधानिक	-10.4211
▁पढ़े	-10.4223
▁निदेशालय	-10.4227
▁बोलते	-10.4232
▁जिसको	-10.4234
▁मोड	-10.4235
▁शिविर	-10.4239
▁पंच	-10.4241
▁E	-10.4241
▁तत्कालीन	-10.425
▁49	-10.4259
▁वर्गों	-10.4267
▁नारायण	-10.4269
मेरे	-10.4274
▁गिरोह	-10.4278
▁आवंटन	-10.4285
▁अवश्य	-10.4285
▁संयुक्‍त	-10.4285
▁इंटरनल	-10.4285
▁खड़ी	-10.4286
▁कर्तव्य	-10.4287
▁व्यक्‍ति	-10.4287
▁पाल	-10.4289
▁पत्रिका	-10.4291
▁समन्वय	-10.4299
x	-10.4299
िस्ट	-10.4303
▁फुल	-10.4305
ृ	-10.4313
-20	-10.4314
▁अर्पित	-10.4314
्क	-10.4322
▁काउंसिल	-10.4324
▁उद्देश्‍य	-10.4324
▁कठोर	-10.4326
▁निफ्टी	-10.4327
▁जाएँ	-10.4327
्ज	-10.4334
▁लोन	-10.4348
▁विविधता	-10.4351
▁2007	-10.4353
पाकिस्तान	-10.4353
▁पोस्टर	-10.4354
▁एचडी	-10.4359
▁रखो	-10.437
▁नीलामी	-10.4371
▁बनना	-10.4375
▁मैन	-10.4376
▁करनेवाले	-10.4377
▁अग्रिम	-10.4383
▁अखिलेश	-10.4385
▁मूल्यों	-10.4387
▁प्रतिस्पर्धा	-10.4397
यो	-10.4402
▁गणराज्य	-10.4403
▁बतौर	-10.4403
▁दिमाग	-10.4405
▁ईरानी	-10.4411
▁रजत	-10.4425
▁कामों	-10.4438
रत	-10.4442
▁2017-18	-10.4443
▁उद्धव	-10.4444
▁दावे	-10.4446
▁विमानों	-10.4453
▁वजन	-10.4454
▁अड्डे	-10.4462
▁उत्पीड़न	-10.4463
▁दोषियों	-10.4466
▁निवास	-10.4468
२	-10.4471
▁गरीबों	-10.4472
ाल	-10.448
▁भागों	-10.448
▁H	-10.4483
▁नबी	-10.4489
▁एक्शन	-10.4492
▁रणनीतिक	-10.4499
▁मार्क	-10.4501
▁अब्दुल	-10.4502
▁शिमला	-10.4502
▁बिलकुल	-10.4502
▁प्रवाह	-10.4506
▁देखो	-10.4508
माल	-10.4515
▁2000	-10.4518
▁दरों	-10.4519
▁इजाजत	-10.4522
▁ढांचा	-10.4526
▁जंग	-10.4526
▁स्तरीय	-10.4527
▁D	-10.4541
▁रिटर्न	-10.4542
▁कंगना	-10.4543
▁दुष्कर्म	-10.4543
▁स्थगित	-10.4544
▁गुनाह	-10.455
▁लिख	-10.4552
▁प्रदर्शनी	-10.4558
▁कीमतें	-10.456
▁ज्‍यादा	-10.4562
▁मानकों	-10.4565
▁इसलिये	-10.4569
▁पार्टियों	-10.4583
▁41	-10.4589
▁पीने	-10.459
अपनी	-10.4596
44.	-10.4601
▁ख्याल	-10.4602
▁छुट्टी	-10.4602
▁रखती	-10.4609
▁अनुवाद	-10.4609
तः	-10.4612
डि	-10.4612
▁पॉजिटिव	-10.4622
▁सेल्सियस	-10.4622
▁एडमिट	-10.4622
▁खून	-10.4623
O	-10.4627
▁सतत	-10.4636
▁47	-10.466
वल	-10.4661
▁सशस्त्र	-10.4663
▁हिदायत	-10.4663
▁पहलुओं	-10.4663
▁कॉन्फ्रेंस	-10.468
▁अधिग्रहण	-10.4683
▁सौदे	-10.4683
▁हक	-10.4701
▁उपचुनाव	-10.4704
▁भूषण	-10.471
▁चूंकि	-10.4713
▁द्वितीय	-10.472
▁ब्लॉक	-10.4721
▁आईं	-10.4722
▁उन्होने	-10.4724
▁पब्लिक	-10.4728
▁खरीदा	-10.4733
▁देखे	-10.4735
▁टूट	-10.4739
▁चंद	-10.4739
▁रोका	-10.4739
दे	-10.4743
▁ख़बर	-10.4744
▁गांगुली	-10.4746
सु	-10.475
▁सबके	-10.4751
ेंद्र	-10.4756
▁आईआईटी	-10.4759
▁बहनों	-10.4762
▁सवालों	-10.4769
▁बीमार	-10.4772
मु	-10.4774
▁विज्ञापन	-10.4779
्त	-10.4782
▁असफल	-10.4784
▁चरणों	-10.4785
▁54	-10.4785
▁मारने	-10.4786
▁सेंट्रल	-10.4788
▁संपन्न	-10.4788
▁शिक्षण	-10.4788
▁स्‍	-10.4789
कृत	-10.4791
""""	-10.4799
▁जीव	-10.4801
▁जैन	-10.4804
▁कालेज	-10.4804
▁चित्र	-10.481
जर	-10.4811
▁सतह	-10.4812
▁ग्लोबल	-10.4813
▁घट	-10.482
▁आराम	-10.482
▁सम्‍मेलन	-10.4826
▁हर्षवर्धन	-10.4826
▁पैर	-10.4834
▁कामकाज	-10.4848
▁तरफ़	-10.4849
ri	-10.4853
▁संवेदनशील	-10.4856
▁पड़ने	-10.4856
▁क्रिया	-10.4861
▁कुशल	-10.4863
▁हा	-10.4864
त्व	-10.4865
▁बच्चा	-10.4868
▁मजदूरों	-10.4868
▁बोलने	-10.4869
▁मंजूर	-10.487
▁राणा	-10.4871
▁संख्‍या	-10.4875
▁विश्वविद्यालयों	-10.4879
ची	-10.488
डो	-10.4882
▁बाग	-10.4893
र्न	-10.4899
▁of	-10.49
▁गुजर	-10.49
▁महेश	-10.4904
▁वाजपेयी	-10.491
▁ओबामा	-10.4911
▁गवाही	-10.4911
▁बुरे	-10.4914
▁बैक	-10.4915
▁बुद्धि	-10.4924
क्	-10.4924
▁ढेर	-10.4924
▁परंपरा	-10.4925
▁पीयूष	-10.493
▁ज़रिए	-10.493
▁तृणमूल	-10.4932
▁बढ	-10.4937
▁ताजा	-10.4939
“	-10.4944
▁इस्राएल	-10.4947
▁मुसलमान	-10.4948
▁बताने	-10.4949
▁माननीय	-10.4954
▁निर्दिष्ट	-10.4959
▁डेट	-10.497
▁फांसी	-10.4971
▁सोनम	-10.4976
▁विवेक	-10.4976
▁राज्यमंत्री	-10.4977
िग	-10.4983
▁46	-10.4987
▁ट्रैक	-10.4987
▁दिनेश	-10.4992
▁फाउंडेशन	-10.4992
▁2016-17	-10.4993
▁प्राइमरी	-10.4993
निक	-10.4998
▁कोड	-10.5002
▁असल	-10.5005
िड	-10.5007
▁कलाकारों	-10.5012
▁महत्त्वपूर्ण	-10.5014
▁टेनिस	-10.5014
▁समापन	-10.5014
▁अग्रणी	-10.5014
▁ब्लू	-10.5016
▁तटीय	-10.5016
▁भलाई	-10.5017
▁विपणन	-10.5017
▁ख़ास	-10.5018
▁ट्रेनों	-10.502
▁प्राण	-10.5025
▁क्षति	-10.503
▁पुरी	-10.5031
▁अब्दुल्ला	-10.5033
▁साहिब	-10.5035
▁नाकाम	-10.5036
▁PM	-10.5037
▁दीन	-10.5037
▁ट्रेड	-10.5037
▁हॉल	-10.5044
▁मौजूदगी	-10.5051
▁एकड़	-10.5054
▁इलेक्ट्रॉनिक	-10.5054
▁भरपूर	-10.5056
▁संबद्ध	-10.5057
E	-10.5062
ेगी	-10.5063
▁पाप	-10.507
▁अपनाने	-10.5071
▁बचने	-10.5073
▁पैग़म्बर	-10.5074
▁महत्‍वपूर्ण	-10.5077
▁नोएडा	-10.5078
▁जुट	-10.5079
▁लेखा	-10.508
▁गौरव	-10.508
▁बाज़	-10.5091
ोस	-10.5092
▁फंसे	-10.5095
▁मायावती	-10.5098
▁बलिदान	-10.5098
▁संस्कृत	-10.5098
▁2019:	-10.5098
▁मसीहियों	-10.5104
पूर्वक	-10.5106
।""	-10.5113
देव	-10.5118
▁टाइम	-10.5119
▁इंटरव्यू	-10.5119
▁अक्तूबर	-10.512
▁वा	-10.5122
▁सीखने	-10.5126
▁नवाज	-10.5135
▁अता	-10.5137
▁लगाना	-10.5137
▁सपना	-10.5141
▁केन्‍द्र	-10.5141
▁2022	-10.5142
▁हॉकी	-10.5143
▁निस्संदेह	-10.5143
यें	-10.5144
▁कहेंगे	-10.5146
▁बुक	-10.5147
▁रोगियों	-10.5149
▁पश्चात्	-10.5149
पास	-10.5158
▁प्रारूप	-10.5161
▁विद्यार्थी	-10.5161
▁इकट्ठा	-10.5166
ूर	-10.5169
▁लगते	-10.5172
–	-10.5177
▁स्टेशनों	-10.5181
▁उत्तम	-10.5182
▁Realme	-10.5182
भारतीय	-10.5184
▁कड़ा	-10.5184
▁बुराई	-10.519
▁हेड	-10.519
▁मल	-10.5196
▁मेहता	-10.5205
▁फैल	-10.5207
▁फर्जी	-10.5212
टन	-10.5213
▁अनुबंध	-10.5219
लिंग	-10.5221
▁साक्ष्य	-10.5223
▁संग्रहालय	-10.5226
▁अनुदान	-10.5226
▁करवाने	-10.5231
▁भला	-10.5233
▁निर्माताओं	-10.5236
▁पात्र	-10.5236
▁ख़ुद	-10.5245
▁हादसा	-10.5247
▁सॉफ्टवेयर	-10.5247
▁अरुणाचल	-10.5248
▁सूर्य	-10.5255
▁अवसरों	-10.5257
▁भेजी	-10.526
▁प्राप्ति	-10.5261
▁दशा	-10.5269
▁कपड़े	-10.527
▁बांध	-10.5272
▁तुझे	-10.5273
▁जेएनयू	-10.5278
▁निरीक्षण	-10.5294
▁पैन	-10.5301
▁जायेगी	-10.5313
▁रचना	-10.5316
▁कराए	-10.5323
कुछ	-10.5325
▁साधारण	-10.5326
▁मामूली	-10.5333
▁भंडार	-10.5335
▁बढ़ता	-10.5336
▁शक्‍ति	-10.5337
▁बेन	-10.5342
▁कमरे	-10.5346
▁सूरत	-10.5346
▁क्षमा	-10.5354
▁पुन	-10.5355
▁इंकार	-10.5356
▁लैस	-10.5359
▁शून्य	-10.5363
▁टू	-10.5365
▁उतारा	-10.5371
सिंह	-10.5372
▁कनेक्टिविटी	-10.5376
▁जाधव	-10.5376
▁रोकथाम	-10.5382
▁ऑफ़	-10.5391
▁कृष्णा	-10.5395
▁पंडित	-10.5399
▁ऑ	-10.5399
▁लाइव	-10.5399
▁स्टूडेंट्स	-10.54
▁कनेक्शन	-10.542
▁पंजीकृत	-10.5424
▁पुलिसकर्मी	-10.5426
▁छोड़ा	-10.5427
▁सीआरपीएफ	-10.5428
▁दया	-10.5429
गु	-10.5431
▁ऑन	-10.5436
▁गारंटी	-10.5442
▁टेलीविजन	-10.5442
गर	-10.5444
or	-10.5449
सो	-10.5455
h	-10.5456
कु	-10.5456
▁मुख्‍य	-10.5462
▁अत्यन्त	-10.5464
▁अरोड़ा	-10.5464
▁इत्यादि	-10.5464
▁कानपुर	-10.5465
▁अंतर्राष्‍ट्रीय	-10.5465
▁मूल्‍य	-10.5466
न्स	-10.5468
▁हराकर	-10.547
▁जोड़	-10.5475
▁मंत्रालयों	-10.5475
दीप	-10.5475
▁दिखाता	-10.5476
▁पेपर	-10.5476
▁शर्त	-10.5478
▁खेली	-10.5485
▁फायदे	-10.5486
▁खनन	-10.5487
▁साक्षात्कार	-10.5487
▁हितधारकों	-10.549
▁गा	-10.5495
डब्ल्यू	-10.5495
्ज़	-10.5501
शि	-10.5507
▁कार्तिक	-10.5511
▁गणना	-10.5513
▁साइट	-10.5515
▁मसले	-10.5517
▁56	-10.5519
▁हानि	-10.5523
▁निकलने	-10.5525
▁द्वार	-10.5526
▁गेंदों	-10.5533
स्त	-10.5542
12	-10.555
▁मानने	-10.5557
विपक्षी	-10.5557
▁IPL	-10.5559
▁फायर	-10.5563
▁डाले	-10.5564
▁दायित्व	-10.5572
▁सन	-10.5574
▁उत्तराखण्ड	-10.5574
▁असली	-10.5579
▁फैला	-10.5591
▁झील	-10.5597
▁लापता	-10.5597
▁किंतु	-10.5598
▁आर्मी	-10.5601
ेश्वर	-10.5614
▁फडणवीस	-10.5619
▁ऑफिशियल	-10.5619
▁खातों	-10.5619
▁रसायन	-10.562
▁शैक्षिक	-10.562
▁जबरदस्त	-10.562
▁ऊंचाई	-10.5621
▁उपलब्धता	-10.5623
▁बहादुर	-10.5625
▁स्टोर	-10.5627
▁कब्जा	-10.563
▁इंडोनेशिया	-10.564
▁यहीं	-10.5643
नहीं	-10.5645
▁दोष	-10.5645
▁रखेंगे	-10.5646
▁समानता	-10.5647
▁72	-10.565
▁आइ	-10.5654
▁वीर	-10.5656
▁नाबालिग	-10.5663
▁प्रसंस्करण	-10.5664
▁आयुष	-10.567
▁शांत	-10.5672
▁कवि	-10.5682
▁नकारात्मक	-10.5686
▁ग्रामीणों	-10.5689
▁बाग़	-10.569
▁सच्चा	-10.5693
▁प्रशांत	-10.5694
50	-10.5701
▁एनआरसी	-10.5704
▁इच्छुक	-10.5708
▁मलेशिया	-10.571
▁सिक्किम	-10.5711
▁रूट	-10.5717
▁खबरें	-10.5719
▁सलामी	-10.5721
▁प्रकाशन	-10.5724
▁बेस	-10.5728
▁मास्क	-10.573
▁सूक्ष्म	-10.5731
▁सेटअप	-10.5732
▁फेर	-10.5734
▁कविता	-10.5735
▁उत्‍तर	-10.5737
▁उत्साह	-10.5739
र्ड	-10.5749
▁तलाक	-10.5752
▁अपहरण	-10.5754
▁बनाता	-10.5759
लि	-10.5762
डर	-10.5774
▁पेयजल	-10.5776
▁सुशील	-10.5777
िय	-10.5779
▁मतदाताओं	-10.5802
▁(1	-10.5808
ड़े	-10.5808
▁कराना	-10.5819
▁स्थलों	-10.5821
▁डेब्यू	-10.5822
▁भंडारण	-10.5823
▁मीटिंग	-10.5845
▁सचिवालय	-10.5846
▁चाय	-10.585
▁झा	-10.5854
दुनिया	-10.5866
▁बचे	-10.5879
▁(19	-10.5886
▁यु	-10.5886
▁स्मारक	-10.5886
▁पढ़ा	-10.5887
▁भार	-10.5888
▁एचडीएफसी	-10.589
▁मज़बूत	-10.5892
▁53	-10.591
▁आडवाणी	-10.5913
पो	-10.5914
▁रोशन	-10.5916
▁बीमारियों	-10.5918
▁एनडीए	-10.5922
▁विलय	-10.5924
▁अख्तर	-10.5936
▁खट्टर	-10.5936
▁गहलोत	-10.5936
ाव	-10.5936
ंच	-10.5936
हार	-10.5942
▁पर्व	-10.5945
▁समृद्धि	-10.5948
▁नृत्य	-10.5961
▁दृढ़	-10.5966
▁ड	-10.5971
्‍य	-10.5974
▁मचा	-10.5975
▁जटिल	-10.5976
बो	-10.5976
▁हवाला	-10.5986
▁बहाल	-10.5987
▁अपर	-10.5997
▁स्थिरता	-10.5999
▁ट्रस्ट	-10.6001
▁चौथी	-10.6008
▁इंदौर	-10.6009
▁स्वर्ग	-10.6009
▁सिद्धांतों	-10.601
▁टाइम्स	-10.6012
▁एक्टिव	-10.6012
▁शेर	-10.6016
▁एसबीआई	-10.6018
तुम	-10.6019
यन	-10.602
▁हमसे	-10.6024
▁सुधारों	-10.6025
▁अश्विन	-10.6033
it	-10.6044
▁बनकर	-10.6049
▁इंडस्ट्री	-10.6049
▁पर्यटकों	-10.6052
▁अर्थात	-10.6053
▁सफलतापूर्वक	-10.6053
▁अधिकारिता	-10.6053
▁प्रक्रियाओं	-10.6055
भाई	-10.6057
▁c	-10.6061
▁जाम	-10.6063
▁मानवीय	-10.6063
▁मेघालय	-10.6078
▁युवकों	-10.608
ढ	-10.608
▁सदस्यता	-10.6082
▁साधा	-10.6084
▁विमानन	-10.6088
▁स्टीव	-10.6089
▁अपडेट	-10.6092
▁लाइट	-10.6096
▁रहमान	-10.6097
▁इजाफा	-10.6099
मेल	-10.6104
▁परिणामों	-10.6107
▁जिनसे	-10.611
▁अंडर	-10.611
लोगों	-10.6117
▁साक्षियों	-10.6122
▁तल	-10.6123
▁अत्याचार	-10.6125
▁दवाओं	-10.6126
ाबाद	-10.6126
▁मायने	-10.6127
▁पुलिसकर्मियों	-10.6131
▁देखता	-10.6138
▁चक्र	-10.6141
▁टेक्नोलॉजी	-10.6146
▁काफ़ी	-10.6146
▁यूसुफ	-10.6147
▁वितरित	-10.6148
▁हथियारों	-10.6152
▁अपराधों	-10.6156
▁बैंड	-10.6158
▁अंश	-10.6164
▁अनुपालन	-10.6169
▁प्री	-10.6169
▁भजन	-10.6172
w	-10.6172
बहुत	-10.6172
▁प्लास्टिक	-10.6173
▁परियोजनाएं	-10.6176
▁गेम	-10.6179
▁छात्रा	-10.6181
▁नाटक	-10.6181
वेल	-10.6181
ोन	-10.6187
▁मतदाता	-10.619
k	-10.6192
▁डिवाइस	-10.6192
▁दर्शाता	-10.6193
▁पोल	-10.6197
▁अस्तित्व	-10.6198
▁परस्पर	-10.6202
▁सीरिया	-10.6219
▁कमल	-10.6223
पे	-10.6228
es	-10.6237
▁मनोरंजन	-10.624
▁अधिसूचित	-10.624
सब	-10.624
कांग्रेस	-10.6242
▁फुटबॉल	-10.625
▁एमएसएमई	-10.625
▁क्लास	-10.6254
िज	-10.6256
▁नतीजा	-10.6263
▁डायरेक्ट	-10.6272
▁नियामक	-10.6275
▁घोष	-10.6275
शील	-10.628
आयतों	-10.6281
स्‍ट	-10.6283
▁उर्वरक	-10.6285
▁दूतावास	-10.6287
▁विभाजित	-10.6287
▁यहूदी	-10.6287
▁साइबर	-10.6288
ंक	-10.6296
▁साधन	-10.6296
▁लाइफ	-10.6298
▁मिस्र	-10.6299
▁लाना	-10.6302
ाने	-10.6302
▁W	-10.6303
आईसी	-10.6305
▁बुला	-10.6306
▁हताहत	-10.6311
▁लड़ाकू	-10.6311
▁रूपए	-10.6313
▁बाधा	-10.6316
▁नो	-10.6319
▁पथ	-10.633
▁हसन	-10.6332
जल	-10.6332
▁मतभेद	-10.6335
▁उतना	-10.6337
▁जूनियर	-10.634
▁विभाजन	-10.6341
▁टेक	-10.6346
▁माफ	-10.6348
▁विवादित	-10.6349
▁बताता	-10.635
▁एड	-10.6354
दान	-10.6363
▁अमृतसर	-10.6364
▁स्	-10.6372
▁साइंस	-10.6376
▁नकदी	-10.6377
▁फार्म	-10.6378
▁हैरान	-10.6379
्रा	-10.6381
▁Galaxy	-10.6383
▁लांच	-10.6384
▁शी	-10.6386
▁पकड़े	-10.6395
▁नैतिक	-10.6399
घर	-10.6405
उन	-10.6406
▁अखबार	-10.6407
▁वाशिंगटन	-10.6407
▁पेशेवर	-10.6407
▁समुदायों	-10.6408
▁काले	-10.6416
▁कदमों	-10.6417
▁2018-19	-10.6418
▁ख़ान	-10.642
▁लिहाज	-10.6425
▁भेदभाव	-10.6431
▁गणतंत्र	-10.6431
▁कांस्य	-10.6431
▁सहकारी	-10.6433
▁मासिक	-10.6433
▁आवाज़	-10.6436
▁सुनकर	-10.6439
▁चावल	-10.6447
40	-10.645
▁लंबा	-10.6452
चीन	-10.6456
▁250	-10.6459
म्	-10.6461
▁मानता	-10.6476
▁वैकल्पिक	-10.6482
▁विटामिन	-10.6482
▁बचपन	-10.6483
U	-10.6483
▁120	-10.6484
▁न्यूयॉर्क	-10.6484
▁जलाशयों	-10.6485
▁परिभाषित	-10.6486
▁भावनाओं	-10.6487
▁बेचने	-10.6489
▁नाते	-10.6493
▁अवॉर्ड	-10.6498
▁67	-10.6501
▁सशक्त	-10.6504
▁चिंतित	-10.6504
▁प्रीमियर	-10.6504
▁पाटिल	-10.6504
▁अलर्ट	-10.6505
▁2020:	-10.6511
▁जरूरतों	-10.6514
किसी	-10.652
मर	-10.6523
▁हॉस्पिटल	-10.6528
▁हुड्डा	-10.6529
▁दिलों	-10.6529
▁पीछा	-10.6529
▁अगला	-10.6532
▁रुपया	-10.6532
▁माइक्रो	-10.6532
▁रुचि	-10.6532
▁58	-10.6534
▁1000	-10.6534
▁पस	-10.6538
ुर	-10.6539
▁बिन	-10.6541
▁भा	-10.6546
▁जेम्स	-10.6553
▁अल्पसंख्यक	-10.6553
▁धाराओं	-10.6555
▁प्रताप	-10.6556
ंज	-10.6558
▁संवेदना	-10.656
▁लूट	-10.6562
▁मांगा	-10.6563
ेर	-10.6563
▁घटनाएं	-10.6572
िये	-10.6573
▁ऋषि	-10.6577
▁पि	-10.658
▁लोगो	-10.6589
▁मार्केट	-10.6591
▁जोड़े	-10.6598
▁अनुसरण	-10.6602
▁चलती	-10.6604
▁सैकड़ों	-10.6604
▁नमाज़	-10.6607
▁विविध	-10.661
कर्ताओं	-10.6613
▁डांस	-10.6619
▁रॉयल	-10.6625
▁मारुति	-10.6627
▁प्रतीत	-10.6627
हैं	-10.6642
▁शीर्षक	-10.665
▁खाड़ी	-10.6652
▁इसरो	-10.6653
▁उपयोगी	-10.6653
चार	-10.6654
30	-10.6659
▁देशवासियों	-10.666
▁सकल	-10.6666
▁उत्कृष्ट	-10.6672
▁%	-10.6674
▁दिनांक	-10.6675
▁रूसी	-10.6682
▁कहाँ	-10.6686
ढ़	-10.6686
राज्य	-10.6687
▁फूल	-10.6688
▁गोपाल	-10.6689
▁मानी	-10.669
▁खुली	-10.6693
▁अव	-10.6694
समय	-10.6695
▁हरी	-10.6698
▁व्‍यापार	-10.6701
▁हेक्टेयर	-10.6701
▁राजनैतिक	-10.6701
▁जनजातीय	-10.6701
▁तोमर	-10.6702
▁मिजोरम	-10.6703
गंज	-10.6704
▁ब्राजील	-10.6706
▁प्ले	-10.6707
▁पड़ती	-10.6709
झ	-10.671
क्‍	-10.6712
▁अनुमानित	-10.6713
15	-10.6723
▁जंगल	-10.6723
राष्ट्रीय	-10.673
▁शांतिपूर्ण	-10.673
▁सब्सिडी	-10.6731
▁बु	-10.6735
▁पलट	-10.6738
▁घ	-10.6744
ंगी	-10.6745
▁दलील	-10.675
▁कॉरपोरेट	-10.6754
▁फैलाने	-10.6756
▁लगती	-10.676
▁पासवान	-10.6762
▁मह	-10.6763
ौर	-10.6765
▁छत	-10.6768
▁जड़	-10.6769
▁निकले	-10.6769
▁गतिविधि	-10.6775
▁नसीहत	-10.6776
▁मजिस्ट्रेट	-10.6776
▁मिशेल	-10.6776
▁सुपरस्टार	-10.6776
▁क़सम	-10.6776
स्वतंत्र	-10.6782
▁नकद	-10.6787
▁जानवरों	-10.6792
जीबी	-10.6793
▁बढ़ाना	-10.6796
श्री	-10.6797
▁संवाददाता	-10.6798
▁नागपुर	-10.6802
▁तेरी	-10.6802
▁रोम	-10.6807
▁उभर	-10.6816
▁प्रा	-10.682
▁तथापि	-10.6824
▁कैटरीना	-10.6826
▁मछली	-10.6828
बद्ध	-10.6829
▁अस्थायी	-10.683
▁पद्धति	-10.6832
▁प्रतिबंधित	-10.6835
▁भौतिक	-10.6838
▁तलाशी	-10.6844
▁फा	-10.6851
▁लेफ्टिनेंट	-10.6851
▁भविष्यवाणी	-10.6851
▁गतिविधियां	-10.6851
▁आपत्ति	-10.6852
अंतरिम	-10.6854
▁बताए	-10.6854
▁मील	-10.6858
▁चिन्ह	-10.6864
तक	-10.6865
▁2005	-10.6866
वाली	-10.6867
▁ऑस्ट्रेलियाई	-10.6868
▁लिंग	-10.6868
▁योजनाएं	-10.6872
▁कलीसिया	-10.6874
▁आशीष	-10.6874
▁विचारधारा	-10.6875
▁उपासना	-10.6876
▁नड्डा	-10.6878
िटी	-10.6879
▁भूटान	-10.688
▁शमी	-10.6887
▁फिट	-10.6893
▁स्पिनर	-10.6893
▁गिरा	-10.6896
ेंस	-10.6901
▁सुरक्षाबलों	-10.6904
▁ज़	-10.6905
▁नोटबंदी	-10.6905
▁पकड़ने	-10.6913
▁पदार्थों	-10.6914
▁अनाज	-10.6922
▁दिलचस्पी	-10.6922
▁दुबई	-10.6927
▁स्नैपड्रैग	-10.6927
▁सीमाओं	-10.6927
▁सिंधु	-10.6927
▁देवगन	-10.6928
▁फर्क	-10.6928
▁सफेद	-10.693
▁स्पेन	-10.694
▁कार्यशाला	-10.695
▁चपेट	-10.6953
▁ख़िलाफ़	-10.6954
▁न्यायाधीशों	-10.697
▁पृष्ठभूमि	-10.6978
▁गिनती	-10.6979
▁बाबत	-10.6979
▁अपमान	-10.698
▁किरण	-10.6981
▁इबराहीम	-10.6982
▁मजदूर	-10.6987
▁2006	-10.6989
▁शुक्ला	-10.6994
▁हिम्मत	-10.7004
▁बौद्ध	-10.7004
▁पारिवारिक	-10.7005
▁फायरिंग	-10.7007
मिल	-10.7007
▁दिलचस्प	-10.7009
▁\\	-10.7023
▁प्राथमिकी	-10.7023
▁सुदृढ़	-10.7029
▁चरित्र	-10.7029
▁आन्ध्रप्रदेश	-10.7029
िनी	-10.703
िव	-10.7032
ज़ा	-10.7035
▁स्कूली	-10.7038
▁संजीव	-10.705
▁मनी	-10.7054
▁सर्वे	-10.7054
▁आईसीआईसीआई	-10.7055
▁श्रद्धालु	-10.7055
▁नवीकरणीय	-10.7055
▁फसलों	-10.7059
▁चोर	-10.7061
▁लिखने	-10.7067
▁सेंट	-10.7071
▁रू	-10.7073
▁उत्सव	-10.7081
▁विनोद	-10.7081
वो	-10.7103
▁डिप्टी	-10.7107
▁पुरस्‍कार	-10.7107
▁निष्कर्ष	-10.7107
▁ईसाई	-10.711
▁इजरायल	-10.711
्यू	-10.7111
▁पाकिस्‍तान	-10.7111
▁पढ़	-10.7111
रु	-10.7112
▁f	-10.712
▁वंचित	-10.7132
17	-10.7133
▁मारपीट	-10.7136
▁सांस	-10.7136
▁हु	-10.7141
्टन	-10.7146
▁प्रशिक्षित	-10.7158
▁एयरटेल	-10.7159
▁जानना	-10.7159
▁अकबर	-10.7163
▁नवम्बर	-10.7164
▁एकजुट	-10.7178
▁संत	-10.7184
द्र	-10.7188
धीरे	-10.7194
▁स्पीड	-10.7194
▁इनाम	-10.7197
▁तत्वों	-10.7201
▁ईमानदार	-10.7203
▁त्याग	-10.7204
▁राजन	-10.7206
▁कप्तानी	-10.7208
▁मी	-10.7209
re	-10.7209
▁नीरव	-10.7211
▁सचमुच	-10.7211
▁अवसंरचना	-10.7211
▁गले	-10.7211
▁स्नातक	-10.7213
▁पर्यटक	-10.7216
▁उपभोक्ताओं	-10.7216
ic	-10.7219
▁संभाल	-10.7221
ियम	-10.7222
▁आदर	-10.7226
▁आपसे	-10.7229
वीर	-10.7233
▁त्रुटि	-10.7236
▁उपग्रह	-10.7237
▁विनिमय	-10.7239
आज	-10.7239
मय	-10.7239
▁ऑप्शन	-10.724
▁पकड़ा	-10.7242
▁ट्रेनिंग	-10.7246
▁जोन	-10.725
▁आवंटित	-10.7263
▁जावड़ेकर	-10.7263
▁रोजाना	-10.7264
▁वैध	-10.7265
▁हमलावर	-10.7266
▁74	-10.7268
▁62	-10.7272
▁गुर	-10.7273
▁देखेंगे	-10.7276
et	-10.7276
▁महोदय	-10.7277
पश्चिम	-10.7279
▁एकत्र	-10.7288
▁सदैव	-10.7289
▁68	-10.7291
▁अभाव	-10.7292
▁बिक	-10.7296
▁रिलीज़	-10.7299
▁कक्ष	-10.7302
▁रिहा	-10.7302
▁बन्दों	-10.7308
▁गोगोई	-10.7316
▁हंगामा	-10.7316
▁पाँच	-10.7316
▁झड़प	-10.7316
▁मनाने	-10.7317
▁गुलाम	-10.7322
▁सार	-10.7323
▁गेंदबाजों	-10.7332
le	-10.7336
▁शत्रु	-10.7341
▁शुक्रिया	-10.7343
▁जोश	-10.7343
▁परीक्षाओं	-10.7344
▁गेहूं	-10.7344
▁ऐंड	-10.7346
▁दोस्ती	-10.7356
▁सीएए	-10.7359
▁निचले	-10.7369
▁इराक	-10.7373
64	-10.7383
लर	-10.7384
्यु	-10.7388
▁बुमराह	-10.7395
▁असाधारण	-10.7396
en	-10.7397
▁घड़ी	-10.7402
▁नियत	-10.7408
▁राजद	-10.741
चे	-10.7413
▁मूर्ति	-10.7415
▁L	-10.7416
▁लेती	-10.7417
▁गुप्त	-10.742
▁नदियों	-10.7422
▁इक्विटी	-10.7425
▁सेनाओं	-10.7429
▁दलित	-10.7429
▁गिल	-10.7431
▁गुमराह	-10.7434
▁सद	-10.7448
▁ट्रॉफी	-10.7449
▁त्वचा	-10.7449
▁महामहिम	-10.745
▁जख्मी	-10.7452
▁उत्साहित	-10.7452
▁लगेगा	-10.7457
▁दुआ	-10.7458
▁लेगा	-10.746
▁सेवन	-10.7468
▁जेट	-10.7473
▁छिपा	-10.7476
▁क्‍या	-10.7476
▁युक्त	-10.748
▁तालिबान	-10.7481
▁ऑफिसर	-10.7481
एजेंसी	-10.7487
▁माध्‍यम	-10.7502
▁125	-10.7502
▁वेंकैय	-10.7506
▁क़यामत	-10.7506
▁मच	-10.751
जैसे	-10.7514
▁रेंज	-10.7515
▁धारणा	-10.7522
▁जडेजा	-10.7529
▁प्रतिभागियों	-10.7529
▁सामुदायिक	-10.7529
▁दस्तावेजों	-10.7529
▁ऑयल	-10.7529
▁स्वामित्व	-10.7531
▁साहस	-10.7534
▁दक्षता	-10.7538
▁परिवर्तित	-10.7539
▁उठाना	-10.7545
▁चलो	-10.7548
टो	-10.7549
▁भुवनेश्वर	-10.7556
▁ज़ोर	-10.7557
▁खन्ना	-10.7557
▁वैसा	-10.7557
▁इंजीनियर	-10.7559
▁संवर्धन	-10.756
▁57	-10.7561
▁पंजाबी	-10.7562
ुआ	-10.7562
अनंतिम	-10.7564
▁निराश	-10.7568
▁व्य	-10.7574
▁निभाने	-10.7581
▁दीं	-10.7583
▁प्रतिमा	-10.7583
▁सईद	-10.7585
▁दिखाते	-10.759
▁गायक	-10.7591
▁10,000	-10.7592
▁बायो	-10.7595
▁ओम	-10.7596
्ष्	-10.7599
एक्स	-10.7602
▁शा	-10.7602
▁अधिवक्ता	-10.7608
तौर	-10.7609
▁लौटने	-10.7618
▁प्रबंधक	-10.7622
▁59	-10.7626
▁समझना	-10.763
▁झूठे	-10.763
न्	-10.7637
▁पारदर्शिता	-10.7638
▁उर्फ	-10.764
▁सितम्बर	-10.7643
▁प्रसन्नता	-10.7644
▁चिकित्सक	-10.7646
▁चीज़ों	-10.7648
▁शास्त्र	-10.7658
म्ब	-10.7661
▁काला	-10.7662
▁पंकज	-10.7665
▁बैडमिंटन	-10.7668
▁कं	-10.7678
▁डिस्क	-10.7683
▁प्रिय	-10.7686
▁चौथा	-10.7691
▁रेखांकित	-10.7693
▁समकक्ष	-10.7693
▁महोत्सव	-10.7693
▁इसीलिए	-10.7693
80	-10.7706
▁छ	-10.7712
▁प्रणालियों	-10.772
▁छापेमारी	-10.772
▁अमरिंदर	-10.772
▁अधिकरण	-10.7729
▁चार्ज	-10.773
रण	-10.7741
नाम	-10.7742
▁63	-10.7742
▁इलेवन	-10.7748
▁बगैर	-10.7748
▁सपने	-10.7749
▁मददगार	-10.775
▁इस्लामिक	-10.7751
▁अभिव्यक्ति	-10.7753
▁वार	-10.7755
70	-10.7755
▁आगरा	-10.7759
▁बख्श	-10.7762
28	-10.7762
▁गार्ड	-10.7763
▁कच्‍च	-10.7775
▁प्रभावशाली	-10.7776
▁मोर्चा	-10.7778
▁समझता	-10.7779
मार	-10.7788
09	-10.7792
▁प्याज	-10.7801
▁डरते	-10.7813
▁टाइप	-10.7816
▁वाद	-10.7819
कोई	-10.782
▁रूम	-10.782
▁आवश्यकताओं	-10.7823
ra	-10.7824
ation	-10.7828
▁यूजर	-10.783
▁कार्मिक	-10.7836
▁गुट	-10.7841
▁सौंपी	-10.7857
▁समर्थकों	-10.7857
गन	-10.7859
▁ड्यूटी	-10.7859
▁सीधी	-10.786
ाली	-10.786
▁शर्तों	-10.7864
▁जातियों	-10.7879
▁तकलीफ	-10.7885
▁अर्जित	-10.7887
▁छू	-10.7891
▁रेटिंग	-10.7891
▁आधा	-10.7894
13	-10.7895
▁गणेश	-10.7896
▁हरगिज़	-10.7898
▁व्याख्या	-10.7899
ाया	-10.79
▁इंटर	-10.7903
▁पाता	-10.7907
▁अधि	-10.791
▁दीजिए	-10.7915
▁जितेंद्र	-10.7915
▁बिलियन	-10.7916
▁सिरे	-10.7917
▁66	-10.792
▁गिरने	-10.7923
सभी	-10.7924
▁करनेवालों	-10.7925
▁चाल	-10.7928
▁टॉम	-10.7929
संशोधन	-10.793
▁वैक्सीन	-10.7933
▁आनन्द	-10.794
▁हट	-10.7943
▁फूड	-10.7944
▁क्रमशः	-10.7945
35	-10.7945
लू	-10.7949
▁गढ़	-10.7949
am	-10.7952
▁गत	-10.7958
▁फोर्स	-10.7958
▁किस्म	-10.7961
▁दोहरा	-10.7975
▁दुखद	-10.7976
▁नजदीक	-10.7978
▁फास्ट	-10.7982
▁गहन	-10.7982
▁यानि	-10.7983
▁समर्थक	-10.7991
▁पेरिस	-10.7992
▁बेल	-10.7993
▁खेलते	-10.8001
▁संतुलन	-10.8001
▁बहरहाल	-10.8003
▁जायेंगे	-10.8005
हट	-10.8009
स्क	-10.8012
▁दिलाने	-10.8014
▁जीती	-10.8017
आख़िरत	-10.802
▁मरे	-10.8023
▁बोस	-10.8023
▁शिरकत	-10.8027
▁वाकई	-10.8029
भा	-10.8033
▁शक़	-10.8033
▁माँग	-10.8033
▁नाराज	-10.8034
▁मानवता	-10.8034
▁एंटी	-10.8042
▁आईपीसी	-10.8046
ियल	-10.805
प्रधानमंत्री	-10.8051
▁करोड़ों	-10.8052
▁लक्ष्मी	-10.8053
▁ज्ञात	-10.8056
▁उपज	-10.8056
▁माल्या	-10.8057
▁मोटरसाइकिल	-10.806
▁सिम	-10.806
▁चोटें	-10.8063
्न	-10.8067
—	-10.8072
▁फेंक	-10.8075
▁मिलना	-10.8083
▁मित्रों	-10.8085
▁देनी	-10.8088
▁टाइगर	-10.8092
ट्स	-10.8093
▁अपनाया	-10.8103
त्	-10.8103
▁उठ	-10.8109
▁एम्स	-10.8109
▁टर्मिनल	-10.8113
▁अनुराग	-10.8113
▁चैंपियनशिप	-10.8113
▁सहारा	-10.8114
्री	-10.8116
▁प्रिंट	-10.812
▁शरण	-10.8122
याँ	-10.8122
▁खुदरा	-10.8127
▁अंदाज	-10.8128
▁श्रमिकों	-10.8137
▁दुकान	-10.8137
▁मालदीव	-10.8141
▁मौलिक	-10.8142
▁महासागर	-10.8142
▁त्योहार	-10.8144
▁इलेक्ट्रिक	-10.8144
▁समस्त	-10.8145
▁जु	-10.8151
▁अजित	-10.8152
▁खेलना	-10.8155
▁तैनाती	-10.8158
▁कॉलेजों	-10.8158
▁बनता	-10.8159
▁Mi	-10.8164
▁मनुष्यों	-10.8169
▁आकर्षक	-10.817
▁उपायुक्त	-10.817
▁फ़ैसला	-10.8173
▁उपक्रम	-10.8174
ाइट	-10.8179
▁पुत्रा	-10.8182
▁मंडी	-10.8186
▁मोड़	-10.819
▁पुनर्	-10.8194
▁दीवार	-10.8195
▁मल्होत्रा	-10.8199
श्छ	-10.8199
▁आखिरकार	-10.8201
▁कर्मी	-10.8203
▁आयुष्मान	-10.8203
▁रोगी	-10.8204
▁मांस	-10.8209
▁मानो	-10.8211
▁ध	-10.8212
▁पहाड़	-10.8212
▁चढ़	-10.8221
▁विवादों	-10.8226
▁नमूनों	-10.8228
▁मैक	-10.823
▁कार्यरत	-10.8234
्ल	-10.8237
▁स्पष्टीकरण	-10.8238
वास	-10.8238
▁लेंस	-10.824
▁पीटीआई	-10.8241
▁पहाड़ी	-10.8249
▁ऊंची	-10.8257
▁सच्ची	-10.8257
▁उपमुख्यमंत्री	-10.8258
▁भली	-10.8259
▁संस्कार	-10.826
▁दीक्षित	-10.8261
▁घाटे	-10.8267
▁निकला	-10.8275
16	-10.8277
▁सहयोगियों	-10.8278
▁256	-10.828
▁तस्वीरों	-10.8281
39	-10.8286
▁इंतजाम	-10.8286
▁लाहौर	-10.8286
▁धातु	-10.829
▁धान	-10.8292
▁विक्रम	-10.8294
▁सकेगी	-10.8296
पीएम	-10.8298
▁लाई	-10.8298
▁हरि	-10.83
▁जीडीपी	-10.8302
▁बताती	-10.8302
▁संभावनाओं	-10.8304
▁वर्क	-10.8311
▁घाट	-10.8314
▁विज्ञप्ति	-10.8315
▁ट्रम्प	-10.8315
▁जुड़	-10.8316
▁बढ़िया	-10.8316
▁कार्बन	-10.8317
▁कोर्स	-10.8319
▁जैश	-10.8319
▁गणित	-10.8322
▁फोरम	-10.8324
▁गेट	-10.8325
लाइन	-10.8335
▁अपराधियों	-10.8335
▁बीएस	-10.8336
▁कथा	-10.8336
▁सेवक	-10.8342
▁त्वरित	-10.8344
▁प्रतिकूल	-10.8346
▁विजेताओं	-10.8352
▁ईस्ट	-10.8354
त्र	-10.8357
v	-10.8362
संघ	-10.8365
65	-10.8368
▁अवार्ड	-10.8368
▁पोत	-10.8369
▁अपराधी	-10.8373
▁उच्‍च	-10.8373
▁प्रस्‍ताव	-10.8374
▁प्रीमियम	-10.8374
▁सोनाक्षी	-10.8374
▁धनराशि	-10.8374
▁बाधित	-10.8374
▁कड़े	-10.8376
▁सनी	-10.8387
▁मैनेजर	-10.8391
▁करनेवाला	-10.8395
▁आशय	-10.8403
▁बकाया	-10.8403
▁दिलाया	-10.8406
न्न	-10.841
▁पॉल	-10.8421
▁सदा	-10.8421
▁पीड़ितों	-10.8422
▁स्वीकृत	-10.8426
देन	-10.8431
▁नाश	-10.8431
गल	-10.8431
▁ध्‍यान	-10.8433
▁फुटेज	-10.8433
▁बेंगलुरू	-10.8436
▁मानवाधिकार	-10.8436
▁साफ़	-10.8437
75	-10.8441
▁बिहारी	-10.8444
▁बेच	-10.8448
▁पंत	-10.8449
शासित	-10.8452
gov	-10.8453
▁रस	-10.8455
▁विंडो	-10.8456
▁गाय	-10.8457
▁थ	-10.846
▁मद्रास	-10.8462
ंगा	-10.8462
▁कुरैशी	-10.8462
▁दिवाली	-10.8463
▁तुममें	-10.8464
▁चुन	-10.8465
▁कमीशन	-10.8467
▁संतान	-10.8468
▁संधि	-10.8473
▁चौके	-10.8474
▁71	-10.8478
ंगे	-10.8479
▁पांचवें	-10.8481
▁मार्शल	-10.8483
▁प्रयोगशाला	-10.8489
▁आपात	-10.8491
▁युवती	-10.8492
▁सतीश	-10.8493
▁प्रकरण	-10.8494
▁संज्ञान	-10.8494
▁2019-20	-10.8494
▁निवारण	-10.8495
▁जोरदार	-10.8495
▁नीतिगत	-10.8496
▁क्रांति	-10.8496
▁बढ़े	-10.8502
▁कारों	-10.8503
▁निकायों	-10.851
▁उन्नत	-10.8513
▁01	-10.8518
▁सत्तारूढ	-10.8521
▁लीजिए	-10.8522
▁पुराना	-10.8523
▁छेड़छाड़	-10.8523
▁न्यायपालिका	-10.8523
▁कैसी	-10.8524
▁क्वार्टर	-10.8524
▁उपलब्धियों	-10.8525
▁वियतनाम	-10.8525
▁जनजाति	-10.8526
▁नारे	-10.8528
ंब	-10.8528
कुल	-10.853
्व	-10.8534
▁डालकर	-10.8538
st	-10.8538
▁कट	-10.8541
▁लीक	-10.8541
-3	-10.8542
▁माध्यमिक	-10.8545
▁स्तरों	-10.8548
▁प्रमोशन	-10.8551
▁स्त्रियों	-10.8551
▁शक्तिशाली	-10.8552
▁औषधि	-10.8553
▁जुटाने	-10.8556
▁एकदम	-10.8557
ur	-10.8557
▁गर्मी	-10.8562
▁पुरूष	-10.8563
▁विद्या	-10.8563
पुरा	-10.8566
‍ि	-10.8568
ग्राम	-10.8575
▁राष्‍ट्र	-10.8579
▁रजिस्ट्रेशन	-10.8581
▁लाभार्थियों	-10.8581
▁आरम्भ	-10.8582
▁वादे	-10.8582
▁पहलों	-10.8583
▁समुचित	-10.8584
▁दिवंगत	-10.8584
▁चाहेंगे	-10.8585
▁स्वाभाविक	-10.8586
▁वेस्ट	-10.8586
▁लक्ष्यों	-10.859
▁मारी	-10.8592
▁हालिया	-10.8592
▁सोचते	-10.8592
▁सिफारिशों	-10.8593
▁जापानी	-10.86
▁सबक	-10.8611
▁त्रिपाठी	-10.8611
▁नारेबाजी	-10.8612
▁थोड़े	-10.8612
▁महंगाई	-10.8614
मेन	-10.8616
▁अधिकृत	-10.8617
▁गहराई	-10.8619
▁डालें	-10.8621
ेन्द्र	-10.8622
जू	-10.8625
▁2002	-10.8628
▁फुट	-10.8631
▁बैन	-10.864
▁इरादा	-10.8642
▁पैरा	-10.8642
▁शंकर	-10.8642
▁मुनाफा	-10.8643
▁अमीर	-10.8645
▁प्रसारित	-10.8648
▁अजीत	-10.8648
▁महल	-10.8649
स्तरीय	-10.865
▁नर	-10.8652
ad	-10.8657
▁घुस	-10.866
▁केन्द्रों	-10.8662
ीकृत	-10.8666
▁यथा	-10.8667
न्‍न	-10.8669
▁अतिरिक्‍त	-10.8672
▁यरूशलेम	-10.8672
▁रिमांड	-10.8672
▁सोसाइटी	-10.8672
▁स्थानांतरित	-10.8672
▁हेल्थ	-10.8672
▁आमदनी	-10.8672
▁Note	-10.8672
▁पतरस	-10.8672
▁लेनदेन	-10.8672
▁यूनाइटेड	-10.8678
▁मास्टर	-10.8684
▁स्पेस	-10.8686
▁लव	-10.8686
▁पेमेंट	-10.8693
निर्देश	-10.8696
60	-10.87
▁आश्वस्त	-10.8702
▁चार्जिंग	-10.8705
र्म	-10.8706
▁निहित	-10.8708
हीन	-10.8717
आइ	-10.8717
▁गुज़र	-10.8729
▁रिश्तों	-10.8732
▁विरूद्ध	-10.8733
▁नींद	-10.8733
लिया	-10.8737
▁पड़ताल	-10.8738
▁78	-10.8763
▁चैंपियन	-10.8763
▁मुआवजा	-10.8763
▁नामों	-10.8764
▁आक्रमण	-10.8764
▁जिनको	-10.8769
▁स्रोतों	-10.877
▁अकाली	-10.8771
▁संस्‍थान	-10.8773
▁आईडी	-10.8773
▁ज़िम्मेदारी	-10.8776
न्त	-10.8777
▁वसूली	-10.8783
▁निर्वाचित	-10.8784
▁चि	-10.8784
▁जहन्नुम	-10.8786
▁हज	-10.8787
▁बल्लेबाजों	-10.8791
▁गहरे	-10.8794
▁गुवाहाटी	-10.8796
▁ब्रेक	-10.8797
▁मराठी	-10.8797
▁कार्यालयों	-10.8804
▁जैक	-10.8809
▁पूछ	-10.8811
▁सावधानी	-10.8812
▁हीरो	-10.8818
▁कै	-10.8821
▁विदेशों	-10.8824
▁व्‍यक्‍त	-10.8824
▁अनुशासन	-10.8824
▁जवाहरलाल	-10.8824
▁तेरा	-10.8826
प्रति	-10.8826
▁इंडस्ट्रीज	-10.8828
▁भूख	-10.883
▁निवासियों	-10.8831
▁एससी	-10.8832
▁बुकिंग	-10.8835
▁मिस	-10.884
▁रोज़ी	-10.8841
मल	-10.8843
रेन	-10.8845
▁रिया	-10.8845
▁रत्न	-10.8846
▁प्रतीक्षा	-10.8855
▁ख़र्च	-10.8855
▁इस्तीफे	-10.8856
फर	-10.8856
▁ईमेल	-10.8857
▁निपटान	-10.886
▁धो	-10.8862
▁सैनी	-10.8871
▁साम्राज्य	-10.8873
▁चौक	-10.8873
▁85	-10.8874
िता	-10.8876
▁इनसे	-10.8885
▁विनय	-10.8885
▁एजुकेशन	-10.8886
▁श्रेणियों	-10.8886
▁पंक्ति	-10.8886
▁गोरखपुर	-10.8888
लेट	-10.8889
▁परवाह	-10.889
▁समस्याएं	-10.8893
▁संभावनाएं	-10.8894
▁रियल	-10.8898
mAh	-10.8909
▁हर्ष	-10.8915
▁डिफेंस	-10.8917
उप	-10.892
at	-10.8925
01	-10.8933
▁बज	-10.8936
दिल्ली	-10.8941
▁बढ़ाई	-10.8942
ाह	-10.8942
▁लेखन	-10.8942
▁रवि	-10.8946
▁यूहन्‍ना	-10.8948
▁शख़्श	-10.8948
▁मानसून	-10.8948
▁अकसर	-10.8948
▁शशि	-10.8949
▁लापरवाही	-10.895
▁मुम्बई	-10.8951
▁मुहम्मद	-10.8952
ऐसे	-10.8952
▁आलोक	-10.8953
▁अनुचित	-10.8953
फी	-10.8955
▁श्रमिक	-10.8959
ब्र	-10.8965
थी	-10.8967
▁भीषण	-10.8972
ल्	-10.8973
▁चिकित्सकों	-10.8978
▁73	-10.8978
▁व्‍यवस्‍था	-10.8979
▁सैमसंग	-10.8979
▁चैम्पियनशिप	-10.8979
▁प्रदीप	-10.898
टेक	-10.8981
▁खनिज	-10.8984
▁नामित	-10.8992
▁वीं	-10.8994
▁दर्जन	-10.9002
यान	-10.9009
▁आवाजाही	-10.901
▁डिस्काउंट	-10.901
▁शरीक	-10.9011
▁अपेक्षित	-10.9011
▁ट्रैफिक	-10.9014
▁हि	-10.9018
us	-10.9019
▁किन	-10.902
▁दमकल	-10.9021
▁औरतों	-10.9022
▁बरी	-10.9032
फौरन	-10.9038
▁मुलायम	-10.9042
▁क्रियान्वयन	-10.9042
▁ज़िक्र	-10.9042
▁शक्तियों	-10.9047
▁सीखा	-10.9048
लिन	-10.9051
्टर	-10.9053
र्ग	-10.9055
नीय	-10.9061
▁पुकार	-10.9063
दास	-10.9069
▁नवजोत	-10.9073
▁परिदृश्य	-10.9073
▁नूह	-10.9073
▁प्रोटीन	-10.9076
▁एटीएम	-10.908
▁आहार	-10.9081
्म	-10.9082
▁बीएसएफ	-10.9084
▁कबीर	-10.909
▁वोटिंग	-10.9091
ल्ड	-10.9096
▁नतीजों	-10.9105
▁इंडियंस	-10.9105
▁कबूल	-10.9105
▁बर	-10.9106
ंडा	-10.911
▁कहकर	-10.9112
▁समितियों	-10.9115
▁जैविक	-10.9116
▁माइकल	-10.9116
▁जानकर	-10.912
▁तैयारियां	-10.9122
ि‍	-10.9124
्‍त	-10.9124
▁g	-10.9128
▁कहे	-10.9132
▁आंशिक	-10.9136
▁फिटनेस	-10.9136
▁पसंदीदा	-10.9137
▁कश्मीरी	-10.9139
▁निभाते	-10.9143
▁प्रयुक्त	-10.9146
▁कस	-10.9146
तीन	-10.9148
▁61	-10.9152
▁घाटा	-10.9154
▁फर्म	-10.9155
▁मेजबानी	-10.9155
32	-10.9156
▁पाकर	-10.9158
फाइल	-10.9166
▁प्रोटोकॉल	-10.9168
▁छा	-10.9168
▁पॉलिसी	-10.9168
▁शोषण	-10.9169
▁मत्ती	-10.9169
▁मुखिया	-10.9169
▁दूंगा	-10.917
▁कामयाबी	-10.9172
▁लीला	-10.9172
फ़ा	-10.9173
▁and	-10.9174
▁लिखकर	-10.9175
▁मास	-10.918
▁सू	-10.918
▁शि	-10.9182
▁दा	-10.9183
▁भंग	-10.9184
▁तीव्र	-10.9194
कोर	-10.9197
▁77	-10.9199
▁अफ्रीकी	-10.92
▁चेहरा	-10.92
▁फैशन	-10.92
▁O	-10.9203
▁लक्ष्‍य	-10.9205
ूंगा	-10.9206
▁सीबीएसई	-10.921
▁ति	-10.9213
▁निष्पक्ष	-10.9215
▁व्यापारिक	-10.9216
राव	-10.9217
▁संभालने	-10.9217
▁b	-10.9219
▁सबका	-10.9226
▁बैठा	-10.9226
▁जूझ	-10.9228
▁संपादक	-10.923
▁हिंसक	-10.9232
▁मेमोरी	-10.9232
▁दिक्कत	-10.9235
▁भव्य	-10.9236
▁मुफ्ती	-10.9238
▁जाओगे	-10.9242
▁प्रयोजन	-10.9244
▁अनंत	-10.9244
▁वंश	-10.9248
▁दोनो	-10.9249
▁अवधारणा	-10.9249
▁टे	-10.9253
पति	-10.9261
▁इस्लामी	-10.9263
▁रांची	-10.9264
▁बजाज	-10.9265
▁आरक्षित	-10.9265
▁मार्टिन	-10.9265
▁विद्यमान	-10.9267
आईटी	-10.9284
io	-10.9287
क़यामत	-10.9291
▁कांफ्रेंस	-10.9296
▁अंसारी	-10.9296
▁ब्रिक्स	-10.9297
▁तेलुगू	-10.9298
्वा	-10.9299
▁कृति	-10.9299
▁दिसम्बर	-10.93
ul	-10.9302
▁तुमपर	-10.9302
▁ग्रह	-10.9304
शक्ति	-10.9306
▁चलेगा	-10.9306
▁खींच	-10.9311
▁चूक	-10.9315
▁बाबू	-10.9322
▁Result	-10.9327
▁कमिश्नर	-10.9328
▁स्पीकर	-10.9328
▁चहल	-10.933
▁कारगर	-10.9331
मि	-10.9333
▁बढ़ेगा	-10.9333
▁69	-10.9334
▁अनुमोदन	-10.9337
▁स्प	-10.9342
▁अर	-10.9345
▁सतर्कता	-10.9348
▁सहज	-10.935
▁वार्ड	-10.9351
ोर	-10.9351
▁उद्देश्यों	-10.9351
▁परेड	-10.9354
▁दिग्विजय	-10.9361
▁जिंदा	-10.9361
▁इस्लामाबाद	-10.9361
▁ईमानदारों	-10.9361
▁www	-10.9363
▁लुधियाना	-10.9363
▁महबूबा	-10.9368
विक	-10.9373
▁मात	-10.9377
▁चयनित	-10.9377
भाव	-10.9378
▁रुक	-10.9379
रिक	-10.9389
स्थ	-10.9389
▁(2)	-10.9391
गांव	-10.9392
▁मुक्ति	-10.9393
▁समर्पण	-10.9393
▁तौबा	-10.9393
▁विडियो	-10.9393
▁कमलनाथ	-10.9394
▁सूचीबद्ध	-10.9395
▁दुःख	-10.9395
▁दिलाई	-10.94
▁रेस	-10.9402
▁संघीय	-10.941
▁2001	-10.9413
▁ईसा	-10.9424
▁सर्किट	-10.9426
▁पर्रिकर	-10.9426
▁मैनेजमेंट	-10.9426
▁संक्षिप्त	-10.9426
▁भागने	-10.9426
▁ठंड	-10.9427
▁आजीविका	-10.9427
▁पाएगा	-10.943
▁सर्च	-10.943
हमारी	-10.9433
ष्ट	-10.9435
▁ध्वनि	-10.9436
▁खेत	-10.9438
ाइड	-10.9439
▁अन्यथा	-10.9441
▁जीने	-10.9443
▁तथ्यों	-10.9448
▁हिट	-10.9453
जि	-10.9454
▁डाली	-10.9456
▁निर्दलीय	-10.9458
▁आचरण	-10.9461
▁मस्तिष्क	-10.9463
▁छक्के	-10.9463
21	-10.9466
▁परिजन	-10.9466
्हीं	-10.9467
▁कॉम	-10.9469
▁सावधान	-10.947
▁अत	-10.9471
▁नाइट	-10.9473
ol	-10.9484
▁लौटा	-10.9484
▁छाया	-10.9485
▁खोला	-10.9486
ro	-10.9487
▁दुखी	-10.9487
▁उदार	-10.9488
▁गणमान्य	-10.9491
▁मिर्च	-10.9491
▁खपत	-10.9492
▁इबादत	-10.9494
▁81	-10.9495
▁पासपोर्ट	-10.9497
▁रजिस्टर	-10.95
▁तैयारियों	-10.95
ाँ	-10.9503
▁गीता	-10.9505
▁जि	-10.951
▁600	-10.9512
▁समावेशी	-10.9519
▁रविशंकर	-10.9524
▁क्षतिग्रस्त	-10.9524
▁कमाल	-10.9525
▁सुलझाने	-10.9527
▁हरकत	-10.9528
▁क्रोध	-10.953
▁जीन	-10.953
▁सदस्‍य	-10.9531
वत	-10.9534
▁सुनी	-10.9541
वर्ती	-10.9552
▁ज्योति	-10.9556
▁आदिवासी	-10.9558
85	-10.956
▁बढ़ेगी	-10.9561
▁कहो	-10.9567
▁वकीलों	-10.9568
36	-10.957
▁सभाओं	-10.9573
▁गेल	-10.958
▁मेले	-10.9582
▁आवश्‍यक	-10.9584
मोहम्मद	-10.9587
पार	-10.9588
▁मुकदमे	-10.959
▁कांस्टेबल	-10.959
▁कुमाऊँ	-10.959
▁वाड्रा	-10.959
▁कागज	-10.9596
▁निर्देशों	-10.9597
▁बिता	-10.9603
फाई	-10.9613
▁लहर	-10.9613
▁करवाई	-10.9615
▁लु	-10.9616
धन	-10.9622
▁उछाल	-10.9623
▁एंड्रॉयड	-10.9623
▁उद्यमिता	-10.9624
▁बस्ती	-10.9625
▁पीटर	-10.9627
▁राजनयिक	-10.963
▁श्रेय	-10.9637
टिंग	-10.964
त्मक	-10.9641
▁पर्वत	-10.9652
मोदी	-10.9656
▁जसप्रीत	-10.9657
▁बेंच	-10.9658
▁सशक्तिकरण	-10.9659
▁कपास	-10.9662
▁सदर	-10.9667
▁गाना	-10.9667
▁डालते	-10.9668
ांग	-10.9672
▁कोर	-10.9674
▁x	-10.9676
ज़ी	-10.9681
▁बैग	-10.9686
▁झटके	-10.9691
▁लड़कों	-10.9691
▁Hindi	-10.9692
▁U	-10.9695
्ता	-10.9704
▁छीन	-10.9708
▁आंखों	-10.9708
▁ज़रा	-10.9709
▁अनुभवी	-10.9711
▁रखकर	-10.9715
▁95	-10.9722
▁गर्भवती	-10.9724
▁विनिर्दिष्ट	-10.9724
ाब	-10.9725
▁ऑर्डर	-10.9734
▁अभियुक्त	-10.9735
48	-10.9738
ir	-10.9741
▁एसएमएस	-10.9741
▁दादा	-10.9747
त्त	-10.9751
▁लड़ा	-10.9755
▁पिक्सल	-10.9757
वित्‍तीय	-10.9758
▁स्टे	-10.9761
▁उर्दू	-10.9763
▁सुनते	-10.9764
▁इंस्पेक्टर	-10.9765
▁प्रस्तुति	-10.9782
▁श्रेष्ठ	-10.9785
el	-10.9785
▁रैंक	-10.9789
▁बदौलत	-10.9791
▁राउत	-10.9791
▁सांख्यिकी	-10.9793
उल	-10.9793
▁औलाद	-10.9794
▁भूमिकाओं	-10.9795
▁सूरज	-10.9798
▁फ्लाइट	-10.98
▁मोटर्स	-10.9804
▁मेजबान	-10.9807
▁स्थितियों	-10.9811
▁आधारशिला	-10.9825
क्यू	-10.9826
▁लकड़ी	-10.9827
▁कॉफी	-10.9835
22	-10.9845
▁चाह	-10.9849
▁नील	-10.985
▁उद्यमों	-10.9853
te	-10.9857
▁उजागर	-10.9859
▁130	-10.9861
▁आवश्‍यकता	-10.9863
▁2004	-10.9864
▁शौचालय	-10.9868
▁नियोजन	-10.9869
नेवाले	-10.9871
▁2003	-10.9876
▁सोनी	-10.9877
99	-10.9878
द्द	-10.9882
▁उत्पादक	-10.9887
▁99	-10.989
▁जयशंकर	-10.9893
▁झलक	-10.9894
आईएस	-10.9895
।”	-10.9897
▁निवेशक	-10.9898
05	-10.9899
▁शान्ति	-10.9899
▁हटाया	-10.99
▁ट्रेनें	-10.9903
▁मुसीबत	-10.9903
▁1,000	-10.9908
▁राकांपा	-10.991
बू	-10.9914
▁उपबंधों	-10.9915
▁मज़ा	-10.9922
▁क्षमताओं	-10.9924
26	-10.9925
▁प्रमाणपत्र	-10.9932
▁वस्त्र	-10.9934
▁a	-10.9937
▁याकूब	-10.9962
अल्लाह	-10.9962
▁नमक	-10.9965
▁यूपीए	-10.9967
▁घेर	-10.9974
▁उलट	-10.9977
सरकार	-10.9978
▁तंग	-10.9982
एमएस	-10.9983
▁जला	-10.9985
▁पेन	-10.9994
▁the	-10.9994
‘	-10.9996
▁मुश्‍किल	-10.9996
▁टेलीफोन	-10.9996
▁संरक्षित	-10.9996
▁हिंदुओं	-10.9997
▁ऐश्वर्या	-10.9997
▁तलवार	-10.9998
सीसी	-11
▁मेक	-11.0007
▁लै	-11.0008
▁मेन	-11.0009
▁झ	-11.0019
▁मेगावाट	-11.0031
▁मीट्रिक	-11.0031
▁निशानियाँ	-11.0032
▁अनुसूची	-11.0033
▁आधे	-11.0033
ैन	-11.0036
ेरे	-11.0036
▁अंकित	-11.0042
▁पाना	-11.0059
लु	-11.0066
▁धीमी	-11.0066
▁पूर्वानुमान	-11.0066
▁फोकस	-11.0066
▁सर्वोत्तम	-11.0066
अमेरिका	-11.0066
▁इन्कार	-11.0066
▁परिभाषा	-11.0066
▁तोड़ने	-11.0067
▁जावेद	-11.0075
तु	-11.0076
▁सर्वर	-11.0078
▁मेडल	-11.008
▁फ्ल	-11.008
ियर	-11.0083
▁एनआईए	-11.0086
▁शास्त्री	-11.009
स्व	-11.0094
▁कॉरपोरेशन	-11.01
▁एंट्री	-11.0101
▁तस्करी	-11.0105
यु	-11.0106
▁अनुप्रयोग	-11.0109
▁आवासीय	-11.011
▁सिंगल	-11.0119
▁बदमाशों	-11.0121
▁जॉर्ज	-11.0128
▁दुश्मन	-11.013
▁76	-11.0135
▁१०	-11.0135
▁स्मरण	-11.0136
▁महिमा	-11.0136
▁डुअल	-11.0136
▁सृजित	-11.0136
▁क्यू	-11.0137
चंद	-11.0138
▁डूब	-11.0138
▁समर्थित	-11.0138
▁स्टोरी	-11.0139
र्ज	-11.0144
▁(2	-11.0146
▁मंत्र	-11.0147
▁चिंताओं	-11.0149
▁मद	-11.016
▁नजदीकी	-11.0161
▁सचेत	-11.0162
वासियों	-11.0162
▁!	-11.0164
▁1.5	-11.0165
?"""	-11.0167
▁ज़ुल्म	-11.0171
▁अनुग्रह	-11.0171
▁पारदर्शी	-11.0171
▁रनौत	-11.0171
▁बौद्धिक	-11.0173
▁म्यांमार	-11.0176
▁91	-11.0176
सि	-11.0177
ce	-11.0178
नर	-11.0179
रस	-11.0179
ch	-11.0181
▁बसों	-11.0184
▁साहब	-11.0185
▁त्रि	-11.0186
000	-11.0187
▁कथन	-11.02
▁प्रतिष्ठा	-11.0201
कॉम	-11.0201
▁नेट	-11.0202
▁डिज़ाइन	-11.0206
▁पोस्टमॉर्टम	-11.0206
▁इरफान	-11.0206
▁मिश्रण	-11.0207
▁800	-11.022
▁उसपर	-11.0229
ज्ञ	-11.0232
▁तकरीबन	-11.0241
▁दरवाजे	-11.0241
▁पाउडर	-11.0241
हालॉकि	-11.0241
▁पर्दे	-11.0241
▁अन्त	-11.0242
▁राजेंद्र	-11.0243
▁निर्णायक	-11.0244
▁कोल	-11.0246
ाम	-11.0246
▁देशमुख	-11.0247
▁स्ट्रीट	-11.025
▁पत्रों	-11.0252
▁शिकायतों	-11.0254
▁समाप्ति	-11.0255
▁जिम	-11.0261
▁नागर	-11.0262
▁भावी	-11.0264
▁फि	-11.0272
▁निकाले	-11.0273
सू	-11.0274
▁चम्मच	-11.0277
▁दर्दनाक	-11.0277
▁घोटाला	-11.0277
▁जोधपुर	-11.0277
▁राजकीय	-11.0277
▁लायक	-11.0277
जनक	-11.0277
▁स्पोर्ट्स	-11.028
▁दुरुपयोग	-11.028
▁संध्या	-11.028
ाय	-11.0283
▁हटाए	-11.0283
▁बचाया	-11.0284
▁जेपी	-11.0295
▁रचनात्मक	-11.0299
▁डब्ल्यू	-11.0302
▁घुसपैठ	-11.0308
▁जतात	-11.0309
▁Boss	-11.0312
▁परिचय	-11.0312
▁यूट्यूब	-11.0312
▁मरियम	-11.0313
▁लड़ेंगे	-11.0314
वर्ष	-11.0316
▁इस्‍तेमाल	-11.0348
▁भंसाली	-11.0348
▁स्‍थापना	-11.0348
▁नफरत	-11.0348
▁साढ़े	-11.0348
▁इवेंट	-11.0348
▁मैने	-11.0349
▁अतीत	-11.035
▁दुर्गा	-11.0351
▁अबतक	-11.0356
▁भगत	-11.0362
▁किताबें	-11.0363
▁50,000	-11.0364
प्पा	-11.0369
▁मंदिरों	-11.0372
▁आख़िर	-11.0375
दिन	-11.0376
ाक	-11.0379
▁5,000	-11.038
04	-11.0383
▁Bigg	-11.0384
▁एकत्रित	-11.0388
▁तालिका	-11.0389
ल्ट	-11.0396
▁यूएस	-11.0396
▁बर्फ	-11.0403
▁सुधारने	-11.0412
्‍ट	-11.0414
▁उन्हों	-11.0414
▁सिर्फ़	-11.0416
02	-11.0417
▁अध्यादेश	-11.042
▁ऋतिक	-11.042
▁सन्तान	-11.042
▁विधिक	-11.042
▁झुठलाया	-11.0421
95	-11.0424
▁छात्राओं	-11.0425
मंत्री	-11.0427
▁डेरा	-11.0433
▁चू	-11.0434
▁टो	-11.0434
▁बनेगा	-11.0434
▁पूर्ति	-11.0434
45	-11.0444
▁कृपा	-11.0445
sh	-11.0447
▁ईमानदारी	-11.0449
▁आक्रामक	-11.045
▁Samsung	-11.0456
▁भेद	-11.0456
▁अय्यर	-11.0456
▁बपतिस्मा	-11.0458
▁गिराया	-11.0459
▁गुस्सा	-11.0459
▁हज़ार	-11.0466
▁उठाते	-11.047
▁लाते	-11.0476
▁बालों	-11.048
▁शाही	-11.0487
38	-11.0487
ल्स	-11.0488
▁हस्‍ताक्षर	-11.0492
▁संन्यास	-11.0492
▁सैयद	-11.0492
▁अभिनव	-11.0492
▁संरक्षक	-11.0492
▁सरकश	-11.0495
▁मुख्‍यमंत्री	-11.0496
▁मेजर	-11.0499
▁सीमेंट	-11.0503
ोप	-11.0509
▁प्रशंसकों	-11.0511
न्ट	-11.0524
सीएल	-11.0525
▁हल्की	-11.0528
▁परिश्रम	-11.0528
▁अपलोड	-11.0528
▁वै	-11.0529
▁सेवानिवृत्त	-11.0532
▁गायब	-11.0532
▁उधार	-11.0534
बाद	-11.0537
▁ईवीएम	-11.0537
▁दि	-11.0538
▁बालक	-11.0547
▁सरकारें	-11.055
नों	-11.0551
ीज	-11.0556
▁कमांड	-11.0557
▁सुजुकी	-11.0565
▁दमदार	-11.0567
▁दुष्ट	-11.0567
▁उपयोगकर्ता	-11.0569
▁धारण	-11.0576
▁गंवा	-11.0578
क्र	-11.0585
▁मांगों	-11.0587
▁सलाम	-11.0593
08	-11.0594
▁दुकानों	-11.0599
क्षेत्र	-11.06
▁नमूने	-11.0601
▁रखरखाव	-11.0602
न्द	-11.0602
▁देओल	-11.0603
▁आधारभूत	-11.0603
▁हस्तियों	-11.0604
▁स्‍थापित	-11.0605
उत्तर	-11.0606
▁नॉर्थ	-11.0606
दोनों	-11.0606
▁m	-11.0608
▁कॉलिंग	-11.061
बाल	-11.0612
▁उद्यमियों	-11.0612
▁हराम	-11.0633
▁प्रौद्योगिकियों	-11.0639
▁सख्ती	-11.0647
▁क़	-11.0652
▁यश	-11.0653
▁कोटा	-11.0655
▁विकासशील	-11.066
▁उल	-11.0663
सम	-11.0664
▁ऑडियो	-11.0665
▁मौतें	-11.0671
▁सर्विसेज	-11.0672
▁धैर्य	-11.0675
▁ओवैसी	-11.0675
▁फायदेमंद	-11.0675
▁धोखा	-11.0676
▁आकर्षण	-11.0676
▁बृहस्पतिवार	-11.0676
▁आत्मनिर्भर	-11.0677
▁सोचने	-11.0677
▁दावों	-11.0677
▁पीवी	-11.0678
पु	-11.0679
▁पिच	-11.068
▁साइकिल	-11.0682
▁जादू	-11.0683
▁भक्त	-11.0683
पि	-11.0684
▁बनेंगे	-11.0685
▁सिवाय	-11.0687
▁कमर	-11.0693
▁ठहरा	-11.0694
▁डॉट	-11.0699
▁एमएस	-11.07
▁बन्द	-11.0705
मंडल	-11.0706
▁हिंद	-11.0707
▁शोर	-11.0709
▁पाये	-11.0709
रन	-11.0712
▁तेलुगु	-11.0712
▁तालमेल	-11.0712
▁सुर्खियों	-11.0713
▁वाइस	-11.0714
▁किंग	-11.0716
▁एकदिवसीय	-11.0721
il	-11.0721
पद	-11.0721
46	-11.0722
नु	-11.0722
▁समर्थ	-11.0722
▁माबूद	-11.0728
▁जानती	-11.0733
▁तार	-11.0736
ार्थ	-11.0738
▁टि	-11.0739
▁ज़रुर	-11.0746
▁उड्डयन	-11.0749
▁रणदीप	-11.0749
▁राधा	-11.0753
▁ग़रज़	-11.0755
▁बैठ	-11.0757
▁उदय	-11.0759
▁गवाहों	-11.0766
▁इंसानों	-11.0768
▁नेक	-11.0771
▁बैठकों	-11.0772
▁कर्नल	-11.0787
▁किराया	-11.0787
▁एलईडी	-11.0787
▁संयोजन	-11.079
▁जरुरत	-11.079
▁युवराज	-11.0791
▁निभाया	-11.0792
31	-11.0804
िप	-11.0806
un	-11.0809
▁विशेषता	-11.0812
▁मजदूरी	-11.0817
▁जिहाद	-11.0818
मेट	-11.082
▁पै	-11.0822
▁हकदार	-11.0828
▁निकासी	-11.083
▁सौदा	-11.0831
29	-11.0831
डीजल	-11.0832
90	-11.0833
▁मेयर	-11.0833
▁ट्रा	-11.0843
▁प्रत्‍येक	-11.0845
▁लौटे	-11.0848
पल	-11.0849
गण	-11.085
▁बॉन्ड	-11.0862
▁पुनर्वास	-11.0862
▁2015-16	-11.0862
51	-11.0863
▁अभिन्न	-11.0864
▁संपदा	-11.0865
▁चढ़ा	-11.0868
▁तु	-11.0869
▁पार्किंग	-11.0871
▁बॉम्बे	-11.0871
डिया	-11.0872
मेरा	-11.0872
id	-11.0873
▁आईएएस	-11.0875
गार	-11.0875
▁बर्बाद	-11.0879
▁केन्द्रित	-11.0882
55	-11.0884
▁ज़बरदस्त	-11.0887
मेक	-11.0888
दु	-11.0897
ग्र	-11.0899
▁ऊंचे	-11.0899
▁एहसास	-11.0899
▁वरिष्‍ठ	-11.0899
▁दीर्घकालिक	-11.0899
▁श्रॉफ	-11.0899
▁क्षण	-11.09
▁सम्पूर्ण	-11.09
आउट	-11.09
▁खेर	-11.0901
▁जायजा	-11.0902
74	-11.0906
▁मिश्र	-11.0907
ोल	-11.0909
as	-11.0911
लोक	-11.0911
ूल	-11.0912
▁कुरान	-11.0915
▁बटन	-11.0916
▁दिला	-11.0919
▁टेबल	-11.0922
क्शन	-11.0923
24	-11.0927
▁जमीनी	-11.0927
बु	-11.0933
▁चलाई	-11.0934
):	-11.0934
▁मलाइका	-11.0937
▁निर्दोष	-11.0937
▁अन्दर	-11.0939
▁ज़िन्दगी	-11.094
निया	-11.094
▁कुंजी	-11.0945
▁टीका	-11.0954
▁तर	-11.0954
▁e	-11.0955
▁अब्बास	-11.0956
ीस	-11.0964
▁घबरा	-11.097
▁रेफर	-11.0971
▁कैलाश	-11.0975
▁मूलभूत	-11.0976
▁प्रेषित	-11.0977
▁किफायती	-11.0978
▁लॉग	-11.0981
▁स्पॉट	-11.0981
▁शिशु	-11.0981
▁144	-11.0983
67	-11.0985
लेकिन	-11.0985
▁टिम	-11.0986
▁सतर्क	-11.0991
▁परिषद्	-11.0993
49	-11.0994
▁हॉट	-11.0996
▁यूं	-11.1
्रे	-11.1001
▁कारोबारियों	-11.1001
▁रोज़	-11.1012
▁व्यापारियों	-11.1012
▁भौगोलिक	-11.1014
▁व्यावहारिक	-11.1014
▁उल्‍लेख	-11.1014
▁ट्रांसफर	-11.1014
▁कोशिकाओं	-11.1015
▁उड़ानों	-11.1016
▁फ्लैट	-11.1016
▁धरना	-11.1017
▁बनाती	-11.1017
▁ईद	-11.1018
▁उबर	-11.1018
▁सम्पत्ति	-11.1019
44	-11.102
▁निरस्त	-11.1023
▁नायक	-11.1024
▁84	-11.1025
▁मल्टी	-11.1034
▁मेहरबान	-11.1037
▁रोगों	-11.104
62	-11.1043
▁स्वदेशी	-11.1043
▁to	-11.1043
▁गुणों	-11.1046
युक्त	-11.1046
▁चुप	-11.1049
िर	-11.105
▁सिलसिला	-11.1052
▁स्वभाव	-11.1052
▁बताना	-11.1052
▁अड्डा	-11.1053
▁विंग	-11.1054
▁क़रीब	-11.1057
विकेटकीपर	-11.1059
▁पायी	-11.106
▁निशानी	-11.106
▁अर्जी	-11.106
▁दफ्तर	-11.1064
▁लोड	-11.1064
▁कॉ	-11.1068
▁दीक्षा	-11.1068
▁सचिवों	-11.107
▁लौह	-11.1071
▁पहुँचे	-11.1077
व्य	-11.1079
▁रहेंगी	-11.1084
▁ऊपरी	-11.1085
▁एग्जाम	-11.109
▁चंद्रशेखर	-11.109
▁आभूषण	-11.1091
▁जग	-11.1092
▁अकेला	-11.1092
▁आईफोन	-11.1093
▁इन्	-11.1094
ून	-11.1097
33	-11.1101
्ब	-11.1101
स्टर	-11.1102
▁आतंक	-11.1112
▁मूवी	-11.1116
जु	-11.1116
▁संतुष्ट	-11.1121
34	-11.1123
ुस	-11.1125
▁अंडमान	-11.1129
▁धीरज	-11.1129
▁रैना	-11.1131
▁अंततः	-11.1131
▁कपड़ा	-11.1132
▁प्रोडक्शन	-11.1133
▁उपन्यास	-11.1138
▁अनुपम	-11.1141
▁अफसर	-11.1141
06	-11.1144
-16	-11.1145
▁आल	-11.1146
▁सौरव	-11.1146
▁ग्रेड	-11.1157
▁व्यापारी	-11.1157
हप्र	-11.1157
▁राउंड	-11.1164
▁फील्ड	-11.1164
भाग	-11.1166
ुद्दीन	-11.1167
▁कल्‍याण	-11.1168
▁हाज़िर	-11.1168
▁हॉलीवुड	-11.1168
://	-11.1168
▁उद्यान	-11.1168
▁शिल्प	-11.1169
▁निर्	-11.1171
83	-11.1175
▁इलेक्ट्रॉनिक्स	-11.1179
▁खंडन	-11.1182
फोटो	-11.1182
▁रहित	-11.1183
▁डील	-11.119
उसने	-11.119
▁कारक	-11.119
▁भागवत	-11.1194
▁होली	-11.1197
▁बंधन	-11.1201
▁रोशनी	-11.1202
▁काली	-11.1204
▁अजहर	-11.1207
▁फ्लैश	-11.1207
हल	-11.1208
▁व्यक्तित्व	-11.1213
52	-11.1215
कार्य	-11.1217
▁पीडीपी	-11.1219
79	-11.1221
▁आर्यन	-11.1221
▁रहमत	-11.1223
▁प्राधिकारी	-11.1226
▁व्याख्यान	-11.1228
ॉन	-11.1229
▁छठे	-11.1235
▁आदम	-11.1238
▁चन्द्र	-11.1239
सीएस	-11.1242
ानंद	-11.1243
▁आश्चर्य	-11.1245
▁अपशिष्ट	-11.1246
▁कश्यप	-11.1246
▁हाजिर	-11.1246
▁थरूर	-11.1246
▁चक्रवर्ती	-11.1246
▁इन्होंने	-11.1246
▁चैनलों	-11.1248
na	-11.125
▁पूछने	-11.1252
▁रूपरेखा	-11.1253
▁हू	-11.1253
▁ख़	-11.1256
▁नशे	-11.1257
▁बिगड़	-11.1261
▁चीज़ें	-11.1263
▁कमज़ोर	-11.1264
▁वफादार	-11.1264
%),	-11.1284
▁रिश्ता	-11.1285
▁सोसायटी	-11.1285
ग़ालिब	-11.1285
▁खाद्यान्न	-11.1285
▁रॉबर्ट	-11.1285
▁डेवलपमेंट	-11.1285
▁पटियाला	-11.1289
▁लंबाई	-11.1291
▁अस	-11.1291
धर	-11.1296
▁आस्था	-11.1297
ha	-11.1304
तू	-11.1319
▁स्पर्धा	-11.1321
▁ठुकरा	-11.1324
▁मसूद	-11.1324
▁पुनर्विचार	-11.1324
▁अधिवेशन	-11.1324
▁पढ़िए	-11.1325
▁कवरेज	-11.1325
▁उत्सर्जन	-11.1326
▁कार्यभार	-11.1326
▁दोहराया	-11.1327
▁पढ़ते	-11.1328
▁मंदी	-11.1331
▁p	-11.1332
▁उतरे	-11.1335
▁गिरकर	-11.134
▁दिखाए	-11.1341
▁महाराज	-11.1346
▁गुरू	-11.1347
िकल	-11.1348
25	-11.1351
,‘‘	-11.1355
▁पहने	-11.1355
▁दूत	-11.1357
▁सटीक	-11.1358
इसके	-11.136
18	-11.1362
▁आशीर्वाद	-11.1364
▁ठिकाना	-11.1364
▁मछुआरों	-11.1364
▁मरम्मत	-11.1364
▁दरमियान	-11.1364
▁थाईलैंड	-11.1364
▁नानक	-11.1364
▁मुख्यमंत्रियों	-11.1365
▁संस्थागत	-11.1365
▁वर्णित	-11.1366
▁उतनी	-11.1366
▁बनायी	-11.1366
▁विमर्श	-11.1366
▁मुक़ाबले	-11.1367
▁डीएसपी	-11.1368
▁प्लांट	-11.1369
▁पशुओं	-11.1369
▁Ra	-11.137
▁ख़ूब	-11.1371
ील	-11.1389
▁शहीदों	-11.1391
▁हैः	-11.1391
▁रियो	-11.1393
वानी	-11.1399
▁सेवकों	-11.14
़ी	-11.1403
▁पू	-11.1403
▁वर्चुअल	-11.1403
▁आत्मविश्वास	-11.1403
▁जाह्नवी	-11.1404
▁कठिनाई	-11.1405
जिन	-11.1405
▁देसाई	-11.1407
▁मक्का	-11.1414
▁डु	-11.1414
ूं	-11.1417
▁जाय	-11.1435
▁जोकि	-11.1436
um	-11.1439
▁मदन	-11.1441
▁सामरिक	-11.1443
▁2011-12	-11.1444
▁नवीनतम	-11.1444
▁सानिया	-11.1445
▁दुकानें	-11.1446
▁नाइक	-11.1447
जिस	-11.1452
हरे	-11.1453
▁टीएमसी	-11.1453
▁पसन्द	-11.1453
▁आओ	-11.1455
रात	-11.1455
तब	-11.1468
्टी	-11.1469
▁83	-11.147
▁टुकड़े	-11.1471
▁१२	-11.1472
▁झेल	-11.1474
ाए	-11.1477
▁OnePlus	-11.1483
▁कॉरिडोर	-11.1483
▁सामर्थ्य	-11.1484
37	-11.1484
▁आयुर्वेद	-11.1485
▁अल्पसंख्यकों	-11.1486
▁एसिड	-11.1487
▁जवाहर	-11.1488
▁करतारपुर	-11.1488
▁यूनानी	-11.149
▁हैंडल	-11.1494
▁105	-11.1495
▁जमात	-11.1495
▁मार्गों	-11.1496
▁युगल	-11.1497
▁डबल	-11.1503
फे	-11.1504
▁92	-11.1505
न्ड	-11.1509
98	-11.1509
याद	-11.1512
▁किग्रा	-11.152
▁सांप्रदायिक	-11.1521
▁प्रक्षेपण	-11.1524
▁आंसू	-11.1524
▁समा	-11.1525
▁डेबिट	-11.1532
▁निष्पादन	-11.1532
▁उत्कृष्टता	-11.1534
उनके	-11.154
▁आधी	-11.154
र्व	-11.1544
66	-11.1546
▁दर्शक	-11.1547
व्यापी	-11.1548
▁टाल	-11.1553
▁चा	-11.1554
ma	-11.1555
69	-11.1556
▁यूरो	-11.1558
▁मिटा	-11.1562
▁पुतिन	-11.1564
▁हकीकत	-11.1564
▁पुनर्गठन	-11.1564
▁चुनें	-11.1565
▁टीचर	-11.1567
▁प्रयोगशालाओं	-11.1567
▁सौभाग्य	-11.1568
▁विजन	-11.1569
▁घटनाक्रम	-11.1581
▁संभाला	-11.1583
▁जता	-11.1584
▁बारह	-11.1585
▁फे	-11.1589
कू	-11.1592
▁गोद	-11.1594
▁जानवर	-11.1595
▁कैपिटल	-11.1598
▁नाबाद	-11.1599
आरआई	-11.1603
▁बॉर्डर	-11.1604
▁मैसेज	-11.1604
▁माइक्रोएसडी	-11.1604
▁शॉर्ट	-11.1604
▁हल्के	-11.1604
▁टीकाकरण	-11.1605
▁मुस्लिमों	-11.1605
03	-11.1605
ेबल	-11.1608
▁खोले	-11.161
▁संविदा	-11.1611
▁ग्लास	-11.1615
कॉमर्स	-11.1617
▁निराशा	-11.1627
▁सब्र	-11.1638
▁जम्‍मू	-11.1645
▁संतुलित	-11.1645
▁हरभजन	-11.1645
▁उत्पत्ति	-11.1645
▁चुनौतियां	-11.1645
▁ग्रोवर	-11.1645
▁कोयले	-11.1645
▁ज़्यादातर	-11.1647
नेट	-11.1649
ट्र	-11.1649
अज़ाब	-11.1657
आर्थिक	-11.1657
▁बनाएं	-11.1659
▁लाश	-11.1667
ऐसा	-11.1667
ंप	-11.1669
▁एसआईटी	-11.1669
द्ध	-11.1669
68	-11.1677
▁माइक	-11.1678
▁सैम	-11.1679
▁82	-11.1682
▁अजीब	-11.1683
▁बुद्ध	-11.1683
,500	-11.1683
▁सभ्यता	-11.1684
▁प्रयत्न	-11.1686
▁बंबई	-11.1686
▁तरक्की	-11.1686
▁क़दम	-11.1686
▁उठाये	-11.1686
▁कन्नड़	-11.1686
▁जनसभा	-11.1687
▁श्रीवास्तव	-11.1688
▁आगमन	-11.1694
हां	-11.1694
▁सुर	-11.1695
▁निकाली	-11.1701
47	-11.1702
▁प्रस्तावों	-11.1705
▁रोमांचक	-11.1706
▁मर्द	-11.1706
▁किम	-11.171
▁nic	-11.171
▁प्रशासक	-11.171
▁स्‍थान	-11.1712
▁पाठक	-11.1712
▁नहर	-11.1714
▁प्राइम	-11.1725
▁प्रकोप	-11.1727
▁म्यूजिक	-11.1727
जानबूझकर	-11.1727
▁समीप	-11.1727
▁कारावास	-11.1727
▁श्रीदेवी	-11.1729
▁वाइड	-11.1729
एमसी	-11.173
स्‍	-11.173
▁सिलेंडर	-11.1731
▁फट	-11.1732
दि	-11.1732
▁जुटा	-11.1735
▁स्क्रीनिंग	-11.1736
▁किसने	-11.174
कै	-11.1744
▁राष्ट्रों	-11.1744
▁चेन	-11.1754
माने	-11.1755
▁मुख	-11.1756
टू	-11.1765
▁गाँधी	-11.1768
▁महासभा	-11.1768
▁सिखाया	-11.177
▁पड़ोसियों	-11.177
▁ट्रेंड	-11.1772
▁हफ्त	-11.1773
▁ग्रिड	-11.1776
किया	-11.1789
▁विद	-11.1795
▁बैल	-11.1798
▁विकेटकीपर	-11.1801
▁कहें	-11.1801
▁शिकायतें	-11.1802
14	-11.1802
▁प्रासंगिक	-11.1803
▁मांगने	-11.1804
▁मॉड्यूल	-11.1809
▁बायोपिक	-11.1809
▁क़ुरान	-11.1811
43	-11.1824
▁स्वर	-11.1825
एसटी	-11.183
कुफ़्र	-11.1831
ठा	-11.1832
▁आचार्य	-11.1834
▁एनडीआरएफ	-11.1834
▁ड्राइव	-11.1834
एंगे	-11.1837
▁पीट	-11.1837
▁यो	-11.1839
▁लगाये	-11.1846
▁समझे	-11.1847
▁ब्रिगेड	-11.185
▁एहतियात	-11.1851
▁डेयरी	-11.1851
▁सिसोदिया	-11.1851
▁इंश्योरेंस	-11.1851
▁रोहतक	-11.1851
▁बर्दाश्त	-11.1851
▁कार्यान्वित	-11.1851
▁सितारे	-11.1851
▁सिंधिया	-11.1851
▁डेमोक्रेटिक	-11.1851
▁रेडमी	-11.1852
▁बेटों	-11.1856
हू	-11.1859
▁वर्जन	-11.1861
घा	-11.1862
▁फैलने	-11.1867
84	-11.1867
▁एंगल	-11.1869
बर्ग	-11.1869
▁पद्म	-11.1871
चि	-11.1874
ताओं	-11.1881
▁बीस	-11.1882
▁मारकर	-11.1885
▁संस्‍थानों	-11.1887
▁भागीदार	-11.1887
▁याचिकाकर्ता	-11.1888
▁आयरलैंड	-11.1892
▁एडमिरल	-11.1892
▁क़ानून	-11.1892
▁हस्तांतरण	-11.1892
▁स्टैंडर्ड	-11.1893
▁पेटेंट	-11.1893
▁अफगान	-11.1898
▁गुरुग्राम	-11.1898
▁पीजीआई	-11.1899
▁मोर्चे	-11.1901
▁पौधों	-11.1903
ेरा	-11.1904
शो	-11.1907
▁छि	-11.1914
▁वाक्य	-11.1918
▁स्टेप	-11.1921
-4	-11.1928
-5	-11.193
\	-11.1931
▁मिर्जा	-11.1933
▁लक्ष्मण	-11.1934
▁लश्कर	-11.1934
▁स्टोक्स	-11.1934
▁मोहाली	-11.1934
▁संगठित	-11.1934
▁News	-11.1935
▁2020-21	-11.1936
▁अभूतपूर्व	-11.1936
72	-11.1937
पीएस	-11.1938
▁कैदियों	-11.1944
▁दर्जे	-11.195
▁आईएएनएस	-11.1955
▁नाव	-11.1959
▁जुटे	-11.1972
▁भटक	-11.1972
▁सै	-11.1973
▁परिस्थिति	-11.1975
▁ईश्‍वर	-11.1976
▁भारद्वाज	-11.1976
▁रजनीकांत	-11.1976
▁क्‍योंकि	-11.1976
नू	-11.1978
▁दरबार	-11.198
▁हांगकांग	-11.198
▁गाजियाबाद	-11.1981
हाल	-11.1983
▁इनपुट	-11.1986
▁माप	-11.1987
▁खाई	-11.1989
▁मोह	-11.1991
▁गयीं	-11.1992
▁तीस	-11.1994
▁पौधे	-11.1994
▁2018:	-11.1996
ि‍त	-11.1996
न्यू	-11.1997
वाह	-11.1998
ईडी	-11.2001
▁देवता	-11.2005
▁जागरूक	-11.2012
▁110	-11.2013
▁दरें	-11.2013
मेरी	-11.2013
▁दीप	-11.2014
▁स्क	-11.2014
▁पंचायतों	-11.2016
▁जश्न	-11.2018
▁एलपीजी	-11.2019
▁देखरेख	-11.2019
▁आपातकालीन	-11.2019
▁बाज़ार	-11.202
▁वार्नर	-11.202
▁जेसन	-11.2021
▁पासवर्ड	-11.2022
क्टर	-11.2026
▁फंस	-11.2026
▁बोर	-11.2031
दक्षिण	-11.2034
▁ज़ालिम	-11.2034
पू	-11.2038
धर्म	-11.2039
धार	-11.2039
▁वास्तविकता	-11.2044
टेल	-11.2049
लिक	-11.205
ल्ला	-11.2051
▁स्ट्राइक	-11.2054
▁करिश्मा	-11.2058
▁शुक्र	-11.2059
▁क्वालकॉम	-11.2061
▁सहवाग	-11.2061
▁बर्फबारी	-11.2061
▁प्रचलित	-11.2061
▁इशारा	-11.2061
▁वीरेंद्र	-11.2061
▁इधर	-11.2061
स्‍वतंत्र	-11.2063
▁स्वर्गीय	-11.2064
▁पंचकूला	-11.2066
42	-11.2066
▁'%	-11.2069
▁परंपरागत	-11.207
▁अल्प	-11.2075
▁कैश	-11.2081
▁चौ	-11.2082
▁गौरी	-11.2086
पहले	-11.2091
अर	-11.2091
▁सोम	-11.2092
इल	-11.2097
▁घृणा	-11.2101
▁जर्नल	-11.2101
▁अल्ट्रा	-11.2103
▁अवतार	-11.2104
▁पिटाई	-11.2104
निचली	-11.2104
▁सस्ता	-11.2105
▁नोडल	-11.2106
▁सम्राट	-11.2106
▁हरित	-11.2108
▁महाराष्‍ट्र	-11.2108
▁अगस्‍त	-11.2108
▁79	-11.2108
▁रवैया	-11.211
▁हिल	-11.211
▁सुनाया	-11.2112
▁बद	-11.2113
सीए	-11.2114
उनकी	-11.2123
▁चेल	-11.2124
▁जुड़ने	-11.2127
▁कैंप	-11.2127
ालय	-11.2131
▁बजाए	-11.2135
▁हॉ	-11.2146
▁घटा	-11.2146
▁कॉर्पोरेशन	-11.2146
▁नीरज	-11.2146
▁प्रिंस	-11.2147
▁कम्पनी	-11.2148
▁राशिद	-11.2148
▁परिचित	-11.2153
कर्मियों	-11.2153
▁आजम	-11.2153
▁नरेश	-11.2156
▁तंज	-11.2158
-17	-11.216
अत	-11.2161
इंडिया	-11.2163
▁सैन	-11.2164
▁प्राधिकार	-11.2169
▁जहाजों	-11.2171
▁टै	-11.2174
▁अनुभवों	-11.2174
▁सील	-11.2179
ate	-11.2181
िंदर	-11.2183
▁अवकाश	-11.2189
▁हिस्‍सा	-11.2189
▁दोगुना	-11.2189
▁दोगुनी	-11.2189
▁शिवाजी	-11.219
ta	-11.2191
▁कृत्रिम	-11.2192
▁लैब	-11.2195
▁कॉमेडी	-11.2196
बिल	-11.2197
▁चलाए	-11.2197
निर्देशों	-11.2197
▁उत्पादकता	-11.2197
▁फेस	-11.2199
▁हार्ट	-11.2199
▁पहना	-11.2206
▁राष्ट्रवादी	-11.2207
▁बिज	-11.2207
▁झूठी	-11.2208
▁रमन	-11.221
▁सोचना	-11.2211
23	-11.2211
▁जस	-11.2212
▁अंग्रेज़ी	-11.2215
▁5000	-11.2216
▁उत	-11.2225
▁साझेदार	-11.2228
▁ऊंचा	-11.2228
्ले	-11.2228
▁समझौतों	-11.2232
▁पर्सनल	-11.2232
▁फाइबर	-11.2232
▁अभियोजन	-11.2233
▁आयतें	-11.2234
▁अद्भुत	-11.2234
गृह	-11.2242
▁2:	-11.2242
▁बॉल	-11.2242
▁मिश्रित	-11.2244
र्द	-11.2245
li	-11.2251
उसके	-11.2258
ti	-11.2259
ाइल	-11.2262
▁आदत	-11.2266
यम	-11.2274
▁जयललिता	-11.2275
▁महमूद	-11.2275
▁विस्‍तार	-11.2275
▁महागठबंधन	-11.2275
▁दर्शाया	-11.2276
▁विष्णु	-11.2276
▁दुबे	-11.2277
▁आधुनिकीकरण	-11.2278
▁छुटकारा	-11.2278
▁यहूदियों	-11.2279
पोर्ट	-11.228
ैया	-11.228
▁सां	-11.2284
▁ट्रिपल	-11.2284
87	-11.2286
▁चारा	-11.2287
▁(3	-11.2291
▁डालर	-11.2297
▁रौशन	-11.2298
▁86	-11.2301
जान	-11.2304
सल	-11.2305
▁तुझ	-11.2309
▁राजू	-11.2312
▁प्रवृत्ति	-11.2317
▁द्रविड़	-11.2319
▁पांड्या	-11.2319
▁सरपंच	-11.2319
▁मानहानि	-11.2319
ग्रस्त	-11.232
▁येदियुरप्पा	-11.2321
▁आश्रम	-11.2321
▁आयत	-11.2323
श्	-11.2326
▁तेज़	-11.2326
डीसी	-11.2326
▁ज़िला	-11.2328
▁चांद	-11.2336
▁चमक	-11.2336
▁सुनता	-11.2337
ेरी	-11.2339
हित	-11.2346
▁बेकार	-11.2348
▁जाल	-11.2348
▁असमर्थ	-11.235
धारी	-11.2357
▁iPhone	-11.2362
▁कोच्चि	-11.2362
▁ढुलाई	-11.2363
▁फर्स्ट	-11.2363
▁खुराना	-11.2363
▁चाहूंगा	-11.2363
▁उमेश	-11.2363
▁मध्‍य	-11.2363
▁बेटियों	-11.2363
▁पूर्वोत्‍तर	-11.2363
▁झगड़ा	-11.2365
ऑपरेटिंग	-11.2365
▁कुमारस्वामी	-11.2366
▁२०	-11.2367
▁अंतरण	-11.2374
▁एडम	-11.2377
▁हेलीकॉप्टर	-11.238
▁पार्षद	-11.238
▁विद्वान	-11.238
▁ट्रांस	-11.2382
▁पैस	-11.2382
ग्	-11.2384
▁पक्षकार	-11.2386
इंग	-11.2391
▁फूट	-11.2392
▁प्रयोजनों	-11.2399
im	-11.2399
▁अग्र	-11.2402
▁फो	-11.2402
पुरम	-11.2405
०००	-11.2406
▁कलकत्ता	-11.2406
▁रिश्वत	-11.2406
▁नाजुक	-11.2406
▁ट्रायल	-11.2407
ेम	-11.2409
▁फीट	-11.2411
▁भ्रष्ट	-11.2411
.00	-11.2411
▁राष्ट्रमंडल	-11.2413
▁अमृता	-11.2414
▁3:	-11.2416
96	-11.2416
▁विनाश	-11.2419
▁अभिभावकों	-11.2421
अन	-11.2424
▁मीरा	-11.2425
▁कुफ्फ़ार	-11.2426
मिन	-11.2428
▁बरस	-11.2434
ंडर	-11.2434
▁जोनस	-11.2434
ent	-11.2435
▁i	-11.2449
▁लाभान्वित	-11.245
▁प्रायः	-11.2451
▁गर्ग	-11.2451
▁पदाधिकारी	-11.2452
▁दिखायी	-11.2452
▁केएल	-11.2456
्ला	-11.2458
▁आरटीआई	-11.2465
▁कम्प्यूटर	-11.2467
▁टोल	-11.2467
▁उठे	-11.2471
▁पंचायती	-11.2473
76	-11.2473
▁गिरी	-11.2475
मिट	-11.2476
▁ख़ुश	-11.2484
▁स्वा	-11.2493
▁शिक्षित	-11.2495
▁हंस	-11.2499
▁पीड़ा	-11.25
▁प्रतिभूति	-11.2502
▁ढ	-11.2503
▁चलकर	-11.2509
▁कुमारी	-11.2511
▁धर्मों	-11.2513
ेला	-11.2514
शास्त्र	-11.2517
पत	-11.252
गम	-11.2522
is	-11.2523
▁गुमराही	-11.2529
पित	-11.2531
▁अपार	-11.2531
▁अरबी	-11.2532
▁पैरवी	-11.2533
▁वें	-11.2535
▁गरिमा	-11.2539
▁सेकेंडरी	-11.254
▁मजाक	-11.2542
▁थॉमस	-11.2545
▁ट्रैक्टर	-11.2546
ैट	-11.2547
▁लिखते	-11.255
▁टैंक	-11.255
▁खोजने	-11.2552
▁फोटोज	-11.2554
▁परीक्षाएं	-11.2558
▁सूचनाओं	-11.2567
▁आचार	-11.2571
स्‍त	-11.2572
vi	-11.2573
▁पूल	-11.2574
फ्	-11.2574
ss	-11.2578
78	-11.2578
▁महंगा	-11.2581
▁अद्यतन	-11.2584
▁दाख़िल	-11.2584
▁फ्रेंच	-11.2584
▁फिंच	-11.2584
▁पाबंदी	-11.2584
▁गाड़ियों	-11.2585
ेक्ट	-11.2589
धारा	-11.2589
▁२००	-11.2591
▁लड़का	-11.2591
▁चे	-11.2594
सार	-11.2594
वै	-11.2594
81	-11.2595
▁जवाबदेही	-11.2596
▁बदमाश	-11.2602
▁एजेंट	-11.2604
▁नाना	-11.261
डल	-11.2613
▁बैठने	-11.2615
ment	-11.2621
अल	-11.2621
▁किशन	-11.2624
77	-11.2625
▁भूपेंद्र	-11.2629
▁तेजस्वी	-11.2629
▁नींव	-11.2629
▁किले	-11.2629
▁कोरोनावायरस	-11.2629
▁अहमियत	-11.263
▁वारंट	-11.263
▁बेचा	-11.2632
▁धर्मेंद्र	-11.2632
▁राशन	-11.2633
▁साकार	-11.2635
▁होंडा	-11.2636
▁पूर्ववर्ती	-11.2638
▁सातवें	-11.2641
▁हरेक	-11.2643
स्प	-11.2643
एफआई	-11.2655
इए	-11.2657
▁कुक	-11.2658
▁लैंड	-11.2658
्च	-11.2658
▁विज	-11.2663
लाइट	-11.2666
▁बराबरी	-11.2666
▁बनती	-11.2667
▁आदेशों	-11.267
▁औसतन	-11.2671
▁अर्थव्‍यवस्‍था	-11.2674
▁वैल्यू	-11.2674
▁स्वीडन	-11.2674
▁सम्पर्क	-11.2674
▁निमंत्रण	-11.2674
▁सुरेंद्र	-11.2674
▁हत्याकांड	-11.2674
▁वक्तव्य	-11.2675
▁अयोग्य	-11.2676
▁लेनी	-11.2678
▁रहाणे	-11.2679
▁अमेजन	-11.2681
▁फेडरेशन	-11.2683
▁ग्राउंड	-11.2683
▁प्रचारक	-11.2683
▁लेवल	-11.2685
63	-11.2689
▁लू	-11.2689
अंग्रेज़ी	-11.2695
मुंबई	-11.2695
?"	-11.2696
73	-11.2697
हन	-11.271
▁नै	-11.2711
▁स्टार्ट	-11.2716
▁कम्युनिस्ट	-11.2719
▁यहूदा	-11.2719
▁पथराव	-11.2719
▁अपकम	-11.272
▁प्रबल	-11.2722
▁देहरादून	-11.2723
▁जदयू	-11.2726
▁खरीदारी	-11.2732
▁प्रमाणित	-11.2732
▁दिखाना	-11.2735
▁काफ़िर	-11.2737
▁उड़	-11.2741
▁घटी	-11.2749
▁एसी	-11.2751
ॉल	-11.2753
रोन	-11.2756
▁दिखाएँ	-11.2757
▁मंगल	-11.2759
▁कतर	-11.2761
नियम	-11.2762
मिक	-11.2762
▁विमोचन	-11.2764
▁सुरजेवाला	-11.2764
▁अवलोकन	-11.2765
किंग	-11.2766
▁विशेषाधिकार	-11.2766
▁आसिफ	-11.2766
▁टकराव	-11.2766
▁फरहान	-11.2767
▁पैक	-11.2768
▁अग्नि	-11.2769
▁मलयालम	-11.2769
▁तरल	-11.277
▁चलना	-11.2773
▁पहलवान	-11.2776
▁प्रजा	-11.2777
▁दोहरे	-11.2777
▁शिल्पा	-11.2779
यल	-11.2782
▁विशेषज्ञता	-11.2784
▁किसे	-11.2785
▁चक्रवाती	-11.2789
▁वृक्ष	-11.2791
तों	-11.2796
89	-11.2796
▁बै	-11.2798
▁अश्विनी	-11.2805
▁मेगा	-11.2805
▁चाहें	-11.2808
▁मांगे	-11.2808
iaomi	-11.281
▁दरवाजा	-11.281
▁पोर्टफोलियो	-11.281
▁यशायाह	-11.281
▁मुद्रास्फीति	-11.281
▁साम्हने	-11.2811
जित	-11.2811
▁प्रश्नों	-11.2813
▁डिवीजन	-11.2814
वर्ग	-11.2815
▁शिंदे	-11.2817
▁प्रतिद्वंद्वी	-11.2818
▁(4	-11.2819
धा	-11.2821
▁बेरोजगारी	-11.2823
▁कन्	-11.2827
,‘	-11.2841
▁कश्‍मीर	-11.2842
दिल	-11.2848
योग	-11.2851
▁मैत्री	-11.2856
▁रवींद्र	-11.2856
▁दुर्भाग्यपूर्ण	-11.2856
एसपी	-11.2858
▁रासायनिक	-11.2859
▁थोक	-11.286
▁मुल्क	-11.2864
▁सीएसआईआर	-11.2867
▁अदालतों	-11.2869
▁Rs	-11.2869
▁विचारण	-11.2871
▁वसा	-11.2873
59	-11.2874
▁लियोन	-11.2876
▁वाणी	-11.2879
▁डरो	-11.2879
ीर	-11.2881
▁बड़	-11.2887
सभा	-11.2888
एससी	-11.289
▁पहन	-11.2895
▁दिखे	-11.2897
णा	-11.2899
▁d	-11.2901
▁अड्डों	-11.2902
▁सिब्बल	-11.2902
▁क्राइम	-11.2902
▁बिगाड़	-11.2902
▁महासंघ	-11.2903
▁रतन	-11.2903
▁बच्‍चों	-11.2905
▁प्रभाग	-11.2905
▁फरीदाबाद	-11.2905
▁ड्रग्स	-11.2907
▁घातक	-11.2907
▁बयानों	-11.2908
सरकारी	-11.2909
▁In	-11.2909
िक्स	-11.2909
▁बनते	-11.291
▁प्लेट	-11.2914
▁हिमालय	-11.2917
▁सिंगर	-11.2918
71	-11.2925
तन	-11.2926
▁विहार	-11.2929
▁एआई	-11.2934
▁मॉ	-11.2935
केंद्र	-11.2936
▁बदलकर	-11.2938
▁प्रसन्न	-11.2938
▁सोचता	-11.2939
▁एमपी	-11.294
▁झूठा	-11.2942
ुम	-11.2943
▁ग़	-11.2947
▁अत्याधुनिक	-11.2948
▁इब्राहिम	-11.2948
▁चिट्ठी	-11.2948
▁ब्लूटूथ	-11.2948
▁पायनियर	-11.2948
▁बहिष्कार	-11.2948
▁अभिनंदन	-11.2948
▁पैदल	-11.2948
▁पटनायक	-11.2949
▁बूथ	-11.2949
▁2014-15	-11.2949
▁अंतराल	-11.295
▁बारगाह	-11.2952
▁संभवतः	-11.2952
▁नैशनल	-11.2953
▁शु	-11.2954
▁एण्ड	-11.2955
▁पड़ेगी	-11.2956
▁आसार	-11.2957
▁वरीयता	-11.2959
▁तले	-11.2959
▁कामगारों	-11.2961
▁चिह्न	-11.2961
▁चाहा	-11.2966
▁करोगे	-11.2969
▁सेक्शन	-11.2971
▁बुजुर्ग	-11.2973
▁ची	-11.2981
ुन	-11.2991
सेन	-11.2992
▁मौलाना	-11.2995
▁नागालैंड	-11.2995
▁शोधकर्ताओं	-11.2997
▁ब्लड	-11.2997
▁कुलपति	-11.2998
▁अलीगढ़	-11.2998
58	-11.3
▁गुस्स	-11.3007
▁2.5	-11.3009
पेट	-11.3013
▁पंप	-11.3015
▁फर	-11.302
▁चैन	-11.302
घाट	-11.3021
▁एसडीएम	-11.3025
▁आर्य	-11.3026
▁गरम	-11.3027
▁घूम	-11.3031
चल	-11.3033
▁दबा	-11.3036
▁काव्य	-11.3041
▁कैन	-11.3041
▁एहसान	-11.3041
▁कटरीना	-11.3041
▁फैमिली	-11.3041
▁मतगणना	-11.3042
▁स्वचालित	-11.3042
▁ग़ौर	-11.3042
▁n	-11.3042
▁एस्टेट	-11.3043
▁जिसमे	-11.3043
▁1996	-11.3044
▁विन	-11.3044
▁सुझावों	-11.3045
▁प्रगतिशील	-11.3047
▁बैनर	-11.305
बुल	-11.3053
▁प्रोड्यूस	-11.3061
▁गुल	-11.3061
क्योंकि	-11.3067
\""	-11.3067
भूमि	-11.3067
्रि	-11.307
▁उठाकर	-11.3072
▁सीन	-11.3074
▁चर	-11.3075
▁तृतीय	-11.3076
▁मनु	-11.3081
97	-11.3082
▁खरा	-11.3082
▁1:	-11.3083
▁प्रवीण	-11.3088
▁इरादे	-11.3089
▁एडिशन	-11.3089
▁ग्रैंड	-11.3089
▁पिछड़े	-11.3089
▁मध्यस्थता	-11.3094
▁रखेगा	-11.3096
▁बुलाई	-11.3096
▁व्यवस्थित	-11.3096
▁एक्टिंग	-11.3098
दूर	-11.3106
▁आर्ट	-11.3115
▁ज़िम्मेदार	-11.3115
कोट	-11.312
▁सेंगर	-11.3121
▁गोला	-11.3121
▁गल	-11.3123
▁de	-11.3126
93	-11.3129
▁विल	-11.3132
▁विश्वसनीय	-11.3133
▁मैक्स	-11.3133
.75	-11.3134
▁विद्रोह	-11.3135
▁वोडाफोन	-11.3136
▁औरंगाबाद	-11.3136
▁चार्जशीट	-11.3136
▁पायदान	-11.3136
▁बेटियां	-11.3136
▁अप्रत्यक्ष	-11.3136
▁अमीरात	-11.3136
▁क्विंटल	-11.3138
▁उपरोक्त	-11.3138
टल	-11.314
▁हैकि	-11.314
▁कचरे	-11.3141
▁दिली	-11.3142
▁निकोबार	-11.3142
▁मुक़र्रर	-11.3143
शे	-11.3143
▁ध्वज	-11.3144
▁1999	-11.3146
▁96	-11.3147
:-	-11.3147
▁छठी	-11.3149
▁आजकल	-11.3151
▁तबाही	-11.3154
▁किट	-11.3158
▁ताज	-11.3159
▁बचें	-11.3159
▁700	-11.316
ut	-11.3161
▁जित	-11.3166
▁कलाम	-11.3171
▁मशीनों	-11.3173
▁झगड़े	-11.3174
▁पं	-11.318
▁अभिषिक्‍त	-11.3183
▁फ़ोल्डर	-11.3183
▁वर्षगांठ	-11.3183
▁ड्रोन	-11.3183
▁विवेकानंद	-11.3183
▁जयराम	-11.3185
णी	-11.3186
ोगे	-11.3188
मू	-11.3189
ज़िन्दा	-11.3189
ट्टा	-11.3189
▁संयोजक	-11.3189
▁अफसोस	-11.3191
▁प्रभावों	-11.3195
▁COVID	-11.3195
▁पुस्तकों	-11.3198
▁संगम	-11.3202
▁टिक	-11.3207
धी	-11.3209
डब्‍ल्‍यू	-11.3213
▁सड़कें	-11.3214
ेटर	-11.3214
▁160	-11.3215
▁तकनीकों	-11.322
41	-11.3225
▁प्रश्‍न	-11.3231
▁लि‍ए	-11.3231
▁फाइनेंस	-11.3231
▁व्यर्थ	-11.3231
िज़	-11.3231
▁गतिरोध	-11.3231
▁सुसाइड	-11.3231
▁रिटेल	-11.3232
▁चैलेंजर्स	-11.3232
▁नौकरियों	-11.3233
▁फैले	-11.3234
27	-11.3235
▁बराक	-11.3235
ियत	-11.3236
▁माकपा	-11.3242
▁एफडीआई	-11.3243
▁88	-11.325
▁लूत	-11.3252
▁बरसात	-11.3255
राष्ट्रपति	-11.3255
▁किताबों	-11.3256
▁मौतों	-11.3257
परमेश्‍वर	-11.3257
▁गुणा	-11.3259
▁सीसी	-11.3259
▁खरीदी	-11.326
▁बैच	-11.3264
▁साम	-11.3265
नल	-11.3266
88	-11.3268
्द	-11.3268
de	-11.327
ौली	-11.3275
▁तोड़ा	-11.3278
▁शिलान्यास	-11.3278
▁मधुमेह	-11.3278
▁मुरली	-11.3279
▁एनर्जी	-11.3279
▁बिल्डिंग	-11.3279
▁सुगम	-11.3279
▁संयम	-11.328
▁नाराजगी	-11.328
▁सब्जियों	-11.3282
91	-11.3283
▁लेगी	-11.3284
▁सुल्तान	-11.3285
थे	-11.3292
▁कान	-11.3294
▁रिक्त	-11.3295
▁कटा	-11.3298
▁प्रेमी	-11.3298
▁मेला	-11.3299
▁संभवत	-11.3306
▁आईपीएस	-11.3307
क्त	-11.3307
▁बुद्धिमान	-11.3307
▁विद्वानों	-11.3307
▁4:	-11.3308
▁वाटर	-11.3312
▁नाक	-11.3313
▁चुनने	-11.3313
▁चुनी	-11.3317
▁आमने	-11.3318
▁पट्टी	-11.3325
▁बर्खास्त	-11.3326
▁कूद	-11.3327
▁अन्वेषण	-11.3327
▁बस्तियों	-11.3327
▁गैंगरेप	-11.3327
▁नगालैंड	-11.3327
▁शिकस्त	-11.3327
▁नकवी	-11.3327
▁हमलावरों	-11.3327
▁सत्यापन	-11.3327
▁खंडपीठ	-11.3327
▁फिरऔन	-11.3332
▁फैन्स	-11.3333
▁इल्म	-11.3334
▁एरिया	-11.3335
▁द्वि	-11.3337
▁उठता	-11.3337
▁साध	-11.334
▁जामिया	-11.3341
▁रवी	-11.3341
जाने	-11.3347
▁डीसी	-11.3348
▁एकीकरण	-11.3349
▁रहकर	-11.3351
▁टेली	-11.3351
▁कौ	-11.3352
▁रिश्तेदार	-11.3353
▁विद्यालयों	-11.3353
दम	-11.3354
100	-11.3355
la	-11.3355
▁वैन	-11.3362
▁97	-11.3369
▁(3)	-11.3369
▁पक्षी	-11.3371
▁दमन	-11.3374
िस्तान	-11.3374
▁World	-11.3375
▁तादाद	-11.3375
▁ब्रांच	-11.3375
▁सप्लाई	-11.3375
▁प्रथा	-11.3377
▁उच्चतर	-11.3381
▁दंगों	-11.3382
▁सबकुछ	-11.3384
▁रायपुर	-11.3388
स्ट्र	-11.3398
▁Ind	-11.34
ऑ	-11.3403
▁स्तंभ	-11.3408
▁दिशानिर्देश	-11.3409
▁उपक्रमों	-11.3419
▁धर	-11.342
प्रो	-11.3421
▁एलान	-11.3422
▁गंतव्य	-11.3423
▁फ्लिपकार्ट	-11.3423
▁विवादास्पद	-11.3423
▁व्‍यापक	-11.3423
▁शिफ्ट	-11.3424
▁सर्जरी	-11.3424
▁सिद्धान्त	-11.3424
▁एंडरसन	-11.3424
▁उपाधि	-11.3424
▁उद्धार	-11.3425
pa	-11.3427
▁ललित	-11.3428
▁मंडली	-11.3431
▁आला	-11.3432
▁पॉ	-11.3434
▁फैन	-11.3435
▁नकार	-11.3438
▁बनेगी	-11.344
▁शुल्‍क	-11.3441
▁दत्ता	-11.3441
▁एसएसपी	-11.3442
्ह	-11.3442
▁चक्रवात	-11.3446
▁फिल्मकार	-11.3447
एगा	-11.3448
▁लोकप्रियता	-11.3449
ीप	-11.3451
▁बैठकें	-11.3454
▁हरीश	-11.3454
शाह	-11.3455
ोवा	-11.3455
नई	-11.3456
बाहरी	-11.3457
▁जजों	-11.3459
▁पुर	-11.3461
▁यान	-11.3468
कह	-11.347
▁98	-11.3471
▁सनराइज	-11.3472
▁अटैक	-11.3473
▁एसयूवी	-11.3473
▁अक्‍टूबर	-11.3476
▁घटाकर	-11.3477
विंदर	-11.3478
▁बाला	-11.348
▁20,000	-11.348
▁महाजन	-11.3482
ेक	-11.3483
▁सना	-11.3487
▁पॉवर	-11.3488
▁मालिकों	-11.3491
▁आंख	-11.3491
▁यूँ	-11.3491
क्षा	-11.3491
▁शासक	-11.3493
▁कलेक्टर	-11.3495
▁180	-11.3495
▁बदलना	-11.3505
पूर्वी	-11.3506
फल	-11.351
स्तर	-11.3512
▁राइफल	-11.3515
पट	-11.3516
▁विंड	-11.3517
▁पांडेय	-11.3526
▁डेढ़	-11.3526
▁मोहित	-11.3528
▁संलग्न	-11.3529
नेवाली	-11.3534
▁सूद	-11.3535
▁प्रतियोगिताओं	-11.3536
विन	-11.3536
▁बागी	-11.354
▁बदलते	-11.3545
ak	-11.3546
▁जिसपर	-11.3546
▁इनकम	-11.3549
▁श्याम	-11.3558
▁पुरस्कारों	-11.3561
▁आईएनएस	-11.3567
▁नाग	-11.3569
▁अब्राहम	-11.357
▁खुदकुशी	-11.357
▁पदाधिकारियों	-11.357
▁रितेश	-11.3571
▁एयरलाइंस	-11.3571
▁पुस्तकालय	-11.3571
▁साक्षरता	-11.3571
▁बढा	-11.3572
दीन	-11.3575
▁संपत्तियों	-11.3576
▁पह	-11.3577
▁श्रीकांत	-11.3577
▁CBI	-11.3578
▁बढ़ना	-11.3581
▁अन्याय	-11.3583
स्टार	-11.3584
▁बांट	-11.3584
▁लिहाजा	-11.3596
▁राजग	-11.3596
▁जयंत	-11.3602
57	-11.3605
तार	-11.361
▁ताप	-11.3613
▁संक्रमितों	-11.3615
▁पहाड़ों	-11.3616
▁डीजीपी	-11.3619
▁उन्नाव	-11.362
▁चौटाला	-11.362
▁ठिकानों	-11.362
▁प्रिंसिपल	-11.362
▁खतरों	-11.362
▁अखंडता	-11.3621
▁रोधी	-11.3621
▁गज	-11.3621
▁पटरी	-11.3622
92	-11.3623
▁ब्राह्मण	-11.3627
▁सम्बन्धित	-11.3628
▁यूएई	-11.3632
▁बुखार	-11.3649
▁चिट	-11.365
▁तिहाई	-11.3652
हमारा	-11.3652
▁घेरे	-11.3659
▁व्‍यक्ति	-11.3663
▁अक्षर	-11.3665
▁कर्फ्यू	-11.367
▁त्यौहार	-11.367
▁प्रमुखों	-11.367
▁नीतिवचन	-11.367
▁सस्ती	-11.3671
▁लटका	-11.3671
▁निदान	-11.3671
▁सिल्वर	-11.3672
▁मोटे	-11.3672
▁रायगढ़	-11.3673
▁सौरभ	-11.3675
क्रम	-11.3676
▁पचास	-11.3677
िना	-11.3682
▁बीएसपी	-11.3684
▁छोड	-11.3685
हि	-11.3689
▁अना	-11.3689
▁डराने	-11.369
▁पाइप	-11.3693
▁प्रशंसक	-11.3693
▁108	-11.3694
▁स्टैंड	-11.3699
▁ग्रस्त	-11.3699
▁शर्म	-11.37
▁११	-11.3701
राष्‍ट्रीय	-11.3701
हान	-11.3701
▁खण्ड	-11.3701
▁ताल	-11.3703
▁मोर	-11.3705
▁जोस	-11.3707
▁बढ़ोत्तरी	-11.372
▁शिनाख्त	-11.372
▁कॉर्पोरेट	-11.372
▁मसौदा	-11.372
▁प्रायोजित	-11.372
▁ऑक्सीजन	-11.372
▁जॉनसन	-11.3721
कला	-11.3724
फ़र	-11.3725
▁चोटिल	-11.3725
ia	-11.3727
▁आसियान	-11.3728
▁नायर	-11.3731
▁जै	-11.3731
▁थीम	-11.3733
▁t	-11.3733
▁विधियों	-11.3738
▁क्रॉस	-11.3739
▁ठहर	-11.3739
▁मधु	-11.374
▁94	-11.3742
▁डाक्टरों	-11.3743
ल्‍ड	-11.3746
▁संयंत्रों	-11.3746
डीए	-11.3752
▁सदनों	-11.3755
▁मानें	-11.3756
▁टैग	-11.3756
▁नस्ल	-11.3759
▁महत्त्व	-11.3769
▁सुलैमान	-11.377
▁अनलिमिटेड	-11.377
▁शोएब	-11.377
▁पूनम	-11.377
▁धूल	-11.3771
▁समीकरण	-11.3772
54	-11.3776
▁मीर	-11.3777
▁टावर	-11.3777
▁आलम	-11.3777
▁साइना	-11.3778
▁चंद्रमा	-11.3781
▁चु	-11.3781
▁प्रतिरोध	-11.3785
▁दुर्घटनाओं	-11.3786
न्ना	-11.3788
सेट	-11.3791
▁महाविद्यालय	-11.3794
र्ष	-11.3794
▁फॉलो	-11.3796
व्यवस्था	-11.3798
▁उत्‍पाद	-11.38
बीजेपी	-11.3802
अनु	-11.3803
द्	-11.3803
स्पीड	-11.3803
▁हरे	-11.3805
▁टीके	-11.3807
▁जरा	-11.3811
▁भेड़	-11.3811
▁गार्डन	-11.3812
▁दावेदार	-11.3814
▁अर्धशतक	-11.382
▁एजेंडा	-11.382
▁टॉर्क	-11.3821
▁सुहाना	-11.3821
▁टिकाऊ	-11.3821
▁पार्टियां	-11.3821
▁ढांचागत	-11.3821
▁हासन	-11.3822
▁डरा	-11.3823
▁कष्ट	-11.3823
▁रक्षामंत्री	-11.3824
▁87	-11.3825
▁मशीनरी	-11.3826
बै	-11.3827
▁उपयोगकर्ताओं	-11.383
▁प्रतिस्पर्धी	-11.383
61	-11.3831
बीर	-11.3833
▁2.0	-11.3834
▁खैर	-11.3836
▁उड़ा	-11.384
▁आएं	-11.3841
ेक्स	-11.3845
▁2,000	-11.3846
मोमिनीन	-11.3847
hi	-11.3849
▁नज़दीक	-11.3851
▁मोमिन	-11.3852
▁न्यास	-11.3854
ly	-11.3854
▁लेह	-11.386
▁बाध्य	-11.3862
▁दुर्लभ	-11.3871
▁विश्‍वविद्यालय	-11.3871
▁सुसमाचार	-11.3871
▁आइडिया	-11.3872
▁नैनो	-11.3872
▁असिस्टेंट	-11.3872
▁चंद्रयान	-11.3872
▁दिखने	-11.3872
▁हीरा	-11.3873
▁फेल	-11.3874
रियर	-11.3876
▁आजीवन	-11.3877
▁प्रतिज्ञा	-11.3878
▁क्वाड	-11.3878
.30	-11.388
▁तलब	-11.3882
पात	-11.3884
मै	-11.3885
▁एप्पल	-11.3887
▁बॉडी	-11.3889
कन	-11.3894
nd	-11.3896
▁टकरा	-11.3897
▁बीत	-11.3897
▁लॉस	-11.3897
दिया	-11.3898
▁होस्ट	-11.3899
▁नेताजी	-11.39
डिंग	-11.3913
▁दृढ़ता	-11.3914
▁गुरदासपुर	-11.3922
▁मुमकिन	-11.3922
▁बैंगलोर	-11.3922
▁जितेन्द्र	-11.3922
▁रीमेक	-11.3923
▁ढील	-11.3923
▁निरोधक	-11.3926
▁मिड	-11.3926
▁सम्पन्न	-11.3927
पुलिस	-11.3928
▁छोर	-11.3928
रहित	-11.3929
▁रिहाई	-11.3929
▁दस्तावेज़	-11.3932
▁350	-11.3937
▁ब्ल	-11.3943
▁जिन्ना	-11.3946
▁साइन	-11.3946
सीआर	-11.3946
▁रहीम	-11.3947
आईपी	-11.3949
▁बुल	-11.3949
म्बा	-11.3951
▁चौकी	-11.3953
ीं	-11.3953
▁पृथक	-11.3959
▁जाट	-11.396
▁रोकना	-11.3963
रिंग	-11.3971
▁उन्नयन	-11.3974
▁भयानक	-11.3974
▁तब्दील	-11.3974
▁खुशखबरी	-11.3974
▁सुप्रीमो	-11.3974
▁कचरा	-11.3974
▁आश्रय	-11.3974
▁दयावान	-11.3974
▁रोष	-11.3975
▁एशियन	-11.3975
▁लेटेस्ट	-11.3976
▁धमाके	-11.3977
▁रूख	-11.3982
▁कॉपी	-11.3983
वाक्य	-11.3985
▁खरे	-11.399
एनसीआर	-11.3991
▁कांड	-11.3991
mo	-11.3993
▁खादी	-11.3995
यार	-11.3999
इं	-11.4
▁उपहार	-11.4002
▁सेशन	-11.4009
ay	-11.4011
च्छ	-11.4011
▁प्रदर्शनों	-11.4011
▁मधुर	-11.4014
▁ब्रिज	-11.4016
जहां	-11.4017
▁गे	-11.4023
ारा	-11.4025
▁जगदीश	-11.4025
,990	-11.4025
▁मुजफ्फरपुर	-11.4025
▁उत्तरदायी	-11.4027
▁93	-11.4028
▁गोलियां	-11.4029
▁आगाह	-11.4031
▁मेरठ	-11.4032
्मा	-11.4032
काम	-11.4033
▁करोड	-11.4033
▁बरतने	-11.4033
▁इस्राएलियों	-11.4035
▁तीव्रता	-11.4035
▁जबरन	-11.4039
▁अर्ध	-11.4046
यक़ीनी	-11.4049
▁जू	-11.4052
मार्ग	-11.4052
ैर	-11.4053
▁रिपोर्टों	-11.4055
▁रोटी	-11.4056
▁विकल्पों	-11.4056
▁बैर	-11.4058
▁तबाह	-11.4062
▁नी	-11.4066
▁करुणा	-11.407
जय	-11.407
प्स	-11.4071
मित	-11.4074
ड्स	-11.4076
▁अमेठी	-11.4077
▁कैथोलिक	-11.4077
▁गर्दन	-11.4077
▁गैलेक्सी	-11.4077
▁धरोहर	-11.4077
▁मन्दिर	-11.4077
▁दांव	-11.4077
▁बर्थडे	-11.4077
▁सुराग	-11.4077
▁उपराज्यपाल	-11.4077
▁संकाय	-11.4077
▁बाजवा	-11.4078
▁अमन	-11.408
अनक़रीब	-11.4081
▁प्रतिफल	-11.4082
▁चुनौतीपूर्ण	-11.4085
▁बनीं	-11.4092
ाद	-11.4096
▁पापा	-11.4098
▁दिखता	-11.4099
▁सूखे	-11.41
▁प्रज्ञा	-11.4103
▁उत्‍पादों	-11.4104
००	-11.4106
डॉ	-11.4108
स्थान	-11.4111
ट्रा	-11.4111
▁निर्धारिती	-11.4112
▁समझाने	-11.4118
per	-11.4127
▁अस्वीकार	-11.4127
▁नेतृत्‍व	-11.4129
▁दखल	-11.4129
▁बटलर	-11.4129
नेस	-11.4132
एआई	-11.4132
▁प्रीति	-11.4133
▁चंद्रबाब	-11.4134
▁वर्गीकरण	-11.4135
%)	-11.4139
▁करनाल	-11.4141
▁सेक्स	-11.4143
▁बचना	-11.4144
▁स्पिन	-11.4146
▁पैट	-11.4147
▁एमडी	-11.4148
▁कोरियाई	-11.4148
▁वेद	-11.4149
▁रात्रि	-11.4149
▁बंदरगाहों	-11.4149
▁बंगाली	-11.415
▁विनियमन	-11.415
▁सुरंग	-11.4156
se	-11.4158
▁स्टूडियो	-11.4173
▁5:	-11.4177
फोन	-11.4178
▁बटालियन	-11.4181
▁मित्तल	-11.4181
▁शृंखला	-11.4181
▁व्हाट्सएप	-11.4181
▁सार्थक	-11.4181
▁पोखरियाल	-11.4181
▁Vivo	-11.4181
▁जनगणना	-11.4181
▁रविंद्र	-11.4182
▁नर्मदा	-11.4182
▁प्रान्त	-11.4182
▁लक्षित	-11.4182
▁जनहित	-11.4183
▁बहुजन	-11.4183
▁एलेक्स	-11.4183
▁नेहा	-11.4185
▁शेखर	-11.4185
▁गोपनीयता	-11.4186
▁हरदीप	-11.4194
जीवन	-11.4195
▁एमएएच	-11.42
ल्ल	-11.4202
▁इतर	-11.4203
▁कार्गो	-11.4203
▁कम्प	-11.4204
टिव	-11.4208
▁3.5	-11.4209
एपी	-11.4216
एनएस	-11.4218
▁अनुमोद	-11.4223
▁अल्	-11.4224
com	-11.4229
ab	-11.4231
▁गोविंद	-11.4233
▁आवागमन	-11.4234
▁पोजीशन	-11.4234
▁बंसल	-11.4234
▁पराजित	-11.4234
▁उड़ीसा	-11.4234
▁उपभोग	-11.4235
▁रिपोर्ट्स	-11.4235
▁संग्राम	-11.4236
▁अपवाद	-11.4236
▁आपत्तिजनक	-11.4239
▁साई	-11.4243
▁लैंगिक	-11.4243
ंडी	-11.4245
▁लेखकों	-11.4247
क़ायम	-11.425
रल	-11.4252
▁यूके	-11.4253
▁पेय	-11.4253
▁उत्सुक	-11.4253
▁फार्मा	-11.4254
पुरी	-11.4254
▁सेकंड	-11.4259
ंध	-11.4261
टीसी	-11.4262
िफ	-11.4264
▁ठंडा	-11.4267
▁कराता	-11.427
बात	-11.4271
▁विस्फोटक	-11.4271
▁धरने	-11.4273
▁लैपटॉप	-11.4287
▁इकाइयां	-11.4287
▁पुनरुत्थान	-11.4287
▁मौर्य	-11.4287
▁रसोई	-11.4287
▁नोटिफिकेशन	-11.4287
▁गाड़ियां	-11.4287
▁जानकारियां	-11.4287
एमपी	-11.4289
▁रॉकेट	-11.4289
▁यमुना	-11.429
age	-11.4291
टि	-11.4291
्‍ल	-11.4292
▁यंत्र	-11.4292
▁मसला	-11.4294
▁क्रिकेटरों	-11.4295
00	-11.4296
▁पीडि़त	-11.4296
53	-11.4298
?""	-11.4299
ाज	-11.43
94	-11.4303
▁पीएनबी	-11.4304
▁89	-11.431
डू	-11.4312
▁कर्ण	-11.4313
▁समन	-11.4317
▁--	-11.4318
▁आज़ाद	-11.432
▁सम्	-11.4324
▁बताओ	-11.4327
co	-11.4327
सेवा	-11.433
▁शोधन	-11.4335
▁वरन	-11.4338
▁कांग्रेसी	-11.4339
भाँति	-11.434
▁अंबेडकर	-11.434
▁पीपुल्स	-11.434
▁सहानुभूति	-11.434
▁ख़त्म	-11.434
▁कैशबैक	-11.434
▁2010-11	-11.434
▁अवमानना	-11.4341
▁हल्का	-11.4341
▁बाह्य	-11.4341
▁प्रजातियों	-11.4341
▁समीर	-11.4342
▁हनुमान	-11.4343
▁भ्रम	-11.4344
▁रखिए	-11.4345
▁मार्केटिंग	-11.4346
▁विशेषताओं	-11.4348
▁सीखना	-11.4351
▁स्वाद	-11.4352
tion	-11.4354
▁मान्य	-11.4356
विज्ञान	-11.4357
▁भक्ति	-11.4359
▁जेडीएस	-11.4362
▁पाठ्यक्रमों	-11.4363
▁उद्यमी	-11.4363
कहा	-11.4365
▁चरम	-11.4365
सिया	-11.4365
▁पेड़ों	-11.4368
▁बढ़ाते	-11.4369
लों	-11.4371
▁दिशानिर्देशों	-11.4371
▁बसे	-11.4372
▁ग़लत	-11.4373
संभव	-11.4375
कट	-11.4375
▁संस्‍कृति	-11.4378
▁हाईवे	-11.438
▁प्रतिष्ठान	-11.4382
▁इनको	-11.4389
सेल	-11.439
▁वीरभद्र	-11.4394
▁दहेज	-11.4394
▁नोबेल	-11.4394
▁राजकोषीय	-11.4394
56	-11.4394
▁सोनू	-11.4396
mi	-11.4399
▁रंगारं	-11.4402
▁आरजेडी	-11.4404
▁सियास	-11.4411
युक्‍त	-11.4416
▁ड्यूल	-11.4416
्ते	-11.4423
स्वामी	-11.4428
़त	-11.443
▁जगन	-11.443
मुक्त	-11.4432
ोज	-11.4435
▁कहर	-11.4436
छा	-11.4436
▁पक्षियों	-11.4439
हत	-11.444
▁नीदरलैंड	-11.4441
ee	-11.4443
▁रॉ	-11.4447
यत	-11.4447
▁अथॉरिटी	-11.4447
▁परिकल्पना	-11.4447
▁मुआवजे	-11.4447
▁वेणुगोपाल	-11.4447
▁डोभाल	-11.4447
▁सितारों	-11.4447
▁स्नेह	-11.4447
▁भावुक	-11.4448
-21	-11.445
▁मुड़	-11.445
▁पूछते	-11.4452
▁हटकर	-11.4456
man	-11.4457
पक	-11.4457
▁रिकवरी	-11.4458
▁पढ़ी	-11.4459
ance	-11.446
▁वाम	-11.4461
▁उद्	-11.4463
▁चेतना	-11.4466
▁निदेशकों	-11.4468
.50	-11.4473
▁कमेंट	-11.4475
मगर	-11.4479
▁पिंक	-11.4482
महा	-11.4496
▁प्रतिबंधों	-11.4498
▁बेड	-11.45
▁Re	-11.4501
▁बर्ताव	-11.4501
▁रिजिजू	-11.4501
▁हिकमत	-11.4501
▁लम्बे	-11.4502
▁विलंब	-11.4502
▁सस्ते	-11.4502
▁गैरकानूनी	-11.4502
▁जद	-11.4502
▁जीपीएस	-11.4503
▁स्‍थानीय	-11.4504
▁खत	-11.4505
▁हुकूमत	-11.4506
पीएल	-11.4506
▁स्वीकार्य	-11.4508
▁नेअमत	-11.451
▁फ्र	-11.451
ज़र	-11.451
▁नूर	-11.4512
तोड़	-11.4513
▁नु	-11.4514
▁तन	-11.4514
▁रॉयल्स	-11.4515
त्ता	-11.4517
-6	-11.4518
▁साइड	-11.4523
▁आईएस	-11.4524
▁सृष्टि	-11.4525
▁on	-11.4527
▁140	-11.4534
▁चन्द	-11.4537
एएस	-11.4538
▁बाय	-11.4538
▁सदस्‍यों	-11.4545
▁संगीतकार	-11.4545
▁कैट	-11.4548
आईएम	-11.4548
बि	-11.4551
▁निदेश	-11.4552
▁नोटों	-11.4553
▁उन्मूलन	-11.4556
▁पारस्परिक	-11.4556
▁सुलभ	-11.4556
▁बीएसएनएल	-11.4556
▁अपर्चर	-11.4556
▁लम्बी	-11.4556
ाइजेशन	-11.4556
▁बैकअप	-11.4557
▁ठ	-11.4557
▁खाद	-11.4561
▁रथ	-11.4561
▁हब	-11.4561
करीब	-11.4562
▁शाखाओं	-11.4567
▁फैसलों	-11.4572
▁बाएं	-11.4573
सिस	-11.4574
▁जलाने	-11.4582
▁टा	-11.4589
बाई	-11.459
▁ढूंढ	-11.459
ist	-11.4591
▁ऊ	-11.4592
▁चलाते	-11.4592
उन्हें	-11.4596
▁अहल	-11.4597
▁सहन	-11.4597
▁रॉक	-11.4599
लिस	-11.46
हाउस	-11.4602
▁लाओ	-11.4602
▁फलों	-11.4609
▁रेशम	-11.4609
▁दशमलव	-11.461
▁दहशत	-11.461
▁मयंक	-11.461
▁आशुतोष	-11.461
समेकित	-11.461
▁खातिर	-11.461
▁किराए	-11.4611
ाड	-11.4611
▁स्पेक्ट्रम	-11.4611
▁पालने	-11.4613
▁कैलिफोर्निया	-11.4613
▁भुला	-11.4613
▁पाएँगे	-11.4615
▁शास्त्रीय	-11.4617
ाइज	-11.4621
▁न्यूज़	-11.4623
▁परम	-11.4628
ज्ञान	-11.4629
▁gov	-11.4629
▁पड़ते	-11.4635
▁ण	-11.4644
▁115	-11.4644
बड़े	-11.4647
▁उपदेश	-11.4648
▁शूट	-11.4651
▁अभियानों	-11.4656
▁स्टार्टअप	-11.466
▁मॉल	-11.4661
▁बादशाह	-11.4663
▁राजनेता	-11.4663
▁इस्‍पात	-11.4665
▁कुंबले	-11.4665
▁प्रत्याशियों	-11.4665
▁रोमांटिक	-11.4665
▁स्कूटर	-11.4665
▁गुड़गांव	-11.4665
▁ब्यौरा	-11.4665
▁टैगोर	-11.4666
▁रूचि	-11.4666
▁काजोल	-11.4666
▁सुशासन	-11.4666
▁रच	-11.4667
▁निष्ठा	-11.4668
▁फै	-11.4672
बाक़ी	-11.4672
▁सीपीआई	-11.4679
▁देवताओं	-11.4679
ter	-11.468
▁यक़ीन	-11.4682
पान	-11.4683
har	-11.4685
▁इमारतों	-11.4688
▁निशाने	-11.4689
▁एयरलाइन	-11.469
▁शे	-11.4694
▁मेहमान	-11.4695
▁परिवर्तनों	-11.4695
▁बांड	-11.4699
▁बारीक	-11.471
ट्	-11.4711
दारी	-11.4716
▁दलितों	-11.472
▁तीर्थ	-11.472
▁ठहरे	-11.472
▁अहसास	-11.4721
▁लाठीचार्ज	-11.4721
▁वसीम	-11.4721
▁स्वैच्छिक	-11.4721
▁सलीम	-11.4721
▁कैरियर	-11.4721
▁मंशा	-11.4721
▁उस्मान	-11.4721
▁पदभार	-11.4722
▁लाभांश	-11.4722
▁श्रीराम	-11.4722
▁बेदी	-11.4724
▁1984	-11.473
▁खरीफ	-11.4731
▁वैधता	-11.4734
▁तख्त	-11.4734
ईएस	-11.474
▁h	-11.4744
ांत	-11.4745
मह	-11.4748
▁कैल	-11.4755
चढ़ाव	-11.4764
कुमार	-11.4764
▁चुनिंद	-11.4766
-12	-11.4767
रक	-11.477
▁कौल	-11.4771
विशेष	-11.4772
▁पन	-11.4774
ve	-11.4775
▁उपर	-11.4776
▁परसतिश	-11.4776
▁माधुरी	-11.4776
▁युजवेंद्र	-11.4776
▁सिपाही	-11.4776
▁एनटीपीसी	-11.4776
▁नामजद	-11.4776
हादसों	-11.4776
▁आपातकाल	-11.4776
▁बदतर	-11.4777
▁दयालुता	-11.4779
रिस	-11.478
▁1998	-11.4782
▁1.	-11.4785
▁बाँध	-11.4787
ध्य	-11.4795
▁चिर	-11.4805
▁धनी	-11.4808
▁चंदा	-11.481
▁राजे	-11.481
्प	-11.4815
▁अम	-11.4819
▁कारकों	-11.482
▁ड्रग	-11.4829
▁ग्रे	-11.4831
्का	-11.4832
▁ट्रांसपोर्ट	-11.4832
▁कोटक	-11.4832
▁इंतज़ार	-11.4832
▁भविष्‍य	-11.4832
▁सर्टिफिकेट	-11.4832
▁मौद्रिक	-11.4832
▁फिंगरप्रिंट	-11.4832
▁नवजात	-11.4832
▁रहस्य	-11.4832
▁ड्रेस	-11.4836
▁घूमने	-11.4838
तंत्र	-11.4839
▁श्वेता	-11.484
▁टेस्टिंग	-11.484
▁मस्ती	-11.484
no	-11.484
ड्	-11.4841
दाताओं	-11.4844
▁प्रदर्शनकारी	-11.4845
▁एसए	-11.4849
देना	-11.4857
्वे	-11.4857
▁अध्यापकों	-11.4858
▁रंगों	-11.4859
लम	-11.486
▁अध्यापक	-11.4862
▁दबंग	-11.4862
▁कैप	-11.4864
बन	-11.4869
▁नियमन	-11.487
▁टूर	-11.4871
▁सुगमता	-11.4872
रानी	-11.4874
▁मंजिल	-11.4876
शिप	-11.4878
ाला	-11.4878
▁मित्रता	-11.4881
▁उन्हे	-11.4882
▁बीबी	-11.4886
▁नल	-11.4887
बरा	-11.4888
▁मत्स्य	-11.4888
▁इब्राहीम	-11.4888
▁फेस्टिवल	-11.4888
▁कार्यान्‍वयन	-11.4888
▁अनावरण	-11.4888
▁ज़माने	-11.4888
▁Cup	-11.4889
ोरा	-11.4889
▁विचाराधीन	-11.489
▁झंडी	-11.4891
▁फोटोग्राफी	-11.4894
▁परंपराओं	-11.4895
ुख्ता	-11.4896
▁महाद्वीप	-11.4897
▁स्वप्न	-11.4898
▁नौका	-11.4899
▁राजी	-11.4899
▁पुस्तकें	-11.49
▁आँखों	-11.4903
हरा	-11.4904
▁विश	-11.4905
▁गौ	-11.4906
▁छापे	-11.4909
▁उमा	-11.491
▁बनें	-11.491
▁हमको	-11.4912
▁मानदंडों	-11.4912
दन	-11.4915
▁गुड	-11.4916
▁डाक्टर	-11.492
▁निकली	-11.4923
▁दिव्यांग	-11.4923
▁परहेज़गार	-11.4924
▁कॉमर्स	-11.493
विरोधी	-11.4936
कॉन	-11.4937
▁पार्टनर	-11.4939
एसएल	-11.4944
▁पुजारा	-11.4945
▁मॉनसून	-11.4945
▁शेड्यूल	-11.4945
▁यथास्थिति	-11.4945
वेन	-11.4947
खंड	-11.4947
▁एल्बम	-11.4948
▁वैसी	-11.4948
▁अंबाला	-11.4949
▁ख़राब	-11.4949
▁विक्रय	-11.4954
पै	-11.4955
▁उड़ानें	-11.4958
ईएम	-11.4962
ब्ब	-11.4964
आरएस	-11.4966
▁अक्षम	-11.4989
वर्षीय	-11.4992
ेयर	-11.4993
र्थ	-11.4994
▁104	-11.4999
▁एज	-11.5
▁एजेंडे	-11.5001
▁कलेक्शन	-11.5001
▁जालंधर	-11.5001
▁जिलाधिकारी	-11.5001
▁विश्राम	-11.5001
▁ऑंख	-11.5001
▁क्लिंटन	-11.5001
▁Price	-11.5001
▁विधायी	-11.5002
▁पशुपालन	-11.5002
-14	-11.5002
▁टिप्पणियों	-11.5003
▁अनौपचारिक	-11.5004
▁रहूंगा	-11.5005
▁वस्तुएं	-11.5007
▁UP	-11.5007
▁साधनों	-11.5008
▁नर्स	-11.5009
▁ICC	-11.5011
▁शेन	-11.5012
▁नीत	-11.5013
▁चलेगी	-11.5016
▁मनाते	-11.5017
जंग	-11.502
▁4,000	-11.5023
सीआई	-11.5026
▁क्लीन	-11.5027
▁एपी	-11.5027
▁एमएसपी	-11.5028
▁अफसरों	-11.504
िशन	-11.5041
कत	-11.5047
फिल्म	-11.5048
ेन्‍द्र	-11.5057
ारी	-11.5058
▁रविचंद्रन	-11.5059
▁थिएटर	-11.5059
▁शर्मनाक	-11.5059
▁ऑलराउंडर	-11.5059
▁पक्का	-11.5059
▁रोचक	-11.5061
ाग	-11.5062
▁ड्राइविंग	-11.5063
Name	-11.5063
▁प्रवासियों	-11.5063
▁अकादमिक	-11.5064
▁आदमियों	-11.5064
▁ग्रेटर	-11.5065
▁हाफिज	-11.5067
▁निरीक्षक	-11.5068
▁बाई	-11.5075
बेल	-11.5077
िला	-11.5077
▁भु	-11.5077
▁लाभकारी	-11.508
सीमा	-11.5082
▁नाथन	-11.5089
वेद	-11.5089
▁युक्ति	-11.5094
भि	-11.5095
op	-11.5096
▁एमओयू	-11.5101
▁w	-11.5101
▁इकट्ठ	-11.5104
▁De	-11.5104
▁गोले	-11.5106
ाइ	-11.5106
डीआर	-11.511
▁धूप	-11.5115
▁आत्मघाती	-11.5116
▁आयुर्विज्ञान	-11.5116
▁तैमूर	-11.5116
▁हामिद	-11.5116
▁वैरिएंट	-11.5116
▁तिहाड़	-11.5116
▁कैलेंडर	-11.5116
▁चुप्पी	-11.5116
▁फारूक	-11.5116
▁काउंटी	-11.5116
▁उपराष्‍ट्रपति	-11.5116
▁जेडीयू	-11.5116
ंव	-11.5116
▁कराची	-11.5118
▁पूंजीगत	-11.5118
▁यूरिया	-11.5118
▁जीवंत	-11.5119
समझ	-11.5121
▁सम्भव	-11.5121
▁विराम	-11.5121
and	-11.5125
▁व्रत	-11.5125
▁अंतर्	-11.5129
▁एजेंसियां	-11.513
▁छापा	-11.513
▁तारा	-11.5137
बंद	-11.5148
▁चौंकाने	-11.5149
सिन	-11.5149
▁क्ल	-11.5155
▁दाल	-11.516
"")	-11.516
.15	-11.5162
एफसी	-11.5167
▁लोकल	-11.5169
▁विजयी	-11.5169
▁डाइ	-11.5169
▁अय्यूब	-11.5174
▁मुख्यातिथि	-11.5174
▁मुशर्रफ	-11.5174
कदापि	-11.5174
▁फ्रांसीसी	-11.5174
▁ट्रांसमिशन	-11.5174
▁बिपिन	-11.5174
शु	-11.5174
▁बागवानी	-11.5174
▁लूका	-11.5176
▁एबी	-11.5176
▁वर्गीकृत	-11.5176
▁स्थाई	-11.5177
▁1990	-11.5177
▁असंभव	-11.5177
सराहनीय	-11.5178
▁अभिलेख	-11.5179
up	-11.5181
इससे	-11.5182
▁कैदी	-11.5188
▁स्‍व	-11.5189
▁मानती	-11.519
▁आलू	-11.5192
▁गांधीनगर	-11.5193
▁वृद्ध	-11.5194
▁बालिका	-11.5197
07	-11.5202
▁देंगी	-11.5205
▁रिश्तेदारों	-11.5206
86	-11.5209
▁बंदूक	-11.5227
▁कोशिका	-11.5228
▁उपभोक्‍ता	-11.5229
▁ढाल	-11.5231
▁चैम्पियन	-11.5232
▁डेप्थ	-11.5232
▁षड्यंत्र	-11.5232
▁आक्रोश	-11.5232
▁खंगाल	-11.5232
▁सपनों	-11.5232
▁ताहिर	-11.5232
▁हेमंत	-11.5232
▁एयरवेज	-11.5233
▁अप्रिय	-11.5234
▁गर्इ	-11.5234
▁नियंत्रक	-11.5236
▁मौखिक	-11.5236
▁जॉब	-11.5237
▁बांटने	-11.5238
▁पोषक	-11.5239
▁मसलन	-11.524
खी	-11.5241
▁ओबीसी	-11.5243
ूँ	-11.5244
सान	-11.5244
▁जन्नत	-11.5244
▁कोचिंग	-11.5247
▁पुष्प	-11.525
एनसी	-11.5251
▁डीएनए	-11.5256
▁खाओ	-11.5257
▁डीआरडीओ	-11.5257
▁अफवाह	-11.5262
▁प्रोड्यूसर	-11.5267
स्थापित	-11.5267
-10	-11.5268
▁पहुँचने	-11.5276
बैक	-11.5276
िच	-11.5281
▁हिला	-11.5283
▁वादों	-11.5289
▁बैठकर	-11.5289
▁एनकाउंटर	-11.529
▁वकालत	-11.529
▁फैक्ट्री	-11.5291
▁सुसंगत	-11.5291
▁सार्वभौमिक	-11.5291
▁मैसूर	-11.5291
(1)	-11.5291
▁डिलीवरी	-11.5292
▁शीला	-11.5294
▁बंधक	-11.5299
▁ट्यूब	-11.53
▁अनदेखी	-11.5301
▁दिव्य	-11.5302
▁रहनेवाले	-11.5304
▁उपर्युक्त	-11.5305
पार्थिव	-11.5305
▁प्रविष्टि	-11.5306
▁पाती	-11.5312
▁भाग्य	-11.5314
▁वसूल	-11.5316
-7	-11.532
▁तेज़ी	-11.5321
▁छोड़े	-11.5323
▁रचा	-11.5326
▁व्या	-11.5328
नेवाला	-11.5332
▁सौंपे	-11.5333
▁मैट	-11.5338
सामने	-11.5339
र्ब	-11.5345
▁काटने	-11.5348
▁पठान	-11.5349
▁मैक्रो	-11.5349
▁एडवोकेट	-11.5349
▁गलियारे	-11.5349
▁गुणवत्‍ता	-11.5349
▁पुडुचेरी	-11.5349
▁कन्हैया	-11.5349
▁भूस्खलन	-11.5349
▁न्‍याय	-11.5349
▁बहुपक्षीय	-11.5349
▁मैनुअल	-11.5349
▁ग्लेन	-11.535
▁फुटबाल	-11.535
▁सावंत	-11.535
▁नोकिया	-11.535
▁पीटा	-11.5351
▁सिंधू	-11.5351
▁समूचे	-11.5351
▁देगें	-11.5355
▁सोलर	-11.5356
▁सिडनी	-11.5357
ुक	-11.5357
▁गेम्स	-11.5364
▁शुमार	-11.5366
▁मिट	-11.5367
अस	-11.5373
▁08	-11.5379
▁हाथी	-11.538
▁ईपीएफओ	-11.538
▁कृत्य	-11.5382
▁शरणार्थ	-11.5389
▁मणि	-11.5389
टाइम	-11.539
▁l	-11.539
ष्ठ	-11.5391
जीएसटी	-11.5398
▁वॉर	-11.5404
▁प्रजनन	-11.5408
▁मादक	-11.5409
▁चाचा	-11.5409
▁लाभदायक	-11.541
▁असामान्य	-11.5411
▁अज	-11.5411
▁वामपंथी	-11.5412
▁नहरें	-11.5412
▁कमिंस	-11.5413
कर्मी	-11.5413
▁सत	-11.5414
▁मजा	-11.5414
▁प्रतिवर्ष	-11.5417
▁टेलर	-11.5418
▁रामपुर	-11.5418
▁एं	-11.5419
.40	-11.5421
▁सुधर	-11.5422
▁(5	-11.5423
ैम	-11.5426
▁भट	-11.5437
्ली	-11.5439
▁निकलता	-11.5446
▁जैकी	-11.545
▁पांचवीं	-11.5456
▁माई	-11.5458
▁डाय	-11.5464
▁सौंपने	-11.5465
▁निवेदन	-11.5468
▁चिपसेट	-11.5468
▁डिप्लोमा	-11.5468
▁एंटरटेनमेंट	-11.5468
▁हिसार	-11.5468
▁क्रिसमस	-11.5468
▁विहित	-11.5469
▁सुविधाजनक	-11.547
▁नर्सिंग	-11.5471
▁वित्तमंत्री	-11.5472
▁कियारा	-11.5474
▁खुलत	-11.5474
▁अनन्त	-11.5475
▁पहनने	-11.5475
▁अं	-11.5475
▁चिकित्‍सा	-11.5476
ुड	-11.5482
साई	-11.5482
▁नासा	-11.5483
▁बाहम	-11.5488
▁आज़ादी	-11.5491
सह	-11.5495
फिल	-11.5501
▁नं	-11.5505
लेस	-11.5509
्राइड	-11.5512
▁बन्दे	-11.5512
बाप	-11.5513
ऊंगा	-11.5519
पुरुष	-11.5519
▁स्वायत्त	-11.5522
▁बर्	-11.5525
▁डो	-11.5525
▁com	-11.5525
▁नगरपालिका	-11.5526
▁चमत्कार	-11.5528
▁टंडन	-11.5528
▁प्रमोद	-11.5528
▁बेसब्री	-11.5528
▁लड़कियां	-11.5528
▁नमूना	-11.5528
▁घनिष्ठ	-11.5528
▁हारून	-11.553
▁घुटने	-11.553
▁फैली	-11.553
▁क्षमाशील	-11.553
▁प्राइस	-11.5531
▁एसटी	-11.5533
▁04	-11.5535
▁होल्डर	-11.554
▁पूरक	-11.5543
II	-11.5545
▁खिला	-11.5547
तल	-11.5548
▁घंटा	-11.5548
▁कहानियों	-11.5551
▁मैरी	-11.5552
टीएस	-11.5554
▁सीरीज़	-11.5554
▁मानसिकता	-11.5555
खे	-11.5563
▁वारिस	-11.5563
ग्न	-11.5563
▁पेशे	-11.5566
आइपीएल	-11.5568
▁फी	-11.5574
▁ब्रह्म	-11.5575
▁पुत्री	-11.5575
▁स्टारर	-11.5577
प्रभु	-11.5579
ग़रज़	-11.5579
बसपा	-11.5582
▁चैट	-11.5582
▁यों	-11.5587
▁अगुआई	-11.5588
▁उपाध्याय	-11.5588
▁चड्ढा	-11.5588
▁टमाटर	-11.5588
▁बेल्जियम	-11.5588
▁व्यायाम	-11.5588
▁अभ्यर्थी	-11.5588
▁हौसला	-11.5588
▁अनमोल	-11.5588
▁इंडेक्स	-11.5588
▁काउंटर	-11.5588
▁गुरुद्वारा	-11.5588
▁अनुभाग	-11.5589
▁खासियत	-11.559
▁महाभारत	-11.5593
▁सामान्यतः	-11.5593
▁रिपब्लिकन	-11.5597
ni	-11.56
▁जोसेफ	-11.56
▁बीएसई	-11.56
▁लगाएं	-11.5601
▁केशव	-11.5601
▁मेनन	-11.5605
▁नमन	-11.5608
्हा	-11.5612
▁निकालकर	-11.5615
▁हममें	-11.5615
▁नारा	-11.5619
▁(7	-11.5619
▁महाराजा	-11.5621
▁फिल	-11.5621
▁आवेदक	-11.5622
फै	-11.5627
▁फौज	-11.5628
आम	-11.563
▁याजक	-11.563
▁खेतों	-11.5637
▁माधव	-11.5639
स्टा	-11.564
▁छाप	-11.5641
▁for	-11.5642
मोहन	-11.5644
▁बाघ	-11.5645
▁उम्‍मीद	-11.5646
बोर्ड	-11.5646
▁निविदा	-11.5648
▁ट्रोल	-11.5649
▁तहरीर	-11.5649
▁मथुरा	-11.5649
▁सावरकर	-11.5649
▁लाभार्थी	-11.5649
▁उपरांत	-11.5649
▁तत्वदर्शी	-11.5649
▁2012-13	-11.5649
▁गिरिराज	-11.5649
▁अपमानजनक	-11.5649
▁प्रदत्त	-11.5649
▁पांव	-11.5649
▁धर्मशाला	-11.565
▁एक्सिस	-11.5652
▁चालकों	-11.5652
बैंक	-11.5655
▁ओएनजीसी	-11.5655
pe	-11.5664
ैंड	-11.5669
▁भोज	-11.567
▁कार्ति	-11.5671
सिल	-11.5673
▁गुजराती	-11.5673
▁re	-11.5676
फ्ट	-11.5685
▁टाई	-11.5686
झा	-11.5686
द्वारा	-11.5693
▁1980	-11.57
मुस्लिम	-11.5702
र्त	-11.5704
साइट	-11.5709
▁खड़गे	-11.571
▁पंड्या	-11.571
▁मजेदार	-11.571
▁सुखबीर	-11.571
▁सुलझा	-11.5713
▁आर्	-11.5714
टेन	-11.5715
▁घटित	-11.5719
▁गड़बड़ी	-11.572
▁किशोरी	-11.5725
▁06	-11.573
वेयर	-11.5731
▁मादा	-11.5735
.45	-11.5736
▁राजाओं	-11.5741
▁गला	-11.5743
▁अन्ना	-11.575
रंग	-11.5752
लीड	-11.5752
▁सेबी	-11.5753
▁रै	-11.5755
▁उतरी	-11.576
▁मुहर	-11.576
▁वर	-11.5761
कारों	-11.5763
वर्तमान	-11.5764
▁शॉट	-11.5765
▁कराते	-11.5768
▁प्रदाता	-11.577
▁बास्केट	-11.5771
आख़ेरत	-11.5771
▁एनजीओ	-11.5771
▁सहभागिता	-11.5771
▁इंडिगो	-11.5771
▁Oppo	-11.5771
▁खिलाडिय़ों	-11.5771
▁गियरबॉक्स	-11.5771
▁वक़्त	-11.5771
▁निर्वहन	-11.5771
▁पठानकोट	-11.5771
▁ऑटोमोबाइल	-11.5771
▁मंचों	-11.5771
▁Bank	-11.5771
▁प्रतिभाशाली	-11.5771
▁मौ	-11.5772
▁कार्यवाहक	-11.5773
▁उत्प	-11.5774
▁झुक	-11.5775
▁दिलजीत	-11.5776
बेस	-11.5778
▁बाधाओं	-11.5778
.25	-11.5779
▁कॉन्फ्रेंसिंग	-11.578
▁चो	-11.578
-11	-11.578
चित	-11.5781
▁टॉ	-11.5782
▁जोड़ना	-11.5782
▁बीजिंग	-11.5782
▁जासूसी	-11.5783
ंगल	-11.5786
▁हवाओं	-11.5786
▁गढ़वाल	-11.5791
▁नकली	-11.5793
यर्स	-11.5797
▁वेल्स	-11.5798
▁6:	-11.5808
▁घटाने	-11.5811
▁हिन्दुस्तान	-11.5812
▁(10	-11.5814
राय	-11.5819
▁जमाने	-11.5819
▁हाइ	-11.5824
▁जंगली	-11.5826
‍त	-11.583
▁प्रोफाइल	-11.5831
▁कारतूस	-11.5833
▁बोबडे	-11.5833
▁मेक्सिको	-11.5833
▁शाऊल	-11.5833
▁स्विट्जरलैंड	-11.5833
▁नेहवाल	-11.5833
▁दीपावली	-11.5833
▁इमाम	-11.5833
▁सजदा	-11.5833
▁विनिश्चय	-11.5833
▁पैटर्न	-11.5833
▁लाता	-11.5834
▁ड्रा	-11.5835
▁1971	-11.5835
▁सिद्दीकी	-11.5836
nic	-11.5838
▁कि‍	-11.5842
▁जोड़कर	-11.5845
▁शान	-11.5849
▁नरम	-11.585
▁डॉन	-11.585
▁यूएसबी	-11.5851
▁हाउसिंग	-11.5852
▁करनेवाली	-11.5853
▁02	-11.5854
धि	-11.5855
▁समयबद्ध	-11.5855
▁लक्षणों	-11.5859
▁देय	-11.5865
▁वयस्क	-11.5868
▁प्राचीनों	-11.587
▁भीम	-11.5871
▁मानदंड	-11.5871
ि‍क	-11.5882
▁काशी	-11.5882
▁अपनाई	-11.5886
हालांकि	-11.5888
पाक	-11.5889
▁कुर	-11.5889
▁कसा	-11.5893
▁पॉप	-11.5893
▁ऋषभ	-11.5895
▁एपिसोड	-11.5895
▁जगन्नाथ	-11.5895
▁भास्कर	-11.5895
▁राजभवन	-11.5895
▁स्थानांतरण	-11.5896
▁ड्रामा	-11.5896
▁विक्रेताओं	-11.5897
▁प्रजाति	-11.5897
▁निर्णयों	-11.5902
अपना	-11.5905
▁अनुक्रम	-11.5906
▁क़रार	-11.5907
▁बनाएंगे	-11.5907
▁अमेरिकन	-11.5909
लेखक	-11.5913
▁SC	-11.5913
आईए	-11.5915
▁स्वदेश	-11.5918
लन	-11.592
▁जातीय	-11.592
ers	-11.5922
ुओं	-11.5923
लेन	-11.5924
▁दण्ड	-11.5927
वेट	-11.5929
डीएस	-11.5929
▁थक	-11.5929
▁नैतिकता	-11.5932
जनों	-11.5939
▁गलतियों	-11.5944
▁पड	-11.595
ओसी	-11.5951
छोटे	-11.5951
.07	-11.5953
.85	-11.5954
अभी	-11.5957
निश्‍चित	-11.5957
▁आकस्मिक	-11.5957
▁तुषार	-11.5957
▁नैदानिक	-11.5957
▁सांसारिक	-11.5957
▁इकबाल	-11.5958
▁निराशाजनक	-11.5958
▁इन्सान	-11.5958
▁संयोग	-11.5959
ैल	-11.5959
▁बर्तन	-11.596
▁खेद	-11.596
शाली	-11.596
▁ग्रेजुएट	-11.5963
▁गायिका	-11.5964
▁कमजोरी	-11.5964
▁वहन	-11.5964
▁ढा	-11.5965
▁विजिट	-11.5966
एंड	-11.5966
▁डीजी	-11.5971
▁मृतका	-11.5973
तीत	-11.5976
मध्य	-11.5976
▁लेट	-11.5977
▁प्रस्‍तुत	-11.5978
▁लाभों	-11.5978
▁Ma	-11.598
▁बनाएगा	-11.598
▁थम	-11.5982
EE	-11.5984
▁ख़ुशी	-11.5987
▁इज	-11.5987
सीबीआई	-11.5997
▁भरत	-11.5997
▁सिखाने	-11.5998
▁लड	-11.6
विधि	-11.6001
▁आईएसआई	-11.6002
▁जया	-11.6004
▁त्यागी	-11.6007
▁टल	-11.6008
▁उद	-11.6009
बस	-11.6009
▁निर्मल	-11.6009
▁डाउन	-11.6012
▁संघों	-11.6014
एसए	-11.6017
▁विधवा	-11.6018
मुसलमानों	-11.6018
▁रिज	-11.602
▁Board	-11.602
▁चिकित्सीय	-11.602
▁राधिका	-11.602
▁सरपरस्त	-11.602
▁वाकिफ	-11.6021
▁नौकरियां	-11.6021
▁सद्भाव	-11.6021
▁वस्‍तुओं	-11.6021
▁अरूण	-11.6021
▁सुदूर	-11.6022
▁ac	-11.6023
▁चार्ट	-11.6024
▁अम्बाला	-11.6024
▁साप्ताहिक	-11.6026
मीटर	-11.6026
▁मं	-11.6029
प्त	-11.6031
▁समझाया	-11.6033
▁छोड़ी	-11.6034
विचार	-11.6034
▁बाबर	-11.6037
▁पात्रता	-11.6039
▁मुश्किलें	-11.6039
▁इंद्र	-11.6039
▁मस	-11.604
्ति	-11.604
एसआई	-11.6042
पक्ष	-11.6048
मानी	-11.605
लोग	-11.605
▁सवारी	-11.605
▁चावला	-11.6053
किन	-11.6053
▁हमे	-11.6055
▁कुशलता	-11.6055
▁अस्‍पताल	-11.6057
▁नौजवान	-11.6057
इश	-11.6058
▁नशील	-11.6059
▁रोमन	-11.6064
क्ति	-11.6066
▁फेज	-11.6071
▁ख्वाह	-11.6073
ख़बर	-11.6079
यहोवा	-11.608
िमा	-11.6083
▁कौशिक	-11.6084
▁तीमुथियुस	-11.6084
▁क्वालिटी	-11.6084
▁अकेल	-11.6084
▁भट्टाचार्य	-11.6084
▁ढाका	-11.6085
▁जल्दबाजी	-11.6086
▁फ्लू	-11.6087
▁आंखें	-11.6088
▁सोचिए	-11.6088
▁उदयपुर	-11.6089
▁स्‍वच्‍छता	-11.609
▁आहत	-11.609
▁समावेश	-11.6091
▁प्वाइंट	-11.6091
▁निकाह	-11.6095
▁कदर	-11.6096
,""	-11.6097
कालीन	-11.6098
▁ठहराए	-11.61
परि	-11.6101
▁मिलीं	-11.6103
he	-11.6106
▁शिविरों	-11.6106
▁प्रतिरक्षा	-11.6107
▁कैच	-11.6108
▁मनाई	-11.6112
ठी	-11.6116
▁संस	-11.6119
बीसीएम	-11.6126
▁चट्टान	-11.6126
फान	-11.6129
ोक	-11.613
हु	-11.6131
▁स्टडी	-11.6133
धिकृत	-11.6135
▁मनो	-11.6136
.80	-11.6137
अमेरिकी	-11.6142
मोन	-11.6144
me	-11.6145
त्री	-11.6146
▁Singh	-11.6147
▁नजरअंदाज	-11.6147
▁महत्वाकांक्षी	-11.6147
▁रिश्‍ता	-11.6147
▁हेलिकॉप्टर	-11.6147
▁वल्लभ	-11.6147
▁अंपायर	-11.6147
▁मार्जिन	-11.6147
▁सुधीर	-11.6147
▁ऑस्कर	-11.6147
▁हिलेरी	-11.6147
▁राजस्‍थान	-11.6148
▁नारियल	-11.6149
शिया	-11.6149
▁Flipkart	-11.6149
▁पेंटिंग	-11.615
▁प्रि	-11.6151
रक्षा	-11.6152
▁पुस्तिका	-11.6152
टीए	-11.6153
▁अंडे	-11.6156
▁जेईई	-11.6157
्थ	-11.6159
टिक	-11.6163
▁मश	-11.6165
कक	-11.6165
▁नियुक्‍त	-11.6171
▁पुकारा	-11.6172
▁सीता	-11.6173
▁अटकल	-11.6176
▁सिखा	-11.6177
▁05	-11.6179
▁ज़बान	-11.6184
णीय	-11.6185
▁लॉक	-11.6185
▁स्वयंसेवक	-11.6185
्को	-11.6194
ंबर	-11.6201
रिट	-11.6201
आख़िर	-11.6205
www	-11.6207
जम्मू	-11.6207
▁उम्रकैद	-11.6211
▁कार्यकारिणी	-11.6211
▁गुंजाइश	-11.6211
▁भयावह	-11.6211
▁मल्लिकार्जुन	-11.6211
▁सर्जिकल	-11.6211
▁सौंदर्य	-11.6211
▁डेनमार्क	-11.6211
▁हैंडसेट	-11.6212
▁चिन्ता	-11.6212
▁गोस्वामी	-11.6212
▁चालान	-11.6212
▁जफर	-11.6213
विकास	-11.6213
▁निपटारा	-11.6213
▁निर्भया	-11.6213
▁संप्रभुता	-11.6214
▁अतुल	-11.6214
केट	-11.6215
▁आदिल	-11.6215
डन	-11.6216
पल्ली	-11.6218
▁लीडर	-11.622
▁तकलीफ़	-11.6221
▁पढ़ना	-11.6221
▁बाबुल	-11.6222
▁13:	-11.6223
ेन्ट	-11.6223
▁आस्ट्रेलियाई	-11.6228
▁वि‍	-11.6228
▁जॉनी	-11.6228
▁दरिया	-11.6229
▁बारी	-11.623
प्रीत	-11.6232
▁कॉमन	-11.6234
चित्र	-11.6243
भू	-11.6243
▁विस्तारित	-11.6248
शाला	-11.6249
▁ऑडिट	-11.6253
▁अनजान	-11.6254
▁भड़क	-11.6257
सूचना	-11.6265
▁कांत	-11.6267
▁पूजन	-11.6269
गेट	-11.6274
▁सीडी	-11.6276
▁इजाज़त	-11.6276
▁कुणाल	-11.6276
▁सहकारिता	-11.6276
▁सैंपल	-11.6276
▁हैसियत	-11.6276
▁मैक्सवेल	-11.6276
▁विलियमसन	-11.6276
▁मुहिम	-11.6276
डु	-11.6276
▁एसएचओ	-11.6277
▁गर्लफ्रेंड	-11.6277
▁कुर्सी	-11.6277
▁वित्तपोषण	-11.6278
करने	-11.6278
ज़े	-11.6279
▁कण	-11.6283
▁सुन्दर	-11.6284
▁1997	-11.6287
देख	-11.6287
▁लड़े	-11.6289
▁पवित्रा	-11.6292
तुल	-11.6293
▁एसडी	-11.6297
82	-11.6298
्टि	-11.6299
ियस	-11.6301
▁जम	-11.6303
▁3,000	-11.6304
▁मार्श	-11.6304
▁बहा	-11.6306
▁लिपि	-11.6312
▁भांति	-11.6312
▁सिखों	-11.6313
▁स्‍कूल	-11.6314
▁रावल	-11.6316
▁चलन	-11.6316
▁पक्षकारों	-11.6316
▁ज़ालिमों	-11.6316
वासी	-11.6316
▁दंगा	-11.6318
▁o	-11.632
▁फोर्ड	-11.6322
बाजी	-11.6328
▁बदली	-11.6337
▁सिक्योरिटी	-11.6338
▁अयस्क	-11.6341
▁धूम्रपान	-11.6341
▁पिस्तौल	-11.6341
▁तबीयत	-11.6341
▁समाप्‍त	-11.6341
▁नवाजुद्दीन	-11.6341
▁2013-14	-11.6341
▁कुरिन्थियों	-11.6342
▁चक्कर	-11.6342
ल्फ	-11.6342
▁हार्ड	-11.6343
▁विलास	-11.6344
▁03	-11.6346
▁वांछित	-11.6346
▁बतायी	-11.6346
▁स्‍वच्‍छ	-11.6348
▁जुड़ाव	-11.6352
▁सिफारिशें	-11.6354
▁मुख्यतः	-11.6355
▁सम्बन्धी	-11.6355
▁वायर	-11.6358
▁वाचा	-11.636
▁बहू	-11.6361
▁ओमान	-11.6362
▁स्किन	-11.6363
▁ओली	-11.6366
नए	-11.6368
▁(20	-11.6371
ड़ों	-11.6372
▁दाखिला	-11.6374
han	-11.6379
▁पूज्य	-11.6379
▁भागीदारों	-11.6382
▁नॉन	-11.6383
▁आविष्कार	-11.6384
▁सूचनाएं	-11.6384
▁भरें	-11.6387
िंद्र	-11.6392
गामी	-11.6395
शुल्क	-11.64
रान	-11.6401
▁छोड़ना	-11.6401
▁श्रेयस	-11.6403
पूर	-11.6403
▁प्रतिपक्ष	-11.6404
▁चाइना	-11.6406
▁फ्रेंचाइजी	-11.6406
▁हड़कंप	-11.6406
▁इकलौत	-11.6406
▁बड़ौदा	-11.6406
▁मनोवैज्ञानिक	-11.6406
▁पटकथा	-11.6406
▁हरिद्वार	-11.6406
▁बर्लिन	-11.6407
▁जनादेश	-11.6407
▁कच्चा	-11.6407
▁खालिद	-11.6407
▁कपड़ों	-11.6407
▁विशेषताएं	-11.6408
▁सभापति	-11.6408
▁दिखेंगे	-11.6409
▁बदनाम	-11.641
ne	-11.6411
▁क़िस्म	-11.6411
▁कटाई	-11.6413
▁प्रोफेशनल	-11.6414
▁असीम	-11.6418
▁हसीना	-11.6421
▁हस्त	-11.6422
ap	-11.6426
▁केदारनाथ	-11.6427
▁हटने	-11.6431
सीमावर्ती	-11.6434
इसे	-11.6435
्रम	-11.6437
भूत	-11.6446
▁रियायत	-11.6449
▁नारी	-11.645
▁जल्‍द	-11.6451
एसएस	-11.6453
▁Ch	-11.6454
कान	-11.6459
▁एमएम	-11.6464
▁कपल	-11.6468
क़ुरान	-11.6469
▁अफरीदी	-11.6472
▁कंटेनर	-11.6472
▁तरीक़े	-11.6472
▁नौवहन	-11.6472
▁पुरस्कृत	-11.6472
▁महानिदेशालय	-11.6472
▁चटर्जी	-11.6472
▁वॉशिंगटन	-11.6472
▁पिस्टल	-11.6472
▁पनाह	-11.6472
▁प्राणी	-11.6472
▁फलस्वरूप	-11.6472
▁मोल	-11.6473
▁1995	-11.6475
दल	-11.6481
क़ा	-11.6483
▁निपट	-11.6483
▁एनसीसी	-11.6483
ोह	-11.6485
▁तालाब	-11.6485
▁वर्ण	-11.6486
▁एकजुटता	-11.6488
▁उत्तराधिकारी	-11.6489
थन	-11.649
▁पैरों	-11.6491
▁कब्र	-11.6492
▁स्पोर्ट	-11.6493
▁डिजाइनर	-11.65
चु	-11.6504
▁तम	-11.6505
।’’	-11.6509
▁टाउन	-11.651
निर्धारित	-11.6513
वती	-11.6514
▁इम	-11.6514
▁लाकर	-11.6518
आपको	-11.6519
योग्य	-11.6521
▁क्रूज	-11.6523
तई	-11.6524
▁करदाताओं	-11.6524
▁ड्रॉ	-11.6526
▁गन	-11.6527
रेस	-11.6527
▁II	-11.653
एँगे	-11.6533
मुख्यमंत्री	-11.6534
निर्माण	-11.6534
▁थो	-11.6537
▁तंबाकू	-11.6538
▁सक्सेना	-11.6538
▁दंपति	-11.6538
▁एंबुलेंस	-11.6538
▁Exam	-11.6538
▁कठिनाइयों	-11.6538
▁स्नातकोत्तर	-11.6538
▁कंधे	-11.6538
▁क्लस्टर	-11.6538
▁जोड़ें	-11.6539
आधारित	-11.6539
▁उच्चायुक्त	-11.6539
▁गन्ना	-11.6539
▁दुर्घटनाग्रस्त	-11.6539
ry	-11.654
▁यादगार	-11.6541
▁ग्रंथ	-11.6542
उसे	-11.6542
▁सिल	-11.6542
▁अजमेर	-11.6543
िकी	-11.6543
▁CM	-11.6544
▁जरुरी	-11.6544
▁सुमित	-11.6544
▁रामदेव	-11.6545
▁एकतरफा	-11.655
▁ढूंढ़	-11.6551
कांत	-11.6552
▁RBI	-11.6555
रेट	-11.6565
ीम	-11.6567
▁1,0	-11.6569
▁सल	-11.6569
▁1992	-11.6569
▁डालना	-11.6569
कई	-11.657
▁मकानों	-11.6572
▁ईयर	-11.6581
ci	-11.6582
▁चुकाने	-11.659
रम	-11.6592
▁बन्दग	-11.6596
▁आएँ	-11.6597
▁प्लेयर	-11.6598
▁झुठला	-11.6599
▁तुम्हे	-11.6599
षा	-11.66
मंत्रालय	-11.6603
▁r	-11.6604
▁हैरानी	-11.6605
▁खिड़की	-11.6605
▁दौलत	-11.6605
▁मेमोरियल	-11.6605
क़ियामत	-11.6605
▁Apple	-11.6605
▁क्षतिपूर्ति	-11.6605
गें	-11.6606
▁गाइड	-11.6606
बेट	-11.6607
▁कैमर	-11.6608
▁भतीजे	-11.661
▁अग्रसर	-11.6611
▁पेशेवरों	-11.6611
▁औरतें	-11.6612
थो	-11.6614
▁नीतियां	-11.6614
▁घराने	-11.6615
▁बोल्ड	-11.6615
▁महापौर	-11.6615
▁चर्चित	-11.6616
▁निकलते	-11.6624
▁उभरती	-11.6626
पीए	-11.6627
ॉस	-11.6628
▁धर्मी	-11.6628
▁कमा	-11.6632
▁रिकॉर्डिंग	-11.6634
ac	-11.6635
▁उतारने	-11.6636
▁यूएन	-11.6638
इसी	-11.6639
▁होगें	-11.6643
बत	-11.6643
मूल	-11.6648
रियलमी	-11.6649
▁512	-11.6649
ाते	-11.6649
▁आईजी	-11.6654
▁कोचर	-11.6655
▁इर	-11.6656
▁Ama	-11.6656
....	-11.6665
▁गर्ल	-11.6666
▁निबंध	-11.6668
अच्छा	-11.6671
▁कार्यवाहियों	-11.6672
▁गम्भीर	-11.6672
▁ग्वालियर	-11.6672
▁डिपार्टमेंट	-11.6672
▁प्रकोष्ठ	-11.6672
▁स्तुति	-11.6672
▁शरारत	-11.6672
▁स्विच	-11.6673
▁अन्तिम	-11.6673
▁शिवकुमार	-11.6673
▁विक्की	-11.6673
▁ऋ	-11.6673
सबसे	-11.6675
▁असफलता	-11.6676
▁ढाई	-11.6677
▁वाल	-11.6677
▁टु	-11.6678
▁लोकपाल	-11.6679
NU	-11.668
▁साहित्यिक	-11.6682
▁फ़रिश्ते	-11.6683
▁मानकर	-11.6684
चरण	-11.6685
कता	-11.6685
शंकर	-11.6688
धू	-11.6688
▁पानीपत	-11.6689
स्‍क	-11.669
राष्ट्र	-11.6691
ांतर	-11.6691
प्रा	-11.6694
▁सातवीं	-11.6697
ोत	-11.6713
▁जायें	-11.6713
्रिक	-11.6713
▁शिया	-11.6716
ानु	-11.6716
ीश	-11.6718
▁बट	-11.6719
▁कमाने	-11.6721
▁पुर्तगाल	-11.6723
▁6.5	-11.6723
्दी	-11.6724
बाग	-11.6724
ka	-11.6725
▁बची	-11.6726
▁टैक्सी	-11.6726
▁तंत्रिका	-11.6731
▁स्ट	-11.6738
प्रद	-11.6738
▁महत्‍व	-11.6739
▁अनुशंसा	-11.674
▁कतिपय	-11.674
▁कॉलोनी	-11.674
▁पीढ़ियों	-11.674
▁महाप्रबंधक	-11.674
▁यॉर्क	-11.674
▁वेबिनार	-11.674
▁कुरुक्षेत्र	-11.674
▁घेराबंदी	-11.674
▁महानिरीक्षक	-11.674
▁झांसी	-11.674
▁प्राधिकृत	-11.674
▁जहाजरानी	-11.674
▁पट	-11.674
▁घाव	-11.674
▁मुगल	-11.6741
▁आंधी	-11.6741
▁पीएचडी	-11.6742
▁अधीनस्थ	-11.6742
▁भेजकर	-11.6743
ँग	-11.6745
फ्रा	-11.675
▁(6	-11.6752
▁बिस्तर	-11.6755
500	-11.676
▁पर्यावरणीय	-11.6761
2017	-11.6764
▁छिपे	-11.6768
▁प्रत्यर्प	-11.6771
▁114	-11.6774
▁नवाजा	-11.6779
▁छुपा	-11.6781
▁गनी	-11.6781
▁ख्वाहिश	-11.6781
▁राजमार्गों	-11.6783
▁वेग	-11.6783
रोधी	-11.6784
▁अध	-11.6786
्‍म	-11.6787
▁रक्षक	-11.6788
▁जेब	-11.6791
▁अद	-11.6791
▁लेग	-11.6799
▁चैलेंज	-11.68
▁450	-11.6805
▁फिक्स	-11.6806
छात्राओं	-11.6807
▁आर्टिकल	-11.6808
अंदरूनी	-11.6809
▁प्रभास	-11.6809
▁आकांक्षाओं	-11.6809
▁धक्का	-11.681
▁स्टार्क	-11.681
नस	-11.6812
▁फूलों	-11.6812
▁खासी	-11.6812
▁k	-11.6817
▁सितम्‍बर	-11.6819
▁रूक	-11.6823
▁देसी	-11.6823
▁इल	-11.6827
▁900	-11.6828
▁वॉल	-11.6828
कुर	-11.683
▁चोटी	-11.6832
▁परेश	-11.6835
▁तर्ज	-11.6835
▁v	-11.6843
मिया	-11.6844
▁तेजस	-11.6847
▁एनएच	-11.6851
▁गि	-11.6852
ट्री	-11.6853
▁संवेदनशीलता	-11.6857
▁हाफ	-11.6858
बुक	-11.6858
▁साझीदार	-11.6859
बंदी	-11.6862
▁फ्लोर	-11.6862
आरए	-11.6865
ीक	-11.6869
▁स्टूडेंट	-11.687
वादियों	-11.6873
▁पड़ोस	-11.6873
क्का	-11.6876
▁इंगलैंड	-11.6876
▁ठाणे	-11.6876
▁नुक़सान	-11.6876
▁रिफाइनरी	-11.6876
▁सामंजस्य	-11.6876
▁हुंडई	-11.6876
▁प्रतिबिंब	-11.6876
▁राठौड़	-11.6876
▁धूमधाम	-11.6876
▁पैलेस	-11.6876
▁टेलीकॉम	-11.6876
▁रिफंड	-11.6876
▁समकालीन	-11.6877
पांच	-11.6877
▁एनएम	-11.6877
▁चाकू	-11.6877
▁आयरन	-11.6879
बेन	-11.6879
▁चित्रण	-11.6881
▁सम्‍मान	-11.6881
▁गावस्कर	-11.6881
▁करूं	-11.6882
म्‍ब	-11.6882
▁हाकी	-11.6882
▁नवान्वेषण	-11.6884
▁केलिए	-11.6884
▁फटकार	-11.6884
▁प्रसंग	-11.6886
▁फैक्टरी	-11.6891
▁एनसीआर	-11.6891
▁गौड़ा	-11.6893
गैर	-11.6895
कहो	-11.6896
▁कन	-11.6899
▁बनाएगी	-11.6899
▁लड़ना	-11.6902
▁अर्थव्यवस्थाओं	-11.6908
.70	-11.6909
▁चुरा	-11.6912
▁बॉ	-11.6914
▁सेवानिवृत्ति	-11.6918
▁अन्तर	-11.6918
वुड	-11.6919
अन्य	-11.6926
मक	-11.6927
ेज़	-11.6929
रित	-11.6929
▁देशी	-11.6933
▁दबोच	-11.6933
वही	-11.6935
▁गोया	-11.6936
ex	-11.6936
▁पेस	-11.6938
▁दुर्भाग्य	-11.6943
▁गर्भ	-11.6945
कर्नूलु	-11.6945
▁उपेक्षा	-11.6945
▁उल्लिखित	-11.6945
▁क़त्ल	-11.6945
▁परिणीति	-11.6945
▁प्रख्यात	-11.6945
▁बंटवारे	-11.6945
▁माइक्रोसॉफ्ट	-11.6945
▁गुरमीत	-11.6945
▁किंगडम	-11.6945
शिवसेना	-11.6945
▁पुनर्निर्माण	-11.6945
▁लॉटरी	-11.6945
▁रोमांस	-11.6945
▁एप्लीकेशन	-11.6946
▁पारिस्थितिकी	-11.6947
▁टीसीएस	-11.6947
▁तापसी	-11.6948
▁छः	-11.6949
▁सिनेमाघरों	-11.6949
▁अरेस्ट	-11.695
▁शक्तियां	-11.695
▁बजरंग	-11.6952
▁रामायण	-11.6953
▁3.	-11.6954
▁1947	-11.6955
▁रोमियों	-11.6956
▁दिखाती	-11.6958
▁पतन	-11.6959
▁आईटीसी	-11.6959
▁रिंग	-11.6961
बान	-11.6962
ँच	-11.6965
▁अभ्यर्थियो	-11.6967
▁कराधान	-11.6968
▁विश्लेषकों	-11.6969
वाने	-11.6971
▁काबुल	-11.6972
ोलॉजी	-11.6972
▁काफिरों	-11.6974
.60	-11.698
▁सकने	-11.698
ऐसी	-11.6985
आईपीएल	-11.6986
▁वीरता	-11.6986
सेना	-11.6988
▁अवशेष	-11.6988
बड़ी	-11.6994
▁उम्मीदें	-11.6994
▁किसके	-11.6996
▁परीक्षणों	-11.6997
▁गुफा	-11.7012
मुख	-11.7012
▁गिरफ्त	-11.7014
▁शौच	-11.7014
▁ताल्लुक	-11.7014
▁अनावश्यक	-11.7014
▁गठजोड़	-11.7014
▁छावनी	-11.7014
▁लाइब्रेरी	-11.7014
▁ग्रोथ	-11.7015
▁सर्वसम्मत	-11.7015
▁समन्वित	-11.7015
▁ब्रा	-11.7015
▁मौकों	-11.7015
▁अद्वितीय	-11.7015
स्वास्थ्य	-11.7015
▁भावनात्मक	-11.7016
▁पलटवार	-11.7016
▁विनियमित	-11.7017
▁एहद	-11.7017
▁अजीज	-11.7018
▁रायबरेली	-11.7019
▁हलाक	-11.7019
▁इंग्लिश	-11.702
▁व्यास	-11.7022
▁शर्तें	-11.7023
▁रज	-11.7024
▁किस्मत	-11.7025
▁मुक्‍त	-11.7026
्टो	-11.703
▁लड़ते	-11.7033
ूस	-11.7035
▁जहाज़	-11.7035
ोव	-11.7036
ोली	-11.7039
▁निकालना	-11.7041
निधि	-11.7046
कार्ड	-11.7047
प्ट	-11.7048
एनआई	-11.7049
▁गाया	-11.7052
▁विजयन	-11.7053
▁वास	-11.7057
▁112	-11.7057
▁अवरोध	-11.7058
त्य	-11.7062
रह	-11.7062
ide	-11.7063
▁वाहक	-11.7064
दयाल	-11.7066
▁महानगर	-11.7066
▁750	-11.7069
▁शाहीन	-11.7076
विध	-11.7076
▁1500	-11.7076
▁वांग	-11.7079
ोड	-11.708
▁09	-11.7081
▁शीत	-11.7081
▁ब्र	-11.7082
▁ध्वस्त	-11.7084
▁सप्‍ताह	-11.7084
ट्रिन्यू	-11.7084
▁लानत	-11.7084
▁यूक्रेन	-11.7085
▁गवर्नमेंट	-11.7085
▁खुराक	-11.7085
▁Khan	-11.7085
▁सेगमेंट	-11.7085
▁दर्शाते	-11.7085
▁पत्रकारिता	-11.7085
▁क्रांतिकारी	-11.7086
▁सामान्‍य	-11.7086
▁1991	-11.7087
▁एएनआई	-11.7087
▁सद्भावना	-11.7089
▁बर्थ	-11.7089
ोद	-11.7089
▁जुर्माने	-11.709
▁उर्वरकों	-11.7092
▁हावी	-11.7095
▁माउंट	-11.7096
▁हिना	-11.7097
▁क़ुरआन	-11.7098
.35	-11.7102
▁लौटना	-11.7108
▁निपटा	-11.7108
एमएल	-11.711
▁107	-11.7113
▁छात्रवृत्ति	-11.7115
▁सास	-11.7119
▁ज़ा	-11.712
ाऊ	-11.7121
▁बांस	-11.7127
लिम	-11.7128
▁कराये	-11.7131
▁सत्रों	-11.7135
ाकार	-11.7135
ान्त	-11.7144
▁सूखा	-11.7146
फो	-11.7147
▁सेतु	-11.7149
▁रोहन	-11.7149
▁मिनी	-11.7149
▁नम्रता	-11.7152
ant	-11.7154
▁चतुर्वेदी	-11.7155
▁दुर्व्यवहार	-11.7155
▁बलूचिस्तान	-11.7155
▁इसराईल	-11.7155
▁हानिकारक	-11.7155
▁इंटेलिजेंस	-11.7155
▁नवाब	-11.7156
लगभग	-11.7156
▁चिंताजनक	-11.7157
▁वॉर्नर	-11.7157
▁पन्नू	-11.7158
▁अर्थशास्त्र	-11.7158
▁शुरूआती	-11.716
▁Google	-11.7163
स्ता	-11.7164
▁(18	-11.7166
यहां	-11.7166
▁फ्रेम	-11.7169
ओएस	-11.7171
▁जीवों	-11.7175
ज़कात	-11.7176
▁अंग्रेजों	-11.7176
ोला	-11.7178
ho	-11.7182
▁चै	-11.7183
av	-11.7183
▁मिग	-11.7189
▁बढ़ाए	-11.719
▁रोमांच	-11.719
▁प्रतिष्ठानों	-11.719
▁170	-11.7192
▁जिया	-11.7193
रिन	-11.7194
आधार	-11.7204
▁जीतना	-11.7206
▁समारोहों	-11.7209
▁प्यारे	-11.7214
म्बर	-11.7221
ैक	-11.7225
▁पीसी	-11.7225
▁स्टाइल	-11.7226
▁इंतज़ाम	-11.7226
▁एंड्रॉइड	-11.7226
▁विश्‍लेषण	-11.7226
▁हवाईअड्डे	-11.7226
▁सेमिनार	-11.7226
▁संदाय	-11.7226
लॉ	-11.7227
▁जन्मभूमि	-11.7227
▁राजकोट	-11.7228
पिछले	-11.7228
बीसीसीआई	-11.7228
▁राजनेताओं	-11.7229
साल	-11.7232
▁पूछो	-11.7235
▁रामपाल	-11.7237
▁नम्बर	-11.7239
▁आईआरसीटीसी	-11.7239
कर्म	-11.7242
▁डीएमके	-11.7242
▁मसलों	-11.7243
▁वोटर	-11.7248
▁कुंभ	-11.7249
▁धार	-11.7251
तरह	-11.7255
▁छल	-11.7264
कृष्ण	-11.7271
▁एथलीट	-11.7274
गाम	-11.7276
ांक	-11.7277
▁बसें	-11.7283
यक	-11.7285
▁डरता	-11.7286
प्	-11.7286
विद	-11.7286
ट्रो	-11.7289
सिक	-11.7291
▁गोपनीय	-11.7291
▁थोप	-11.7292
▁परम्परा	-11.7294
▁अग्निशमन	-11.7297
▁चव्हाण	-11.7297
▁प्रगाढ़	-11.7297
▁सब्जियां	-11.7297
▁सुब्रमण्यम	-11.7297
▁पहिले	-11.7297
▁प्रभुत्वशाली	-11.7297
▁बरबाद	-11.7298
▁रघुराम	-11.7298
▁Day	-11.7298
▁अत्‍य	-11.7298
▁इलाका	-11.7298
▁अनुपस्थिति	-11.7298
▁बेस्ड	-11.7299
दू	-11.7299
राहुल	-11.73
▁समिट	-11.7301
▁विलियम	-11.7301
▁रजिस्ट्रार	-11.7303
▁चिल्ला	-11.7307
▁सीखते	-11.7308
ायी	-11.7309
▁टीडीपी	-11.7309
▁खाया	-11.7309
▁हुनर	-11.7313
ग्रहण	-11.7314
▁कक्षाओं	-11.7316
▁कुफ्र	-11.7318
▁घोर	-11.7319
▁नेपाली	-11.7319
▁शस्त्र	-11.7321
सत्ताधारी	-11.7321
▁ढक	-11.7323
▁स्तन	-11.7327
इसमें	-11.7328
▁साहेब	-11.7332
▁बक	-11.7334
▁उठाई	-11.7336
ढ़ा	-11.7339
सुर	-11.7339
▁गण	-11.7343
▁कराती	-11.7345
▁हलाल	-11.7348
▁ग्रेट	-11.7348
▁करारा	-11.7348
▁किरदारों	-11.7351
▁पेंट	-11.7353
▁भिड़	-11.7357
▁मध्यस्थ	-11.7358
सरा	-11.7361
▁शॉ	-11.7362
▁नेकी	-11.7363
षण	-11.7364
▁राख	-11.7365
फेड	-11.7367
िब	-11.7368
▁दोसांझ	-11.7369
▁बघेल	-11.7369
▁रामविलास	-11.7369
▁सोनीपत	-11.7369
▁छलांग	-11.7369
▁कतार	-11.737
▁कहानियां	-11.737
▁संक्षेप	-11.737
▁भरपाई	-11.737
▁जिनपिंग	-11.737
▁चलाना	-11.7371
▁झंडा	-11.7372
▁मांगें	-11.7373
▁ताकतवर	-11.7373
▁जंगलों	-11.7374
▁1950	-11.7375
▁ट्राई	-11.7376
▁दंगे	-11.7377
ैस	-11.7379
आरसी	-11.7381
▁क्लिप	-11.7381
▁हाइड्रो	-11.7382
एसएफ	-11.7383
ेय	-11.7383
▁आलोचकों	-11.7386
▁ईशान	-11.7387
▁चित्रों	-11.739
परक	-11.739
▁टायर	-11.7392
▁कराएगा	-11.7393
▁संजू	-11.7393
▁बडी	-11.7395
▁जुटाए	-11.7399
▁बनाएँ	-11.7406
▁परिसरों	-11.7407
▁देखती	-11.741
▁St	-11.7411
ृत	-11.7413
सिटी	-11.7418
▁खुर	-11.7418
▁निर्भरता	-11.7427
▁अनिश्चितता	-11.7428
पाद	-11.7435
▁अस्थिर	-11.7436
ॉक	-11.744
आईडी	-11.7441
▁अभिभाषण	-11.7442
▁आंबेडकर	-11.7442
▁उखाड़	-11.7442
▁ख्वाजा	-11.7442
▁गुर्जर	-11.7442
▁सगाई	-11.7442
▁आईसीयू	-11.7442
▁शिरोमण	-11.7442
▁परोक्ष	-11.7442
▁निष्क्रिय	-11.7442
▁रिव्यू	-11.7442
▁अप्रत्याशित	-11.7442
▁चौबे	-11.7442
▁सजग	-11.7443
▁उत्तरप्रदेश	-11.7444
▁सुचार	-11.7444
▁संवेदनाएं	-11.7445
▁बठिंडा	-11.7447
▁उग्र	-11.7448
▁उपयोगिता	-11.7449
▁सिरसा	-11.7449
रेखा	-11.745
▁बनारस	-11.7451
ig	-11.7454
ाधीन	-11.7457
▁अपनाए	-11.7457
▁मठ	-11.7459
▁भड़का	-11.7459
▁र्	-11.7463
▁हिंदुत्व	-11.7463
जिसे	-11.7467
▁हैरिस	-11.7468
न्द्र	-11.7468
▁आनेवाले	-11.7471
पुत्र	-11.7471
आन	-11.7473
्‍व	-11.7476
ाध	-11.7479
▁उठने	-11.7483
▁जलमार्ग	-11.7491
▁स्टार्स	-11.7493
ल्ली	-11.7494
▁बेरोजगार	-11.7495
.55	-11.75
▁द्वीपों	-11.7501
▁230	-11.7502
▁अा	-11.7504
ect	-11.7504
▁अंगों	-11.751
ba	-11.7513
▁प्रोत्‍साहि	-11.7515
▁सरस्वती	-11.7515
▁सोवियत	-11.7515
▁मर्डर	-11.7515
▁Today	-11.7515
थर्मल	-11.7515
▁लुत्फ	-11.7515
▁टैक्‍स	-11.7515
▁सफदर	-11.7515
इन्फ्रास्ट्रक्चर	-11.7515
▁तितर	-11.7515
▁सेवकाई	-11.7516
▁1956	-11.7517
▁शत	-11.7517
▁1993	-11.7517
▁जनजातियों	-11.7517
प्ल	-11.7517
▁लड़ेगी	-11.7518
तुम्हारे	-11.7519
ंका	-11.7521
▁लालच	-11.7522
▁संशोधनों	-11.7523
▁रण	-11.7524
▁विश्वसनीयता	-11.7524
कां	-11.7524
▁कारबार	-11.7525
नायक	-11.7526
फील्ड	-11.7526
उसकी	-11.7528
▁स्क्रिप्ट	-11.7529
▁आठवें	-11.7529
▁सुनना	-11.7533
▁कार्यबल	-11.7535
▁विफलता	-11.7535
▁जीना	-11.7538
▁हटाना	-11.754
▁डेल	-11.7542
▁सीनेट	-11.7542
साइड	-11.7551
▁चक	-11.7557
▁302	-11.7558
▁मेस	-11.7559
सीओ	-11.7559
भूतपूर्व	-11.7561
▁गांधीजी	-11.7561
▁धु	-11.7563
▁माध्यमों	-11.7566
our	-11.7567
ध्	-11.7568
आईएल	-11.7569
▁समर	-11.757
▁खासा	-11.7572
डोर	-11.7574
▁सिमट	-11.7575
da	-11.7576
▁शीट	-11.7576
▁राष्ट्रवाद	-11.7577
िद	-11.7578
▁ईशा	-11.758
▁केयर	-11.758
▁Se	-11.7581
▁गतिशील	-11.7585
मई	-11.7585
▁इंजीनियरों	-11.7586
▁ऑक्टा	-11.7588
▁जीवनसाथी	-11.7588
टिन	-11.7588
▁चार्टर्ड	-11.7589
▁सुप्रीमकोर्ट	-11.7589
▁डॉक्‍टर	-11.7589
▁त्रासदी	-11.759
▁सम्बंधित	-11.7591
▁एक्सेस	-11.7591
▁सटे	-11.7593
▁संस्थाएं	-11.7596
▁काबिज	-11.7597
▁कहेगा	-11.7598
स्को	-11.7599
▁चित्रित	-11.7599
▁लिखना	-11.7602
▁अर्ज़	-11.7603
▁1961	-11.7607
▁कमिटी	-11.7608
▁आत्मिक	-11.7608
ईसी	-11.7609
▁विज्ञापनों	-11.7609
▁रूपों	-11.7611
-8	-11.7612
▁उम्‍मीदवारों	-11.7612
▁प्रशस्त	-11.7615
mm	-11.7623
▁कैंपस	-11.7629
,300	-11.7633
▁काबिल	-11.7634
▁घात	-11.7634
▁प्लेटफार्म	-11.7636
▁तह	-11.7636
,400	-11.7636
▁माया	-11.7647
▁दर्ज़	-11.7647
▁चलें	-11.7651
ौल	-11.7652
▁ग्राफ	-11.7656
▁डोर	-11.7658
्यूट	-11.7659
▁थानों	-11.766
▁प्रारम्भ	-11.766
शर	-11.7662
▁ब्योरा	-11.7662
▁सुलह	-11.7662
▁श्र	-11.7662
▁मासूम	-11.7662
▁प्रयागराज	-11.7662
▁अभिनीत	-11.7662
▁डोमेन	-11.7663
▁पक्की	-11.7663
▁एक्सपो	-11.7664
▁अमरनाथ	-11.7664
▁नामांकित	-11.7666
▁प्रथाओं	-11.7666
▁धूमल	-11.7667
▁लैंडिंग	-11.7667
कृषि	-11.7668
▁शंघाई	-11.767
▁2030	-11.767
वस्तु	-11.7672
लीटर	-11.7673
▁बिताने	-11.7674
▁जहर	-11.7681
▁उन्नति	-11.7684
est	-11.7685
▁आड़े	-11.7689
▁बॉय	-11.7693
▁डिस	-11.7693
▁नौजवानों	-11.7693
राइट	-11.7695
लॉजी	-11.7699
▁ठान	-11.7706
ट्ट	-11.7713
▁गुलाब	-11.7717
ill	-11.7717
क्क	-11.7717
▁पर्यवेक्षक	-11.7718
ॉय	-11.772
थर	-11.7721
▁किराये	-11.7723
ज्	-11.7726
▁कैडेट	-11.7731
▁ज्योतिरादित्य	-11.7737
▁रिसेप्शन	-11.7737
▁अंकुश	-11.7737
▁विवाहित	-11.7737
▁वैवाहि	-11.7737
▁तर्कसंगत	-11.7737
▁आउटपुट	-11.7737
▁कांगड़ा	-11.7737
▁फीफा	-11.7737
▁स्काई	-11.7738
▁इर्द	-11.774
्‍हें	-11.774
▁खरीदे	-11.7741
▁स्नान	-11.7741
टीपी	-11.7742
▁जबलपुर	-11.7742
जिक	-11.7747
▁केबल	-11.7747
IC	-11.775
▁पैदावार	-11.7751
▁छिप	-11.7753
ST	-11.7754
▁दसवीं	-11.7754
,800	-11.7754
▁15,000	-11.7756
ीज़	-11.7756
प्राप्त	-11.776
▁आगाज	-11.7761
▁पारस	-11.7761
रूस	-11.7762
▁दिखाकर	-11.7766
300	-11.7767
▁आयाम	-11.7774
▁क्र	-11.7776
▁पौ	-11.7782
▁गिरफ़्तार	-11.7791
नार	-11.7794
▁कीर्ति	-11.7802
▁लय	-11.7806
्जा	-11.7807
▁रुके	-11.7807
▁मेड	-11.7811
▁क़ुबूल	-11.7812
▁कोलंबिया	-11.7812
▁विशिष्‍ट	-11.7812
▁हेनरी	-11.7812
▁अनूप	-11.7812
▁जुनून	-11.7812
टेड	-11.7812
▁विभेद	-11.7813
▁अन्ततः	-11.7813
▁लोहा	-11.7813
▁शिपिंग	-11.7813
▁अभय	-11.7814
▁घास	-11.7814
▁मुनाफे	-11.7814
▁प्रतिभागी	-11.7816
▁बवाल	-11.7817
▁खु	-11.7817
▁दिसम्‍बर	-11.7817
पंजाब	-11.7818
▁संतोषजनक	-11.7819
LED	-11.782
▁101	-11.7824
कौन	-11.7824
▁बिट	-11.7832
▁175	-11.7835
▁लेखों	-11.7835
.95	-11.7842
फिक	-11.7842
▁3000	-11.7844
om	-11.7846
▁बचाओ	-11.7851
एनसीपी	-11.7856
-15	-11.7857
▁पंथ	-11.786
द्व	-11.7861
▁स्वर्गदूत	-11.7861
लाई	-11.7867
थलग	-11.7867
▁दायरा	-11.7869
▁स्टेन	-11.7873
एयर	-11.7874
▁वॉच	-11.7876
▁सिंध	-11.7881
▁दीवारों	-11.7882
▁बीती	-11.7883
सूर	-11.7883
▁चिप	-11.7886
▁बैठी	-11.7887
▁जुर्म	-11.7888
▁अजिंक्य	-11.7888
▁पेडनेकर	-11.7888
▁सरफराज	-11.7888
▁सांत्वना	-11.7888
▁रश्मि	-11.7888
▁अशरफ	-11.7888
▁स्कॉटलैंड	-11.7888
▁ड्राफ्ट	-11.7888
▁पेटीएम	-11.7888
▁2009-10	-11.7888
▁डेटाबेस	-11.7889
▁(12	-11.7889
▁ठप	-11.7889
▁दांत	-11.7892
▁376	-11.7894
▁http	-11.7894
▁ऐक्ट	-11.7896
▁लोहे	-11.7897
▁GST	-11.7901
▁पढ़कर	-11.7901
▁30,000	-11.7901
▁शासकीय	-11.7901
▁रहिए	-11.7902
▁बूट	-11.7903
▁निकोलस	-11.7903
▁सिगरेट	-11.7906
▁निर्यातकों	-11.7909
▁वनस्पति	-11.7913
▁प्ल	-11.7914
त्तर	-11.7915
ंटा	-11.7918
▁बहुल	-11.7919
▁बीविय	-11.792
▁कनेक्ट	-11.792
ब्ल	-11.7924
▁प्रतिवादी	-11.7924
ya	-11.7926
▁एफसी	-11.7926
ड़ियों	-11.7933
ंडे	-11.7934
▁चीज़े	-11.7935
▁हिम	-11.7935
▁बसा	-11.7935
▁शिष्य	-11.7938
▁ते	-11.7939
▁बेबी	-11.7942
आरओ	-11.7943
▁इब्रान	-11.7944
कोड	-11.7954
▁अस्थि	-11.7959
▁जानेवाले	-11.7963
▁एअर	-11.7963
▁अदिलाबाद	-11.7964
▁दार्शनिक	-11.7964
▁नाइजीरिया	-11.7964
▁न्यूयार्क	-11.7964
▁वेंटिलेटर	-11.7964
▁संकलन	-11.7964
▁लक्षद्वीप	-11.7964
▁अतिक्रमण	-11.7964
▁बंगलादेश	-11.7964
▁पत्नियों	-11.7964
▁झुलस	-11.7964
▁टिप्पणियां	-11.7965
▁रंजीत	-11.7965
▁आंध्रप्रदेश	-11.7965
▁कैडर	-11.7965
▁परिस्थितियां	-11.7965
▁जादूगर	-11.7965
▁ब्लास्ट	-11.7966
▁फज़ल	-11.7966
▁पैकेट	-11.7968
▁सोनाली	-11.797
▁सभ	-11.7971
▁ईमानवालों	-11.7971
▁ढूंढने	-11.7972
▁बगल	-11.7977
ive	-11.7981
▁मार्कस	-11.7981
▁सैंड	-11.7985
-18	-11.7987
ाइन	-11.7989
▁CAA	-11.7989
▁बेसिक	-11.7993
▁लेबल	-11.7993
▁बोलना	-11.7994
▁एएसआई	-11.7994
▁बदकार	-11.7996
▁प्रिया	-11.7997
ठीक	-11.7999
▁विनियामक	-11.7999
िष	-11.8004
म्स	-11.8004
▁ताला	-11.8008
ue	-11.801
▁नगरों	-11.8011
▁पहुंचाना	-11.8012
▁मिशनरी	-11.8012
▁फोर	-11.8013
▁सूख	-11.8014
▁शिकायतकर्ता	-11.8015
▁विश्लेषक	-11.8015
टीएम	-11.8017
परा	-11.802
▁जेएस	-11.8021
▁फाड़	-11.8022
▁धारकों	-11.8022
▁अनुप्रयोगों	-11.8022
इट	-11.8025
न्ध	-11.8027
▁रवैय	-11.8029
▁उभार	-11.8034
बीएस	-11.8034
▁अर्थशास्त्री	-11.8035
▁धूम	-11.8036
▁बल्ले	-11.8038
▁124	-11.8039
सेंट	-11.8039
फि	-11.804
▁ओलम्पिक	-11.8041
▁चैंपियं	-11.8041
▁जानलेवा	-11.8041
▁सामग्रियों	-11.8041
▁स्टुअर्	-11.8041
▁तदनुसार	-11.8041
▁वज़ह	-11.8041
▁प्रेशर	-11.8041
▁हेल्पलाइन	-11.8041
▁हार्डवेयर	-11.8041
▁बालाकोट	-11.8041
▁छात्रावास	-11.8042
▁दर्शाती	-11.8042
▁चालीस	-11.8042
▁दामाद	-11.8042
▁शॉपिंग	-11.8042
▁महावीर	-11.8042
▁अश्लील	-11.8045
▁सांस्‍कृतिक	-11.8045
▁Card	-11.8045
▁महीना	-11.8046
▁चिह्नित	-11.8046
▁सुन्नी	-11.8047
पोषण	-11.8047
▁तनावपूर्ण	-11.8049
▁मला	-11.8049
▁बुलाए	-11.805
▁ख़रीद	-11.8051
▁लगीं	-11.8052
▁ट्रेडिंग	-11.8052
▁२१	-11.8054
▁कारीगरों	-11.8059
▁2.	-11.8061
▁बांटा	-11.8061
▁इब्रानी	-11.8062
पानी	-11.8063
तैयबा	-11.8064
▁स्किल	-11.8064
▁देशद्रोह	-11.8066
▁जुल	-11.8067
▁चंद्रा	-11.807
▁विरोधियों	-11.8071
▁बाज	-11.8073
▁आमाल	-11.8074
▁खां	-11.8077
मला	-11.8081
▁उपलब्धियां	-11.8081
.33	-11.8082
ub	-11.8082
▁गैल	-11.8084
वेस्ट	-11.809
▁पहुंचना	-11.809
▁पिन	-11.8091
▁अर्	-11.8092
▁राहे	-11.8093
▁लाइनों	-11.8094
▁भटका	-11.8095
्यो	-11.8099
मानव	-11.81
▁उपद्रव	-11.8101
▁आवेदनों	-11.8101
▁कॉलम	-11.8101
़ा	-11.8102
▁मैथ्यू	-11.8105
पीसी	-11.8106
▁(""	-11.8108
▁07	-11.8113
हॉ	-11.8113
्‍होंने	-11.8114
▁पोप	-11.8115
नम	-11.8116
ूक	-11.8116
▁निम्‍नलिखि	-11.8118
▁अलबत्ता	-11.8119
▁एंड्रयू	-11.8119
▁क्वालीफाई	-11.8119
▁तड़के	-11.8119
▁फिलीपींस	-11.8119
▁मॉरीशस	-11.8119
▁शिकागो	-11.8119
▁साजिद	-11.8119
▁रिलेशनशिप	-11.8119
▁तुरन्त	-11.8119
▁बांद्रा	-11.8119
▁सूबे	-11.8119
▁बहुमूल्य	-11.8119
▁भयंकर	-11.8119
▁ट्राफी	-11.8119
▁सोल	-11.8119
▁राइट	-11.812
▁टीआरएस	-11.812
▁बुलेट	-11.8121
▁1988	-11.8121
▁सीरियल	-11.8121
▁वाक़िफ	-11.8121
▁शिवपाल	-11.8122
▁Coronavirus	-11.8123
▁Results	-11.8124
▁1987	-11.8124
.19	-11.8125
▁अनन्या	-11.8125
मस	-11.8128
▁ब्लॉग	-11.8128
▁कुश्ती	-11.813
▁पते	-11.813
▁एबीवीपी	-11.8131
ाप	-11.8132
▁एसएस	-11.8132
बढ़	-11.8133
▁संतुष्टि	-11.8135
▁आठवीं	-11.8139
2016	-11.814
पीएफ	-11.8141
▁SBI	-11.8141
▁संगत	-11.8144
▁सूट	-11.8145
बली	-11.8147
▁रामा	-11.8148
▁अंदाजा	-11.8152
चंद्र	-11.8153
हत्या	-11.8154
ion	-11.8154
▁कृतज्ञता	-11.8157
▁पार्ट	-11.8161
विवाद	-11.8169
वर्	-11.8172
▁वर्धन	-11.8173
▁उठी	-11.8175
स्तान	-11.8176
▁हज़ारों	-11.8176
▁डालता	-11.8177
▁रिचर्ड	-11.818
पोजिट	-11.8182
one	-11.8184
म्म	-11.8186
ैड	-11.8192
र्च	-11.8193
▁व्याप्त	-11.8195
▁धारक	-11.8195
▁प्रवृत्त	-11.8196
▁स्‍मार्ट	-11.8197
▁उपयोक्ता	-11.8197
▁तथाकथित	-11.8197
▁उत्तीर्ण	-11.8197
▁उम्दा	-11.8197
▁परफॉर्मेंस	-11.8197
▁ज़िंदा	-11.8197
▁तोड़फोड़	-11.8197
▁परिवेश	-11.8197
▁मांझी	-11.8197
▁भाटिया	-11.8197
▁कारगिल	-11.8197
▁आँखें	-11.8198
मार्क	-11.8201
▁बदलावों	-11.8203
क़त	-11.8204
▁पहुंचीं	-11.8205
नक्सलियों	-11.8205
▁गै	-11.8205
▁विख्यात	-11.8207
▁कैपिटल्स	-11.8208
धान	-11.821
एसआर	-11.821
▁क्वीन	-11.821
▁स्मार्टफोन्स	-11.8212
ंदर	-11.8213
उच्च	-11.8215
▁सज्जन	-11.8215
▁सुखद	-11.822
▁किला	-11.8221
▁घोषणापत्र	-11.8226
▁फु	-11.8229
ात्‍मक	-11.8237
▁1.2	-11.8239
▁झोंक	-11.8241
ैं	-11.8243
▁फिल्म्स	-11.8244
ाओं	-11.8245
▁कट्टरपंथी	-11.8246
▁बोलता	-11.8246
प्प	-11.8246
न्या	-11.8247
!"	-11.8247
ठाक	-11.8249
▁रुझान	-11.8249
▁देह	-11.825
क़्	-11.8253
▁गीतों	-11.8254
ंदा	-11.8255
▁पालिका	-11.8256
▁‘’	-11.8257
ड्ड	-11.8261
▁दिक्कतों	-11.8262
▁0.5	-11.8266
नाल	-11.827
▁अग	-11.8271
▁फ़रिश्तों	-11.8275
▁वसुंधरा	-11.8275
▁प्रसन्‍न	-11.8275
▁राठौर	-11.8275
▁सम्बोधि	-11.8275
▁अर्जेंटीना	-11.8276
▁टास्क	-11.8276
▁निभाएंगे	-11.8276
▁परिसंघ	-11.8276
▁डिनर	-11.8277
▁पूर्णिमा	-11.8277
▁सर्दियों	-11.8277
▁आदर्शों	-11.8277
▁ससुराल	-11.8277
▁सरोज	-11.8278
▁राजेन्द्र	-11.8279
▁परिपूर्ण	-11.8279
▁एग्जि	-11.828
▁टीजर	-11.8281
▁दवाएं	-11.8281
▁अनंतनाग	-11.8281
▁भत्ता	-11.8282
▁मूल्यवान	-11.8282
रोजगार	-11.8285
पैग़म्बर	-11.8285
र्श	-11.8285
जाति	-11.8286
मुख्य	-11.8287
▁नक्सली	-11.8287
▁वुड	-11.8288
▁ईंट	-11.8289
एनजी	-11.8289
भिन्न	-11.8291
उसका	-11.8294
▁यूजीसी	-11.8296
▁जोंग	-11.8299
▁पावन	-11.83
▁वश	-11.8301
▁घने	-11.8301
▁102	-11.8303
▁इको	-11.8304
शांक	-11.8305
न्‍ना	-11.8308
▁वफादारी	-11.8317
▁२२	-11.8318
▁मृत्युदंड	-11.8319
▁परहेज	-11.8321
▁अमरिन्द	-11.8324
▁बहाने	-11.8325
इयों	-11.8325
▁शै	-11.8327
▁करायी	-11.8329
,900	-11.833
▁हाय	-11.8331
▁साख	-11.8331
▁(4)	-11.8332
विश्व	-11.8333
▁ओपनर	-11.8333
▁आनन	-11.8336
▁फेंका	-11.8336
▁पीएमओ	-11.8337
▁अभिभावक	-11.8345
▁प्रमाणन	-11.8348
ढ़ी	-11.8352
▁बोतल	-11.8353
▁आगंतुक	-11.8355
▁कैंडिडेट	-11.8355
▁भाईचारे	-11.8355
▁वाणिज्‍य	-11.8355
▁वापिस	-11.8355
▁मम्मी	-11.8355
▁सम्भावना	-11.8355
▁सेक्रेटरी	-11.8355
▁तमन्ना	-11.8355
▁ब्राउन	-11.8355
▁असंवैधानिक	-11.8355
▁महंगी	-11.8355
▁वक्फ	-11.8356
▁परिसंपत्तियों	-11.8356
▁बीएचपी	-11.8356
▁कोंकण	-11.8356
▁लाठी	-11.8356
▁अशुद्ध	-11.8356
▁दादी	-11.8356
▁औंस	-11.8358
▁रूपांतरण	-11.8359
▁पूर्वज	-11.8359
▁प्रदाताओं	-11.836
▁इस्राइल	-11.836
▁तिलक	-11.8361
▁रबी	-11.8362
▁ग्	-11.8363
▁पाएगी	-11.8365
▁ध्रुव	-11.8367
प्रसार	-11.8368
▁बटोर	-11.837
▁पाम	-11.8374
▁बीए	-11.8375
▁पिछड़ा	-11.8376
▁आईआईएम	-11.8377
▁टीबी	-11.8378
▁दस्तक	-11.8379
▁फॉर्मेट	-11.8381
port	-11.8384
ल्‍	-11.8385
ik	-11.8385
बिलिटी	-11.839
▁नकल	-11.8392
▁अधर्म	-11.8393
▁2025	-11.8394
ंठ	-11.8398
▁तीख	-11.8401
▁राखी	-11.8402
मोर	-11.8403
हरी	-11.8405
ॉर	-11.8406
▁समता	-11.8406
▁तारे	-11.841
माला	-11.841
ंद्र	-11.8414
थान	-11.8414
▁सुनो	-11.8414
▁दलाल	-11.8415
▁सांप	-11.8428
▁फ़ोन	-11.8432
फ्री	-11.8432
▁तसवीर	-11.8433
▁विपत्ति	-11.8434
▁इमरजेंसी	-11.8435
▁कवायद	-11.8435
▁काल्पनिक	-11.8435
▁प्रचालन	-11.8435
▁यिर्मयाह	-11.8435
▁आइसोलेशन	-11.8435
▁चांसलर	-11.8435
▁स्‍वागत	-11.8435
▁घमंड	-11.8435
▁Home	-11.8435
पाकीज़ा	-11.8436
ोत्सव	-11.8436
▁कारखाने	-11.8436
▁अविश्वास	-11.8436
▁पोलैंड	-11.8436
कुलभूषण	-11.8437
▁न्योता	-11.8437
▁अपनाना	-11.8441
▁गतिशीलता	-11.8442
▁बापू	-11.8445
प्रशांत	-11.8446
▁मिलान	-11.8455
mp	-11.8456
▁चलिए	-11.8457
लोन	-11.8461
▁पोस्‍ट	-11.8463
▁डालो	-11.8464
▁आईसीएमआर	-11.8468
▁उत्पादित	-11.8469
▁मकर	-11.8472
्‍यू	-11.8475
टिया	-11.8478
रियल	-11.8479
▁स्टै	-11.848
▁स्था	-11.8481
▁288	-11.8482
all	-11.8484
▁लॉन्चिंग	-11.8488
कं	-11.8491
ग्राफ	-11.8492
▁उम्‍मीदवार	-11.8493
▁तारों	-11.8495
▁जवाबदेह	-11.8496
▁श्रीनिवास	-11.8503
▁अभिव्यक्त	-11.8508
▁निगाह	-11.8514
्सन	-11.8514
▁2008-09	-11.8515
▁अभियंता	-11.8515
▁कुबूल	-11.8515
▁मृदा	-11.8515
▁हवेली	-11.8515
▁डिस्चार्ज	-11.8515
▁प्रोटेक्शन	-11.8515
▁इंगित	-11.8515
▁ज्यादत	-11.8516
▁पाइपलाइन	-11.8516
▁जनों	-11.8516
▁रिचर्डसन	-11.8516
▁पाबन्द	-11.8516
▁अंशदान	-11.8516
▁सब्जी	-11.8517
▁भवनों	-11.8518
▁धर्मनिरपेक्ष	-11.8519
दूषित	-11.8519
▁"""\""	-11.8519
▁नासिक	-11.8521
▁मातृ	-11.8522
▁प्रतिस्थापित	-11.8522
▁नवम्‍बर	-11.8524
▁चतुर्थी	-11.8524
▁वां	-11.8524
▁आईपी	-11.8525
▁दोहरी	-11.8526
महाराष्ट्र	-11.8528
▁तत्त्व	-11.8528
▁मनन	-11.8532
▁बजा	-11.8533
यस	-11.8533
▁असमानता	-11.8533
▁संकेतों	-11.8538
▁बडे	-11.8539
▁इन्फोसिस	-11.854
.65	-11.854
िं	-11.8542
ऊं	-11.8544
ष्	-11.8544
-30	-11.8548
▁कार्यक्षेत्र	-11.8552
रेंस	-11.8552
क्‍स	-11.8556
,499	-11.8558
▁गली	-11.8561
रियों	-11.8562
आरपी	-11.8564
▁इंड	-11.8568
▁संचालक	-11.857
ावा	-11.8571
▁वन्य	-11.8574
▁लता	-11.8578
▁रूह	-11.8581
▁टर्म	-11.8585
ायब	-11.8586
▁क्रे	-11.8586
▁दाग	-11.8594
ोम	-11.8596
िस्टिक	-11.8596
▁आबंटन	-11.8597
▁छुट्टियां	-11.8597
▁बिड़ला	-11.8597
▁वैधानिक	-11.8597
▁सैटेलाइट	-11.8597
▁उद्धृत	-11.8597
▁तोहफा	-11.8597
▁पुरातत्व	-11.8597
▁खिलाडि़यों	-11.8597
▁नक्शे	-11.8597
▁अभिप्रेत	-11.8597
▁तिलहन	-11.8597
▁अवसाद	-11.8597
▁घोड़े	-11.8597
▁विनिवेश	-11.8597
▁बहरीन	-11.8597
▁जिलाध्यक्ष	-11.8597
▁क्रियान्वित	-11.8597
▁सोरेन	-11.8599
end	-11.8601
os	-11.8602
▁सेटिंग	-11.8603
▁वाजिब	-11.8603
▁हलफनामे	-11.8604
▁चढ़ाई	-11.8606
▁वगैरह	-11.8607
▁पूछना	-11.8607
▁क्रि	-11.861
ख्वाह	-11.861
उद	-11.8611
▁एनएसजी	-11.8612
▁ओपनिंग	-11.8614
शासी	-11.8617
मेर	-11.8621
▁नमी	-11.8622
▁निगमों	-11.8623
बीसी	-11.8625
▁दिखी	-11.8626
त्स	-11.8627
ष्‍ट	-11.8628
एनएम	-11.863
IN	-11.8633
▁अफवाहों	-11.8634
एफटी	-11.8638
▁1.4	-11.8638
ंगर	-11.8638
ण्ट	-11.8639
▁शासकों	-11.8641
▁जीरो	-11.8641
,700	-11.8645
▁रणजी	-11.8645
▁गिना	-11.8646
▁स्‍टेशन	-11.8652
▁कॉक	-11.8654
▁विकलांग	-11.8655
▁खदान	-11.8655
▁साय	-11.866
▁टैब	-11.8662
▁गिराने	-11.8665
▁हेमा	-11.8665
▁अप्र	-11.8667
▁हैंड	-11.8667
.90	-11.867
ोसिस	-11.8671
▁असदुद्द	-11.8675
▁कुं	-11.8676
▁1989	-11.8678
▁वीके	-11.8678
▁डेंगू	-11.8679
▁तिरुवनंतपुरम	-11.8679
▁नैनीताल	-11.8679
▁लॉन्ड्रिंग	-11.8679
▁सत्यापित	-11.8679
▁शिष्टमंडल	-11.8679
▁शीतकालीन	-11.8679
▁यशवंत	-11.8679
▁घनत्व	-11.8679
▁फाटक	-11.8679
▁कुत्ते	-11.8679
▁परिधान	-11.8679
▁कंट्री	-11.8679
▁कक्कड़	-11.8679
▁राजस्‍व	-11.868
▁रेस्तरां	-11.868
▁ताज़ा	-11.868
▁मनप्रीत	-11.8681
▁रपट	-11.8681
▁राइडर्स	-11.8681
▁मुजफ्फरनगर	-11.8681
▁धमाल	-11.8682
्लो	-11.8683
▁सैद्धांतिक	-11.8683
▁ब्रॉड	-11.8683
ानुसार	-11.8684
▁डिटेल्स	-11.8684
आज्ञाकारी	-11.8686
▁मौजिज़े	-11.8686
बिन	-11.8686
सीडी	-11.8686
▁सराहा	-11.8687
तया	-11.8687
प्रकाश	-11.8688
▁रेत	-11.8689
▁पॉइंट	-11.8689
▁बॉबी	-11.869
जेड	-11.8691
▁थल	-11.8691
प्रत्येक	-11.8692
पत्नी	-11.8692
▁वर्	-11.8693
▁1986	-11.8693
ियान	-11.8693
▁मिलें	-11.8694
▁118	-11.8695
▁खुशहाली	-11.8697
▁साइ	-11.8698
▁देब	-11.8698
▁विभागीय	-11.87
▁भूत	-11.8702
2012	-11.8702
▁परहेज़गारी	-11.8709
▁कराएं	-11.8713
बीच	-11.8713
▁गिनी	-11.8714
ांश	-11.8723
शासन	-11.8725
ट्टी	-11.8727
एफए	-11.8728
art	-11.8729
▁कोमल	-11.8729
दंड	-11.8731
▁बग	-11.8731
▁उतारे	-11.8737
ts	-11.8738
▁बलि	-11.8739
लियो	-11.8741
सै	-11.8743
▁अध्ययनों	-11.8744
▁ट्रिब्यून	-11.8745
▁कोशिशें	-11.8747
▁14.	-11.8751
▁रहम	-11.8751
▁डीएम	-11.8753
▁बनाओ	-11.8755
वर्त	-11.8757
▁बाँट	-11.8757
▁अकाल	-11.8757
▁ढल	-11.8757
▁सम्बंध	-11.8758
▁इस्राएली	-11.876
गुण	-11.8761
▁अनुयायियो	-11.8761
▁चोकसी	-11.8761
▁जिम्बाब्वे	-11.8761
▁टोयोटा	-11.8761
▁फर्नीचर	-11.8761
▁शोपियां	-11.8761
▁अस्थाना	-11.8761
▁हमीरपुर	-11.8761
▁यून	-11.8761
▁खजूर	-11.8761
▁प्रसव	-11.8761
▁जैकलीन	-11.8762
▁मूत्र	-11.8762
▁सहारे	-11.8762
▁मार्गदर्शक	-11.8762
▁राहगीर	-11.8762
रख	-11.8762
्रू	-11.8763
▁भ्रमण	-11.8764
▁सबूतों	-11.8764
ऑफ	-11.8764
▁बलबीर	-11.8764
▁राधाकृष्णन	-11.8765
▁उम्मीदों	-11.8765
▁फेमस	-11.8766
▁विगत	-11.8766
▁दाहिने	-11.8766
▁देशभक्ति	-11.8767
▁सक्रियता	-11.8767
▁कमांडिंग	-11.8768
निंग	-11.8768
ud	-11.877
वट	-11.8771
▁25,000	-11.8772
वार्ता	-11.8777
▁रॉस	-11.8778
▁फरमा	-11.8778
▁पोषित	-11.8779
▁यंग	-11.878
डेन	-11.8781
▁किस्त	-11.8782
▁जाऊंगा	-11.8783
▁सोन	-11.8784
▁शहद	-11.8787
▁मुक्केबाज	-11.8791
▁अक	-11.8795
▁डेली	-11.8797
▁बेहतरी	-11.8797
▁दालों	-11.88
शक	-11.88
▁लड़ी	-11.88
▁मुन	-11.8801
▁धा	-11.8805
▁वैट	-11.8806
▁गोल्डन	-11.8807
▁प्रवास	-11.8807
▁ताकतों	-11.8809
▁US	-11.8819
▁उग्रवाद	-11.8821
▁1985	-11.8824
▁स्वार्थ	-11.8827
▁ठग	-11.8829
▁विकार	-11.883
▁मुताबिक़	-11.8832
निर्	-11.8832
▁हाट	-11.8832
▁कुचल	-11.8833
न्‍द	-11.8834
ाओ	-11.8834
च्च	-11.8834
▁दस्त	-11.8838
य्या	-11.8839
-9	-11.884
▁डिटेल	-11.884
इर	-11.8842
▁बिठा	-11.8844
▁डीके	-11.8844
▁असहमति	-11.8844
napdragon	-11.8845
सांकेतिक	-11.8845
▁आमंत्रण	-11.8845
▁ऊँची	-11.8845
▁पौराणिक	-11.8845
▁मांजरेकर	-11.8845
▁जिंदल	-11.8845
▁डिपॉजिट	-11.8845
▁निलंबन	-11.8845
▁व्यंजन	-11.8845
▁चंद्रचूड़	-11.8845
▁न्‍यायालय	-11.8845
▁एडमिशन	-11.8845
▁उत्तरदायित्व	-11.8845
▁सघन	-11.8845
▁हिन्दुओं	-11.8845
▁लिप्त	-11.8846
▁झंडे	-11.8847
▁लैंडर	-11.885
▁तिल	-11.8852
▁झुका	-11.8852
▁मुख्यधारा	-11.8852
▁संदेशों	-11.8853
▁ठिकाने	-11.8853
▁घड़	-11.8854
▁BCCI	-11.8855
▁सौहार्द	-11.8857
ुल्लाह	-11.8857
उनसे	-11.8858
▁रचने	-11.886
टक	-11.8861
क्रो	-11.8862
कहीं	-11.8862
▁श्रीनिवासन	-11.8863
▁नंद	-11.8864
पीठ	-11.8864
उनका	-11.8865
क़ाबू	-11.8865
▁प्राथमिकताओं	-11.8866
केवल	-11.8872
▁अरे	-11.8877
▁पकड़कर	-11.8879
▁भोग	-11.8881
▁जताने	-11.8886
स्थिति	-11.8887
▁साइंसेज	-11.8888
▁ओएस	-11.8888
▁खिल	-11.889
आईएफ	-11.8893
ठे	-11.8901
▁अकार	-11.8902
सिंग	-11.891
▁रिट	-11.8913
▁कैम	-11.8913
▁चिली	-11.8914
▁दीपा	-11.8917
▁सॉ	-11.8921
▁उभरी	-11.8923
▁निर्धन	-11.8923
▁द्रव	-11.8926
▁फाइनेंशियल	-11.8929
▁बीकानेर	-11.8929
▁लुईस	-11.8929
▁तुलसी	-11.8929
▁विदर्भ	-11.8929
▁वोल्टेज	-11.8929
▁रहस्यमय	-11.8929
▁सम्बद्ध	-11.8929
▁नाबार्ड	-11.8929
▁रियलिटी	-11.8929
▁अहिंसा	-11.893
▁स्‍वीकृति	-11.893
▁मुकुल	-11.893
▁टोक्यो	-11.8931
▁निकटतम	-11.8931
▁कूटनीतिक	-11.8932
▁सोमनाथ	-11.8932
▁विनष्ट	-11.8933
▁परमिट	-11.8933
▁लगाव	-11.8937
▁वॉटर	-11.8937
▁धमाका	-11.8938
म्‍	-11.8938
▁निभाती	-11.8941
▁एडवांस	-11.8941
सामान्य	-11.8942
▁राज़ी	-11.8944
▁श्	-11.8944
अच्छे	-11.8944
▁अलगाववादी	-11.8945
▁दायित्वों	-11.8945
▁अधिनियमित	-11.8948
▁मौनी	-11.8949
▁TV	-11.8949
▁स्ट्रीम	-11.8951
▁मज	-11.8953
▁4000	-11.8954
▁आयातित	-11.8955
▁शारदा	-11.8955
▁यमन	-11.8956
▁आकृति	-11.8957
▁कू	-11.896
▁126	-11.8965
वाया	-11.8966
▁550	-11.8966
▁निशंक	-11.8967
""।"	-11.8967
▁पीस	-11.897
▁झेलन	-11.8976
ाएं	-11.8976
▁साध्व	-11.898
▁मिलों	-11.8981
▁गैंग	-11.8982
iv	-11.8983
▁क्रू	-11.8983
▁ट्र	-11.8986
लेख	-11.8987
▁बेचे	-11.8987
▁मक	-11.8995
ाएगी	-11.8998
▁मलब	-11.9001
▁रिपब्लिक	-11.9001
▁(8	-11.9001
▁विधेयकों	-11.9002
ौन	-11.9003
विंग	-11.9005
▁बहाली	-11.9007
▁शर	-11.9007
▁गिन	-11.9008
न्य	-11.9008
▁बालन	-11.9009
▁फेम	-11.901
नवरात्रि	-11.901
वस	-11.9011
▁रोज़ा	-11.9011
▁कैथल	-11.9011
▁145	-11.9013
▁दुष्यंत	-11.9013
▁मुख्तार	-11.9013
▁विधायिका	-11.9013
▁स्त्रियाँ	-11.9013
▁चार्ल्स	-11.9013
▁यांत्रिक	-11.9013
▁मेलबर्न	-11.9014
▁कोतवाली	-11.9014
▁एयरक्राफ्ट	-11.9014
ुरु	-11.9014
▁थि	-11.9015
▁अमरेंद्र	-11.9015
▁एकाउंट	-11.9015
▁विद्युतीकरण	-11.9017
▁प्रदेशाध्यक्ष	-11.9018
▁पुकारते	-11.9021
▁बदलता	-11.9021
▁स्टेज	-11.9025
▁दिखती	-11.9025
▁राष्ट्रपिता	-11.9026
▁इक	-11.9026
▁यूटी	-11.9028
व्यक्ति	-11.9029
लक	-11.9031
▁गानों	-11.9032
▁सैर	-11.9038
▁11:	-11.9039
▁कैरी	-11.9039
एसडी	-11.9041
चक	-11.9041
ाधिकारी	-11.9044
ेस्ट	-11.9044
▁सीमाएं	-11.9049
▁दृश्यों	-11.905
▁छुड़ा	-11.9055
एनए	-11.9055
बिट	-11.9057
वाना	-11.9058
▁650	-11.9058
▁माइ	-11.906
▁भड़काने	-11.906
▁फेंकने	-11.906
फ्रे	-11.906
▁रोकते	-11.9063
▁मिक्स	-11.9068
दायी	-11.9068
▁इता	-11.9075
▁फिसल	-11.9078
लिखित	-11.9081
▁पिताजी	-11.9082
▁खर्चों	-11.9085
▁अमृत	-11.9086
▁निर्गम	-11.909
▁एसोसिएट	-11.9093
▁विलियम्स	-11.9096
▁इनोवेशन	-11.9099
▁मसौदे	-11.9099
▁विस्‍तृत	-11.9099
▁उत्थान	-11.9099
▁मिनिस्टर	-11.9099
▁ग्रेनेड	-11.9099
▁दबिश	-11.9099
▁भविष्यवक्‍ता	-11.9099
▁हजारे	-11.91
▁भिड़ंत	-11.91
▁वॉ	-11.91
▁नजीर	-11.91
▁ताइवान	-11.91
▁1962	-11.9102
▁डिफ़ॉल्ट	-11.9103
▁औरत	-11.9104
▁टैरिफ	-11.9105
▁राजभाषा	-11.9105
▁सहेज	-11.9106
▁103	-11.9107
▁छेद	-11.9107
▁सुरक्षाकर्मियों	-11.9108
▁चिंतन	-11.9108
▁हुओं	-11.9109
▁वैद्य	-11.9112
दृष्टि	-11.9114
▁प्राणियों	-11.9115
ity	-11.9116
येंगे	-11.9116
▁गम	-11.9117
▁लगाम	-11.9119
▁रेक	-11.9119
केंद्रीय	-11.912
▁खरीदारों	-11.912
▁वेडिंग	-11.9121
हैकि	-11.9121
ाधार	-11.9124
किसान	-11.9124
▁कुदरत	-11.9124
▁आरोपपत्र	-11.9125
▁म्यू	-11.9126
▁बोनस	-11.9126
▁बहने	-11.9128
▁लौटकर	-11.9132
बहनों	-11.9133
▁लेडी	-11.9135
▁वाक	-11.9137
▁उम	-11.9138
▁घिरा	-11.914
गाह	-11.9142
शू	-11.9143
वित	-11.9149
▁पिला	-11.915
▁देनेवाला	-11.9151
ाकर	-11.9152
िज्म	-11.9158
▁काश	-11.9161
ैश	-11.9162
ुत	-11.9163
धु	-11.9163
म्मा	-11.9163
▁पायलटों	-11.9167
▁इतिहासकार	-11.917
▁नीले	-11.9172
▁122	-11.9173
लव	-11.9175
▁घटकों	-11.9176
▁नोड	-11.9177
संबंध	-11.9177
खड़	-11.9182
ow	-11.9185
▁5-	-11.9185
▁कैल्शियम	-11.9185
▁द्रमुक	-11.9185
▁धारावाहिक	-11.9185
▁फातिमा	-11.9185
▁माथुर	-11.9185
▁वसीयत	-11.9185
▁विजयवर्गीय	-11.9185
▁येचुरी	-11.9185
▁खदेड़	-11.9185
▁प्रतियोगी	-11.9185
▁आगजनी	-11.9185
▁रेगिस्तान	-11.9185
▁सरसों	-11.9185
▁हरसिमर	-11.9185
▁तटरक्षक	-11.9186
▁कटारिया	-11.9186
▁Sh	-11.9186
▁कीचड़	-11.9186
▁गिलानी	-11.9186
▁प्रणव	-11.9187
▁पाओगे	-11.9187
▁लॉगिन	-11.9187
▁मेरिट	-11.9187
▁1973	-11.9188
▁तिब्बत	-11.9188
▁जगा	-11.9189
▁उद्योगपति	-11.919
▁पीपल	-11.919
▁फ़िल्मों	-11.9191
▁खुलासे	-11.9192
ेंसी	-11.9197
▁संकेतक	-11.9199
▁नियोजित	-11.92
▁क्षेत्रफल	-11.92
फार्म	-11.92
▁मेहरा	-11.9201
▁केन्या	-11.9203
IS	-11.9204
▁होटलों	-11.9204
▁आंका	-11.9204
▁गरज	-11.9204
▁बांग्ला	-11.9205
▁जहन्नम	-11.9205
डीओ	-11.9206
▁एएम	-11.9207
▁चेले	-11.9208
▁तीर	-11.9209
▁6,000	-11.9209
▁रातों	-11.921
▁रेपो	-11.921
▁बरत	-11.921
▁फंडिंग	-11.9211
ग्रह	-11.9211
वाड़ी	-11.9211
▁सेमी	-11.9211
▁जाग	-11.9217
वली	-11.9217
▁छठा	-11.922
▁नाता	-11.9221
▁लोकेश	-11.9222
▁अंग्रेज	-11.9223
▁दागे	-11.9228
▁उदाहरणों	-11.9229
निर्मित	-11.9229
इसका	-11.923
रेशन	-11.923
▁चिन	-11.9231
▁क्व	-11.9232
▁एनसी	-11.9233
▁प्रीत	-11.9241
ell	-11.9241
▁चढ़कर	-11.9241
लांग	-11.9242
▁चूर	-11.9245
▁गिरीश	-11.9247
▁सिक	-11.9248
िंद	-11.9249
▁बुनियाद	-11.9252
द्य	-11.9254
▁जस्टि	-11.9254
▁करवाए	-11.9255
▁गिरे	-11.9257
▁एसके	-11.9257
▁साझी	-11.9268
▁रोबोट	-11.9268
▁आश्रित	-11.9272
▁अल्मोड़ा	-11.9272
▁उच्चायोग	-11.9272
▁कुवैत	-11.9272
▁हस्तशिल्प	-11.9272
▁भरोसेमंद	-11.9272
▁निराधार	-11.9272
▁FIR	-11.9272
▁हड्डी	-11.9272
▁मोचन	-11.9272
▁जिम्मा	-11.9273
▁स्‍वीकार	-11.9273
▁अपर्याप्त	-11.9273
▁अप्लाई	-11.9273
▁कार्यपालिका	-11.9274
▁व्‍यक्तियों	-11.9274
▁तालीम	-11.9275
▁संभाग	-11.9275
▁फिक्सिंग	-11.9276
▁उड़ाया	-11.9276
▁करूँ	-11.9277
▁पर्वतीय	-11.9277
▁विश्वनाथ	-11.9278
▁व्यभिचार	-11.9278
▁मराठा	-11.9278
▁ठहराते	-11.9279
▁दोज़ख़	-11.9281
▁ऊँचे	-11.9282
▁द्वारका	-11.9282
ary	-11.9283
▁मोती	-11.9284
▁उठकर	-11.9286
▁शू	-11.9287
एचडी	-11.9289
pl	-11.9291
▁पैड	-11.9291
▁बोनी	-11.9292
▁मंडप	-11.9293
▁दोहन	-11.9294
▁ब्रे	-11.9296
▁भरना	-11.9298
▁कार्ल	-11.9301
▁be	-11.9301
▁सीमांत	-11.9301
▁रेन	-11.9309
▁ठहरने	-11.9309
▁1970	-11.9309
ge	-11.9312
▁संदर्भित	-11.9314
पूरा	-11.9315
▁पद्मावती	-11.9324
▁दुर्	-11.9325
गति	-11.9325
▁फॉ	-11.9326
▁ऑपरेटर	-11.9329
ज़ो	-11.9331
सीआईएल	-11.9331
▁मेहर	-11.9332
नोट	-11.9332
डीपी	-11.9334
AR	-11.9335
▁जरूरतमंद	-11.9335
नाइट	-11.9344
▁190	-11.9345
कस	-11.9346
▁1-0	-11.9346
जिंग	-11.9346
ोई	-11.9348
्टे	-11.9349
▁माय	-11.935
▁मानवाधिकारों	-11.9351
▁शैल	-11.9354
ावधान	-11.9358
िश्	-11.9359
▁वाईएसआर	-11.936
▁भरोसे	-11.936
▁विन्यास	-11.936
▁ताजमहल	-11.936
▁पछाड़	-11.936
▁इंटरफेस	-11.936
▁पुजारी	-11.936
▁शाओमी	-11.936
▁शादीशुदा	-11.9361
▁हुयी	-11.9361
▁मूवमेंट	-11.9361
▁श्वेत	-11.9362
▁(11	-11.9362
▁जनपद	-11.9362
▁लाभप्रद	-11.9363
ॉट	-11.9363
▁मेनका	-11.9364
▁1960	-11.9364
▁अमीन	-11.9366
लैण्ड	-11.9366
▁साड़ी	-11.9366
▁होनेवाली	-11.9366
▁भूमिगत	-11.9367
पीपीएसी	-11.9367
▁लेफ्ट	-11.9367
▁भावनाएं	-11.9371
▁जोनास	-11.9371
▁क़ादिर	-11.9371
▁पारा	-11.9371
▁कहलाता	-11.9372
यूपीएससी	-11.9374
▁लगायी	-11.9374
र्ण	-11.9375
▁समझदारी	-11.9378
एटी	-11.938
,600	-11.9382
एसी	-11.9386
एमटी	-11.9388
हाट	-11.9389
▁रखनी	-11.9391
▁क्वा	-11.9391
▁लेंगी	-11.9392
जीएम	-11.9394
▁ट्रकों	-11.9399
जीपी	-11.94
▁पाली	-11.9401
सपा	-11.9401
मीडिया	-11.9406
रेड	-11.9413
मित्र	-11.9414
सिम	-11.9416
बंध	-11.9421
▁डरने	-11.9421
चाल	-11.9422
▁इसमे	-11.9426
फ़ैसले	-11.9429
▁नजरबंद	-11.9438
▁बंध	-11.9438
▁भेजना	-11.9439
▁चिराग	-11.9443
▁फिलिप	-11.9443
क्ट	-11.9443
▁गॉ	-11.9447
▁मानचित्र	-11.9448
ग्ग	-11.9448
▁अटॉर्नी	-11.9448
▁अदायगी	-11.9448
▁प्रॉपर्टी	-11.9448
▁महाभियोग	-11.9448
▁रेजोल्यूशन	-11.9448
▁हाइब्रिड	-11.9448
▁तीर्थयात्रियों	-11.9448
▁परिप्रेक्ष्य	-11.9448
▁इनेलो	-11.9448
▁अर्द्ध	-11.9448
▁ओमप्रकाश	-11.9449
▁ठहराने	-11.9449
▁सस्पेंड	-11.9449
▁आश्चर्यजनक	-11.9449
▁करतूत	-11.9449
▁कैम्प	-11.9449
▁ठेस	-11.9449
▁क्रैश	-11.9449
▁लेखिका	-11.9453
▁संपादकीय	-11.9454
विल	-11.9456
▁ऑफलाइन	-11.9458
▁संचयी	-11.9458
▁रखेगी	-11.9461
▁बक्स	-11.9461
▁खेप	-11.9462
▁संप्रग	-11.9462
▁निर	-11.9462
▁जूट	-11.9463
ob	-11.9464
▁पूर्ववर्ष	-11.9465
एमआई	-11.9466
समूह	-11.9467
▁पंजी	-11.9467
इसलिए	-11.9469
▁CBSE	-11.947
▁आइये	-11.947
प्रकाशित	-11.9472
बिहार	-11.9474
▁गेस्ट	-11.9477
▁मंत्रि	-11.9477
दर्शित	-11.9477
▁उगा	-11.9478
▁रोह	-11.9478
यानी	-11.9479
ff	-11.9482
▁एमजी	-11.9483
्लि	-11.9486
ँकि	-11.9488
▁निकलकर	-11.9489
▁करूँगा	-11.9491
ांकन	-11.9492
if	-11.9494
जमा	-11.9495
एनआरसी	-11.9496
tic	-11.95
एएफ	-11.9502
▁बिलों	-11.9504
▁पहुँची	-11.9504
बिग	-11.9507
▁बोध	-11.9509
कूल	-11.9509
bi	-11.9511
▁एएस	-11.9518
क्षण	-11.952
▁मुबारक	-11.952
यूपी	-11.952
रेल	-11.9524
▁बदलें	-11.9524
जून	-11.9526
▁लौ	-11.9528
▁सुमन	-11.9532
▁प्रचुर	-11.9532
जार	-11.9536
▁रिश्‍ते	-11.9537
▁जायसवाल	-11.9538
▁द्विवेदी	-11.9538
▁फ़ंक्शन	-11.9538
▁कॉन्ग्रेस	-11.9538
▁मंत्रिपरिषद	-11.9538
▁प्रेरक	-11.9538
▁भाग्यशाली	-11.9538
▁डिविलियर्स	-11.9538
▁भोजपुरी	-11.9538
▁मेहुल	-11.9538
▁कबड्डी	-11.9538
▁शोधकर्ता	-11.9538
▁पादरी	-11.9539
to	-11.9539
▁इन्वेस्टमेंट	-11.9541
▁प्रहार	-11.9541
▁खुलने	-11.9542
▁जूते	-11.9542
▁ट्रे	-11.9543
▁वाय	-11.9544
▁उर्जा	-11.9544
वारी	-11.9545
▁सिंहासन	-11.9545
ru	-11.9547
▁सिं	-11.9551
चेतेश्वर	-11.9552
▁AAP	-11.9554
▁New	-11.9554
▁फरिश्ते	-11.9555
▁कैब	-11.9556
▁धन्य	-11.9558
फ्रंट	-11.9559
मार्च	-11.956
प्रेम	-11.956
▁फेक	-11.9564
▁बाजी	-11.9566
▁पत्रिकाओं	-11.9566
चू	-11.9566
दरी	-11.9568
▁Mo	-11.9569
टु	-11.957
▁(15	-11.957
बीपी	-11.9573
दलीय	-11.9576
▁नजरिया	-11.9586
र्फ	-11.9593
▁टुकड़	-11.9593
वाय	-11.9598
प्रदर्शन	-11.9601
िथ	-11.9608
▁डरे	-11.9609
लाह	-11.961
▁एनए	-11.9617
▁फैसल	-11.962
▁प्रकाशना	-11.9622
▁बोल्ट	-11.9622
▁निशानेबाज	-11.9625
▁रिटायर	-11.9627
▁Kapoor	-11.9628
▁एप्लिकेशन	-11.9628
▁प्रायद्वीप	-11.9628
▁बशर्ते	-11.9628
▁चमोली	-11.9628
▁सौदों	-11.9628
▁रिज़र्व	-11.9628
▁वसंत	-11.9628
▁शेखावत	-11.9628
▁धकेल	-11.9628
▁शुगर	-11.9628
▁बैलेंस	-11.9628
टॉ	-11.9629
▁हाइवे	-11.9629
▁प्रतिभूतियों	-11.9629
▁मोस्ट	-11.9631
▁असेंबली	-11.9631
▁1972	-11.9631
▁स्विस	-11.9631
▁अथक	-11.9632
▁वग़ैरह	-11.9632
जीआई	-11.9633
ाधिक	-11.9634
▁रास	-11.9638
▁सुनाने	-11.9638
▁व्हील	-11.964
▁पहचाना	-11.9642
di	-11.9644
▁अक्ष	-11.9647
ईटी	-11.9647
ग्रा	-11.9647
मूर्ति	-11.9648
चुनाव	-11.9648
हिद	-11.9648
फुल	-11.9648
गिर्द	-11.9649
हरियाणा	-11.9649
▁आपदाओं	-11.965
एनआर	-11.9651
▁यूथ	-11.9654
▁होगे	-11.9654
▁नाल	-11.9657
▁बहनें	-11.9658
▁जीप	-11.9659
▁मू	-11.9659
▁शरणार्थी	-11.9659
गंगा	-11.9659
▁बदलती	-11.966
▁अफ	-11.9662
▁कारें	-11.9667
▁अलगाव	-11.9669
श्य	-11.967
res	-11.9672
िन्द्र	-11.9676
▁पीएस	-11.9676
▁वॉक	-11.9677
▁बुजुर्गों	-11.9679
▁पांचों	-11.968
क्यों	-11.9681
ार्ड	-11.9689
ंश	-11.969
▁135	-11.9694
स्टिक	-11.9695
ांस	-11.9697
▁चीख	-11.9698
▁बालकों	-11.9699
दाता	-11.9699
कारियों	-11.97
▁क्रूर	-11.9704
▁राज्यक्षेत्र	-11.9708
▁एमए	-11.9709
▁सीताराम	-11.971
▁रामचंद्र	-11.9711
▁बहादुरी	-11.9711
▁प्राय	-11.9712
▁टूटने	-11.9713
.26	-11.9716
▁परिसंपत्ति	-11.9717
▁स्कॉट	-11.9719
▁वृहद	-11.9719
्लादिमीर	-11.9719
▁थियेटर	-11.9719
▁नरसंहार	-11.9719
▁फंक्शन	-11.9719
▁बोपन्ना	-11.9719
▁वृद्घि	-11.9719
▁शत्रुघ्न	-11.9719
▁सिंघवी	-11.9719
▁ट्रिलियन	-11.9719
▁तहरीक	-11.9719
▁वास्तुकला	-11.9719
▁अदरक	-11.9719
▁हास्य	-11.9719
▁पर्सेंट	-11.9719
▁तौभी	-11.9719
▁रैफर	-11.9719
▁अनुकरण	-11.9719
▁झुंड	-11.9719
▁धनशोधन	-11.9719
▁रेलगाड़ी	-11.9719
▁पक्के	-11.9719
▁मनोबल	-11.972
▁पाट	-11.972
▁शख्सियत	-11.972
▁बेड़े	-11.9722
▁नवीनीकरण	-11.9722
▁अटकलें	-11.9722
▁मिलीमीटर	-11.9722
▁1951	-11.9723
▁आदिवासियों	-11.9723
▁उठाएंगे	-11.9723
▁1994	-11.9725
ana	-11.9727
▁आरोग्य	-11.9727
▁सार्क	-11.9728
स्की	-11.9728
ईपी	-11.9729
▁चाहेगा	-11.9732
▁कच्छ	-11.9735
्फ	-11.9735
▁(9	-11.9736
ज्ञा	-11.9736
▁मिलन	-11.9737
▁उकसाने	-11.9737
▁चंदन	-11.9738
्‍या	-11.9739
इन्	-11.9741
▁क्रूरता	-11.9741
रीन	-11.9745
▁मेधाव	-11.9746
▁इमेज	-11.975
▁टर्न	-11.9754
बाज़ी	-11.9758
्ती	-11.9758
▁इंडीज	-11.9761
▁नाईक	-11.9762
▁दीवान	-11.9763
MC	-11.9763
▁109	-11.9767
▁पिट	-11.977
ुल्ला	-11.9774
ाट	-11.9776
▁बाबरी	-11.9781
ct	-11.9784
मुखी	-11.9791
ब्रा	-11.9792
खुदा	-11.9792
▁राघव	-11.98
सारा	-11.9802
▁डीन	-11.9805
पथ	-11.9808
▁सुपुर्द	-11.9809
▁दुग्ध	-11.981
मुशरेकीन	-11.981
▁तब्बू	-11.981
▁धौनी	-11.981
▁पुंछ	-11.981
▁पॉपुलर	-11.981
▁प्रचंड	-11.981
▁सोनोवाल	-11.981
▁सरगना	-11.981
▁अंतर्निहित	-11.981
▁मसाला	-11.981
▁अधीर	-11.9811
▁रीढ़	-11.9812
▁सूजन	-11.9812
▁जन्‍म	-11.9812
▁सैलरी	-11.9812
▁दूरदर्शन	-11.9812
▁संधू	-11.9812
▁पागल	-11.9813
सैट	-11.9813
▁शोभा	-11.9814
▁देखोगे	-11.9815
▁दाएं	-11.9816
▁आघात	-11.9816
कृ	-11.9817
▁मसीहा	-11.9818
्योर	-11.9819
लकर	-11.982
एलसी	-11.9821
▁बहका	-11.9821
▁सर्दी	-11.9821
बद	-11.9821
▁ट्रैवल	-11.9822
▁नवाज़	-11.9823
टेंशन	-11.9823
डम	-11.9825
▁मंगोलिया	-11.9825
▁बुझाने	-11.9827
▁https	-11.9827
▁आईटीआई	-11.9829
▁निकलती	-11.9829
▁ब्रायन	-11.983
ैक्ट	-11.9831
▁स्केल	-11.9832
िंस	-11.9832
▁एसएससी	-11.9834
ूम	-11.9837
▁मोटी	-11.9838
▁एली	-11.9838
तला	-11.984
▁ज्	-11.984
em	-11.9841
निशानियों	-11.9845
▁बडा	-11.9845
▁असद	-11.9845
सागर	-11.9846
▁बर्न	-11.9848
▁दिलात	-11.985
▁कृत्यों	-11.9852
▁भूमिकाएं	-11.9852
▁एडिटर	-11.9853
कोण	-11.9856
स्ती	-11.9856
तान	-11.9859
▁भेड़ों	-11.9859
ैंस	-11.9862
ूँगा	-11.9862
▁रोवर	-11.9863
▁खाका	-11.9863
▁पड़ाव	-11.9864
ेन्स	-11.9864
▁सवा	-11.9865
▁करीम	-11.9866
टर्स	-11.9869
pur	-11.987
बिया	-11.9876
▁स्थितियां	-11.9877
▁करवाना	-11.9877
फॉर्म	-11.9879
▁पाएं	-11.988
▁उभरत	-11.9882
श्त	-11.9883
दादा	-11.9886
.48	-11.9889
▁फ़िर	-11.989
▁ऑफर्स	-11.9898
▁समस्‍या	-11.99
▁कद	-11.9901
▁अवज्ञा	-11.9903
▁अनोखा	-11.9903
▁अरशद	-11.9903
▁कस्बे	-11.9903
▁महर्षि	-11.9903
▁मुराद	-11.9903
▁वैदिक	-11.9903
▁शमूएल	-11.9903
▁सिद्धारमैया	-11.9903
▁स्‍पष्‍ट	-11.9903
▁हेक्‍टेयर	-11.9903
▁जबर्दस्त	-11.9903
▁रुकावट	-11.9903
▁सिक्के	-11.9903
▁आकाशवाणी	-11.9903
▁खगोल	-11.9903
▁सेफ्टी	-11.9904
▁महंगे	-11.9904
▁विस्थापित	-11.9904
▁सीज़न	-11.9904
पश्चिमी	-11.9906
▁1976	-11.9906
▁पद्धतियों	-11.9906
▁स्वतः	-11.9906
▁बॉलिव	-11.9908
नौ	-11.9908
▁बिताया	-11.9909
▁निधियों	-11.9909
▁गुहार	-11.9909
▁अपमानित	-11.9914
▁छाई	-11.9915
वर्स	-11.9916
▁अंगूर	-11.9917
▁सूझ	-11.9917
▁बीबीसी	-11.9918
पों	-11.9918
▁420	-11.9923
लता	-11.9924
बाज	-11.9927
प्रिंट	-11.9927
प्रतिशत	-11.9927
बना	-11.9927
एमओयू	-11.9928
▁एमटी	-11.9932
▁टेप	-11.9934
▁बेर	-11.9934
हड़	-11.9936
▁बीवी	-11.9938
▁जड़े	-11.9939
AM	-11.9942
ाधिकार	-11.9946
लीन	-11.9947
▁उभरा	-11.9948
▁पीजी	-11.9948
▁सम्‍	-11.995
आतंकवाद	-11.9951
योजना	-11.9951
▁गुड़	-11.9959
▁खुदाई	-11.996
बर्ट	-11.996
मिशन	-11.9962
पीआई	-11.9963
▁स्‍थानों	-11.9963
▁डै	-11.9967
आय	-11.9969
▁लेटर	-11.997
ेसी	-11.9972
ेंड	-11.9974
▁117	-11.9975
▁बेह	-11.9976
आरएसएस	-11.9978
स्पा	-11.998
▁घी	-11.998
ies	-11.998
▁करंट	-11.9982
्मी	-11.9984
▁1,2	-11.9984
ेंगी	-11.9984
▁डीडी	-11.9985
▁प्रबन्ध	-11.9987
ज्जु	-11.9989
▁इजराइल	-11.9996
▁कैटेगरी	-11.9996
▁क्वारंटाइन	-11.9996
▁प्रोत्‍साहन	-11.9996
▁फ्लोरिडा	-11.9996
▁बखूबी	-11.9996
▁रक्तचाप	-11.9996
▁रणधीर	-11.9996
▁वेरियंट	-11.9996
▁चेयरपर्सन	-11.9996
▁अवतर	-11.9996
▁मोहलत	-11.9996
▁मोर्गन	-11.9997
▁बरेली	-11.9997
पर्याप्‍त	-11.9997
▁फिनलैंड	-11.9997
▁रोज़गार	-11.9997
इज	-11.9997
▁विवश	-11.9997
▁ट्रेंट	-11.9997
▁14:	-11.9998
▁मुल	-11.9998
▁औषधीय	-11.9998
▁असुविधा	-11.9998
▁बान्ध	-11.9998
▁सफ़र	-11.9999
▁उपखंड	-11.9999
▁नीतू	-12
▁अनुज्ञात	-12
▁दूरस्थ	-12.0002
▁यात्राओं	-12.0002
टीआर	-12.0002
▁भ्रामक	-12.0004
छत्रपति	-12.0004
नेशनल	-12.0005
▁वन्यजीव	-12.0005
▁एट	-12.0005
▁IND	-12.0005
▁मेडिसिन	-12.0005
▁गोल्फ	-12.0006
▁गार	-12.0008
▁संक्रामक	-12.0008
▁रोके	-12.0009
वंत	-12.0009
बाबू	-12.0011
▁टॉक	-12.0013
सीपी	-12.0014
▁छाए	-12.0016
▁हारे	-12.0017
महिला	-12.0019
▁लिन	-12.002
ल्प	-12.002
▁अंतः	-12.0022
▁कमांडो	-12.0026
sp	-12.0026
▁संस्कृतियों	-12.0026
▁दुर्ग	-12.0027
▁स्पर्श	-12.0028
▁आरके	-12.003
▁नौकर	-12.0034
▁तोड़कर	-12.0034
▁आरटी	-12.0039
▁अभिरक्षा	-12.0039
▁नीट	-12.0039
.47	-12.0042
▁मरा	-12.0042
▁2'	-12.0042
ोरी	-12.0047
▁समझें	-12.0049
▁देनेवाले	-12.005
बेक	-12.0051
▁(14	-12.0051
ड़क	-12.0054
.87	-12.0055
गीर	-12.0055
▁राजपत्र	-12.0056
क्रा	-12.0058
दत्त	-12.0059
जेंट	-12.006
-1)	-12.0062
▁घन	-12.0063
▁आद	-12.0065
्‍क	-12.0066
सत	-12.0066
▁कृषक	-12.0067
▁मैक्	-12.0067
नुमा	-12.0069
नान	-12.0072
मेड	-12.0072
▁रियाज	-12.0073
▁मेट	-12.0076
▁प्रभाकर	-12.0076
▁चैक	-12.0079
▁बुश	-12.0079
"",	-12.0083
ट्टे	-12.0084
IP	-12.0085
िन्दर	-12.0085
्जे	-12.0087
▁सेकेंड	-12.0089
▁माला	-12.0089
▁हिस्‍से	-12.0091
आल	-12.0091
▁एमोलेड	-12.0091
▁एविएशन	-12.0091
▁दानिय्येल	-12.0091
▁निरन्तर	-12.0091
▁निर्बाध	-12.0091
▁नेटफ्लिक्स	-12.0091
▁भक्‍ति	-12.0091
▁शुष्क	-12.0091
▁मंत्रिमण्डल	-12.0091
▁मजलिस	-12.0091
▁समायोजन	-12.0091
▁अन्तर्राष्ट्रीय	-12.0091
तिया	-12.0091
▁मनरेगा	-12.0091
▁अभ्‍यास	-12.0091
▁बत्रा	-12.0092
▁हस्तियां	-12.0092
कृष्णा	-12.0093
▁योद्धाओं	-12.0093
▁बेल्ट	-12.0094
▁निजता	-12.0094
sa	-12.0096
▁रशीद	-12.0096
पीओ	-12.0098
▁अलवर	-12.0099
▁अर्जन	-12.0102
▁विक्रेता	-12.0104
▁टुकड़ा	-12.0104
▁क्लासिक	-12.0106
EC	-12.011
मारी	-12.0112
.41	-12.0113
▁फ़िरऔन	-12.0114
▁जींद	-12.0115
▁उतारी	-12.0115
पिछला	-12.0116
▁उड़ाने	-12.0117
▁कार्	-12.0117
परिवार	-12.0118
▁टुकड़ों	-12.0119
▁पट्टे	-12.0119
▁पदोन्नति	-12.012
यहूद	-12.0122
▁जेन	-12.0122
▁नरमी	-12.0124
ेकर	-12.0128
▁नेटवर्किंग	-12.0131
▁महादेव	-12.0134
▁भि	-12.0136
▁डीसीपी	-12.0139
(2)	-12.014
SR	-12.0143
▁कमला	-12.0145
निका	-12.0148
▁छठ	-12.0148
वर्ड	-12.015
▁पाठकों	-12.0154
माहित	-12.0155
▁फंसा	-12.0157
ावर	-12.0157
▁मुकाबल	-12.0163
▁क़ा	-12.0166
▁106	-12.0169
दर्शन	-12.0171
लक्ष्य	-12.0171
ट्रिक	-12.0172
▁पुरूषों	-12.0175
तुर	-12.0176
▁स्पेसिफिकेशन	-12.018
एचआर	-12.018
.86	-12.0183
ेद	-12.0183
▁योद्धा	-12.0183
▁भिजवा	-12.0184
▁Nokia	-12.0186
▁अनुयायी	-12.0186
▁आनुवंशिक	-12.0186
▁इतालवी	-12.0186
▁गर्मजोशी	-12.0186
▁मुलाक़ात	-12.0186
▁यूनेस्को	-12.0186
▁विशाखापत्तनम	-12.0186
▁वॉट्सऐप	-12.0186
▁सहारनपुर	-12.0186
▁जर्सी	-12.0186
▁निःशुल्क	-12.0186
▁उद्धरण	-12.0186
▁मर्यादा	-12.0186
▁कठुआ	-12.0186
▁पुनर्जीवित	-12.0186
▁रैपिड	-12.0186
▁सर्वप्रथम	-12.0186
▁संपादन	-12.0186
▁सैन्‍य	-12.0187
▁कुपोषण	-12.0187
▁राजौरी	-12.0187
▁संरचनात्मक	-12.0187
▁न्यौता	-12.0188
▁प्रस्थान	-12.0188
▁लेक	-12.0188
▁आईएसआईएस	-12.0188
▁भाषणों	-12.0188
ॉयड	-12.0189
▁मोशन	-12.019
जेन	-12.019
▁टेस्‍ट	-12.019
▁हथकरघा	-12.0191
▁अचल	-12.0192
डेल	-12.0193
▁साहसिक	-12.0194
▁नाटकीय	-12.0194
▁मिलेंगी	-12.0195
पीआर	-12.0196
▁लगाता	-12.0196
▁निर्वाह	-12.0196
▁हावड़ा	-12.0196
ip	-12.0197
▁काफिर	-12.0197
▁हत्यारों	-12.0199
▁प्रॉ	-12.02
▁एनपीआर	-12.0202
हाँ	-12.0204
अभि	-12.0204
▁खेलेंगे	-12.0205
तथा	-12.0206
सद	-12.0207
▁ख़ौफ	-12.0212
वित्त	-12.0213
[...]
